{
  "version": "1.0",
  "truncation": null,
  "padding": null,
  "added_tokens": [
    {
      "id": 0,
      "content": "[UNK]",
      "single_word": false,
      "lstrip": false,
      "rstrip": false,
      "normalized": false,
      "special": true
    },
    {
      "id": 1,
      "content": "[CLS]",
      "single_word": false,
      "lstrip": false,
      "rstrip": false,
      "normalized": false,
      "special": true
    },
    {
      "id": 2,
      "content": "[SEP]",
      "single_word": false,
      "lstrip": false,
      "rstrip": false,
      "normalized": false,
      "special": true
    },
    {
      "id": 3,
      "content": "[PAD]",
      "single_word": false,
      "lstrip": false,
      "rstrip": false,
      "normalized": false,
      "special": true
    },
    {
      "id": 4,
      "content": "[MASK]",
      "single_word": false,
      "lstrip": false,
      "rstrip": false,
      "normalized": false,
      "special": true
    }
  ],
  "normalizer": null,
  "pre_tokenizer": {
    "type": "Whitespace"
  },
  "post_processor": null,
  "decoder": null,
  "model": {
    "type": "BPE",
    "dropout": null,
    "unk_token": "[UNK]",
    "continuing_subword_prefix": null,
    "end_of_word_suffix": null,
    "fuse_unk": false,
    "byte_fallback": false,
    "ignore_merges": false,
    "vocab": {
      "[UNK]": 0,
      "[CLS]": 1,
      "[SEP]": 2,
      "[PAD]": 3,
      "[MASK]": 4,
      "!": 5,
      "\"": 6,
      "#": 7,
      "$": 8,
      "%": 9,
      "&": 10,
      "'": 11,
      "(": 12,
      ")": 13,
      "*": 14,
      "+": 15,
      ",": 16,
      "-": 17,
      ".": 18,
      "/": 19,
      "0": 20,
      "1": 21,
      "2": 22,
      "3": 23,
      "4": 24,
      "5": 25,
      "6": 26,
      "7": 27,
      "8": 28,
      "9": 29,
      ":": 30,
      ";": 31,
      "<": 32,
      "=": 33,
      ">": 34,
      "?": 35,
      "@": 36,
      "A": 37,
      "B": 38,
      "C": 39,
      "D": 40,
      "E": 41,
      "F": 42,
      "G": 43,
      "H": 44,
      "I": 45,
      "J": 46,
      "K": 47,
      "L": 48,
      "M": 49,
      "N": 50,
      "O": 51,
      "P": 52,
      "Q": 53,
      "R": 54,
      "S": 55,
      "T": 56,
      "U": 57,
      "V": 58,
      "W": 59,
      "X": 60,
      "Y": 61,
      "Z": 62,
      "[": 63,
      "\\": 64,
      "]": 65,
      "^": 66,
      "_": 67,
      "`": 68,
      "a": 69,
      "b": 70,
      "c": 71,
      "d": 72,
      "e": 73,
      "f": 74,
      "g": 75,
      "h": 76,
      "i": 77,
      "j": 78,
      "k": 79,
      "l": 80,
      "m": 81,
      "n": 82,
      "o": 83,
      "p": 84,
      "q": 85,
      "r": 86,
      "s": 87,
      "t": 88,
      "u": 89,
      "v": 90,
      "w": 91,
      "x": 92,
      "y": 93,
      "z": 94,
      "{": 95,
      "|": 96,
      "}": 97,
      "~": 98,
      "¢": 99,
      "£": 100,
      "¤": 101,
      "¥": 102,
      "«": 103,
      "¯": 104,
      "°": 105,
      "±": 106,
      "²": 107,
      "´": 108,
      "µ": 109,
      "·": 110,
      "º": 111,
      "»": 112,
      "¼": 113,
      "½": 114,
      "Á": 115,
      "É": 116,
      "Ê": 117,
      "Î": 118,
      "Ñ": 119,
      "Ö": 120,
      "×": 121,
      "Û": 122,
      "ß": 123,
      "à": 124,
      "á": 125,
      "ä": 126,
      "æ": 127,
      "è": 128,
      "é": 129,
      "ê": 130,
      "ë": 131,
      "ì": 132,
      "í": 133,
      "î": 134,
      "ð": 135,
      "ñ": 136,
      "ò": 137,
      "ó": 138,
      "ô": 139,
      "ö": 140,
      "÷": 141,
      "ù": 142,
      "ú": 143,
      "ü": 144,
      "ý": 145,
      "Ā": 146,
      "ā": 147,
      "ă": 148,
      "ą": 149,
      "Č": 150,
      "ē": 151,
      "Ĝ": 152,
      "ħ": 153,
      "ī": 154,
      "İ": 155,
      "ŋ": 156,
      "Ō": 157,
      "ō": 158,
      "ő": 159,
      "œ": 160,
      "š": 161,
      "ū": 162,
      "ŭ": 163,
      "ű": 164,
      "Ŷ": 165,
      "ŷ": 166,
      "ź": 167,
      "ǣ": 168,
      "ǵ": 169,
      "ȳ": 170,
      "ɑ": 171,
      "ɒ": 172,
      "ɔ": 173,
      "ə": 174,
      "ɛ": 175,
      "ɡ": 176,
      "ɪ": 177,
      "ɹ": 178,
      "ʊ": 179,
      "ʻ": 180,
      "ˈ": 181,
      "ˌ": 182,
      "ː": 183,
      "˙": 184,
      "́": 185,
      "̃": 186,
      "̪": 187,
      "Α": 188,
      "Γ": 189,
      "Δ": 190,
      "Θ": 191,
      "Λ": 192,
      "Μ": 193,
      "Ο": 194,
      "Π": 195,
      "Σ": 196,
      "Τ": 197,
      "Φ": 198,
      "Ω": 199,
      "ά": 200,
      "έ": 201,
      "ή": 202,
      "ί": 203,
      "α": 204,
      "β": 205,
      "γ": 206,
      "δ": 207,
      "ε": 208,
      "ζ": 209,
      "η": 210,
      "θ": 211,
      "ι": 212,
      "κ": 213,
      "λ": 214,
      "μ": 215,
      "ν": 216,
      "ξ": 217,
      "ο": 218,
      "π": 219,
      "ρ": 220,
      "ς": 221,
      "σ": 222,
      "τ": 223,
      "υ": 224,
      "φ": 225,
      "ψ": 226,
      "ω": 227,
      "ό": 228,
      "ύ": 229,
      "ώ": 230,
      "ϕ": 231,
      "ϛ": 232,
      "Ϝ": 233,
      "Ў": 234,
      "Б": 235,
      "Г": 236,
      "К": 237,
      "М": 238,
      "а": 239,
      "б": 240,
      "в": 241,
      "г": 242,
      "д": 243,
      "е": 244,
      "з": 245,
      "и": 246,
      "й": 247,
      "к": 248,
      "м": 249,
      "н": 250,
      "о": 251,
      "п": 252,
      "р": 253,
      "с": 254,
      "т": 255,
      "у": 256,
      "я": 257,
      "Հ": 258,
      "ա": 259,
      "կ": 260,
      "յ": 261,
      "ב": 262,
      "ג": 263,
      "ו": 264,
      "ח": 265,
      "ט": 266,
      "י": 267,
      "ם": 268,
      "،": 269,
      "؛": 270,
      "؟": 271,
      "ء": 272,
      "آ": 273,
      "أ": 274,
      "ؤ": 275,
      "إ": 276,
      "ئ": 277,
      "ا": 278,
      "ب": 279,
      "ة": 280,
      "ت": 281,
      "ث": 282,
      "ج": 283,
      "ح": 284,
      "خ": 285,
      "د": 286,
      "ذ": 287,
      "ر": 288,
      "ز": 289,
      "س": 290,
      "ش": 291,
      "ص": 292,
      "ض": 293,
      "ط": 294,
      "ظ": 295,
      "ع": 296,
      "غ": 297,
      "ف": 298,
      "ق": 299,
      "ك": 300,
      "ل": 301,
      "م": 302,
      "ن": 303,
      "ه": 304,
      "و": 305,
      "ى": 306,
      "ي": 307,
      "٠": 308,
      "١": 309,
      "٢": 310,
      "٣": 311,
      "٤": 312,
      "٥": 313,
      "٦": 314,
      "٧": 315,
      "٨": 316,
      "٩": 317,
      "٪": 318,
      "٫": 319,
      "٬": 320,
      "ٱ": 321,
      "پ": 322,
      "چ": 323,
      "ڑ": 324,
      "ژ": 325,
      "ڤ": 326,
      "ڨ": 327,
      "ک": 328,
      "گ": 329,
      "ھ": 330,
      "ہ": 331,
      "ی": 332,
      "۝": 333,
      "ं": 334,
      "अ": 335,
      "आ": 336,
      "क": 337,
      "च": 338,
      "ज": 339,
      "ट": 340,
      "त": 341,
      "म": 342,
      "य": 343,
      "ल": 344,
      "व": 345,
      "ह": 346,
      "ा": 347,
      "ि": 348,
      "ी": 349,
      "ो": 350,
      "्": 351,
      "ᚼ": 352,
      "ᛒ": 353,
      "ᠢ": 354,
      "ᠤ": 355,
      "ᠦ": 356,
      "ᠨ": 357,
      "ᠬ": 358,
      "ᠭ": 359,
      "ᠯ": 360,
      "ᠰ": 361,
      "ḗ": 362,
      "ἀ": 363,
      "ἄ": 364,
      "Ἀ": 365,
      "ἐ": 366,
      "ἔ": 367,
      "ἰ": 368,
      "Ἰ": 369,
      "ὀ": 370,
      "ὐ": 371,
      "ὔ": 372,
      "ὤ": 373,
      "ὸ": 374,
      "ᾶ": 375,
      "ῆ": 376,
      "ῶ": 377,
      "‌": 378,
      "‍": 379,
      "‎": 380,
      "‏": 381,
      "‑": 382,
      "–": 383,
      "—": 384,
      "‘": 385,
      "’": 386,
      "‚": 387,
      "“": 388,
      "”": 389,
      "„": 390,
      "†": 391,
      "•": 392,
      "…": 393,
      "′": 394,
      "″": 395,
      "⁄": 396,
      "⁡": 397,
      "⁣": 398,
      "₂": 399,
      "€": 400,
      "₹": 401,
      "℉": 402,
      "ℏ": 403,
      "ℓ": 404,
      "ℕ": 405,
      "ℝ": 406,
      "ℵ": 407,
      "Ⅳ": 408,
      "←": 409,
      "→": 410,
      "↹": 411,
      "⇧": 412,
      "∇": 413,
      "∈": 414,
      "∉": 415,
      "∑": 416,
      "−": 417,
      "∗": 418,
      "√": 419,
      "∞": 420,
      "∠": 421,
      "∫": 422,
      "∼": 423,
      "≈": 424,
      "≠": 425,
      "≡": 426,
      "≤": 427,
      "≥": 428,
      "⊆": 429,
      "⋅": 430,
      "⋯": 431,
      "ⓘ": 432,
      "│": 433,
      "◦": 434,
      "☆": 435,
      "☧": 436,
      "♦": 437,
      "✓": 438,
      "あ": 439,
      "う": 440,
      "が": 441,
      "き": 442,
      "け": 443,
      "げ": 444,
      "す": 445,
      "ず": 446,
      "た": 447,
      "ち": 448,
      "つ": 449,
      "て": 450,
      "と": 451,
      "な": 452,
      "に": 453,
      "の": 454,
      "は": 455,
      "ま": 456,
      "よ": 457,
      "ら": 458,
      "り": 459,
      "る": 460,
      "れ": 461,
      "ろ": 462,
      "を": 463,
      "ア": 464,
      "イ": 465,
      "オ": 466,
      "カ": 467,
      "ク": 468,
      "グ": 469,
      "ケ": 470,
      "サ": 471,
      "シ": 472,
      "ジ": 473,
      "ス": 474,
      "チ": 475,
      "ッ": 476,
      "デ": 477,
      "ト": 478,
      "ド": 479,
      "ナ": 480,
      "パ": 481,
      "フ": 482,
      "プ": 483,
      "ベ": 484,
      "ボ": 485,
      "ミ": 486,
      "ム": 487,
      "モ": 488,
      "ャ": 489,
      "ヤ": 490,
      "ラ": 491,
      "リ": 492,
      "ル": 493,
      "ロ": 494,
      "ワ": 495,
      "ン": 496,
      "・": 497,
      "ー": 498,
      "七": 499,
      "书": 500,
      "京": 501,
      "代": 502,
      "会": 503,
      "伝": 504,
      "侯": 505,
      "信": 506,
      "先": 507,
      "八": 508,
      "再": 509,
      "写": 510,
      "吉": 511,
      "告": 512,
      "国": 513,
      "國": 514,
      "外": 515,
      "大": 516,
      "天": 517,
      "失": 518,
      "奇": 519,
      "女": 520,
      "子": 521,
      "宝": 522,
      "宣": 523,
      "少": 524,
      "尾": 525,
      "岐": 526,
      "島": 527,
      "州": 528,
      "工": 529,
      "巻": 530,
      "应": 531,
      "府": 532,
      "式": 533,
      "影": 534,
      "必": 535,
      "忍": 536,
      "忠": 537,
      "怒": 538,
      "思": 539,
      "意": 540,
      "應": 541,
      "成": 542,
      "戯": 543,
      "拳": 544,
      "損": 545,
      "政": 546,
      "料": 547,
      "星": 548,
      "春": 549,
      "時": 550,
      "晉": 551,
      "月": 552,
      "服": 553,
      "李": 554,
      "東": 555,
      "株": 556,
      "業": 557,
      "樫": 558,
      "機": 559,
      "民": 560,
      "汗": 561,
      "汤": 562,
      "決": 563,
      "満": 564,
      "火": 565,
      "照": 566,
      "版": 567,
      "狄": 568,
      "王": 569,
      "理": 570,
      "白": 571,
      "目": 572,
      "真": 573,
      "眼": 574,
      "社": 575,
      "秘": 576,
      "算": 577,
      "緋": 578,
      "総": 579,
      "編": 580,
      "美": 581,
      "臨": 582,
      "色": 583,
      "花": 584,
      "虔": 585,
      "見": 586,
      "解": 587,
      "計": 588,
      "語": 589,
      "诸": 590,
      "谈": 591,
      "輪": 592,
      "通": 593,
      "遊": 594,
      "道": 595,
      "阳": 596,
      "雄": 597,
      "集": 598,
      "青": 599,
      "韓": 600,
      "韩": 601,
      "食": 602,
      "黒": 603,
      "가": 604,
      "개": 605,
      "고": 606,
      "국": 607,
      "김": 608,
      "단": 609,
      "대": 610,
      "된": 611,
      "려": 612,
      "리": 613,
      "미": 614,
      "민": 615,
      "반": 616,
      "부": 617,
      "선": 618,
      "시": 619,
      "식": 620,
      "요": 621,
      "이": 622,
      "일": 623,
      "임": 624,
      "장": 625,
      "전": 626,
      "정": 627,
      "조": 628,
      "족": 629,
      "찌": 630,
      "찬": 631,
      "추": 632,
      "치": 633,
      "탕": 634,
      "한": 635,
      "﴾": 636,
      "﴿": 637,
      "ﷺ": 638,
      "～": 639,
      "𐩠": 640,
      "𐩡": 641,
      "𐩢": 642,
      "𐩣": 643,
      "𐩤": 644,
      "𐩥": 645,
      "𐩧": 646,
      "𐩨": 647,
      "𐩩": 648,
      "𐩫": 649,
      "𐩬": 650,
      "𐩱": 651,
      "𐩲": 652,
      "𐩵": 653,
      "𐩷": 654,
      "𐩺": 655,
      "𐩻": 656,
      "📺": 657,
      "📻": 658,
      "ال": 659,
      "ية": 660,
      "في": 661,
      "الم": 662,
      "ات": 663,
      "من": 664,
      "ان": 665,
      "ين": 666,
      "ار": 667,
      "ام": 668,
      "لى": 669,
      "الأ": 670,
      "الت": 671,
      "ول": 672,
      "ها": 673,
      "ما": 674,
      "ون": 675,
      "ير": 676,
      "اس": 677,
      "ور": 678,
      "لا": 679,
      "بر": 680,
      "الع": 681,
      "على": 682,
      "لي": 683,
      "دي": 684,
      "وا": 685,
      "أن": 686,
      "ري": 687,
      "بي": 688,
      "وال": 689,
      "لل": 690,
      "مع": 691,
      "اب": 692,
      "ست": 693,
      "اد": 694,
      "لك": 695,
      "وم": 696,
      "عد": 697,
      "الح": 698,
      "وت": 699,
      "نا": 700,
      "سي": 701,
      "وي": 702,
      "را": 703,
      "إلى": 704,
      "تم": 705,
      "وب": 706,
      "كان": 707,
      "شر": 708,
      "الق": 709,
      "الإ": 710,
      "يا": 711,
      "الج": 712,
      "الن": 713,
      "لم": 714,
      "الس": 715,
      "ائ": 716,
      "حد": 717,
      "عن": 718,
      "وق": 719,
      "تر": 720,
      "دم": 721,
      "الب": 722,
      "هذ": 723,
      "وس": 724,
      "الك": 725,
      "عة": 726,
      "است": 727,
      "يم": 728,
      "التي": 729,
      "كل": 730,
      "أو": 731,
      "الر": 732,
      "عام": 733,
      "ود": 734,
      "كن": 735,
      "فر": 736,
      "مل": 737,
      "الد": 738,
      "20": 739,
      "هي": 740,
      "وج": 741,
      "رب": 742,
      "هم": 743,
      "لة": 744,
      "رة": 745,
      "اء": 746,
      "مي": 747,
      "حت": 748,
      "قة": 749,
      "حي": 750,
      "اف": 751,
      "الش": 752,
      "19": 753,
      "الف": 754,
      "هو": 755,
      "بل": 756,
      "يل": 757,
      "الخ": 758,
      "تق": 759,
      "در": 760,
      "مج": 761,
      "وف": 762,
      "ذلك": 763,
      "سب": 764,
      "كت": 765,
      "الذ": 766,
      "الص": 767,
      "وع": 768,
      "خر": 769,
      "قي": 770,
      "يات": 771,
      "أي": 772,
      "يت": 773,
      "نت": 774,
      "كة": 775,
      "خل": 776,
      "مة": 777,
      "وز": 778,
      "مت": 779,
      "دا": 780,
      "الي": 781,
      "دة": 782,
      "با": 783,
      "الث": 784,
      "بين": 785,
      "مر": 786,
      "تح": 787,
      "تع": 788,
      "خدم": 789,
      "سم": 790,
      "هذه": 791,
      "بع": 792,
      "مث": 793,
      "كون": 794,
      "فا": 795,
      "خت": 796,
      "سا": 797,
      "إن": 798,
      "هر": 799,
      "هذا": 800,
      "غير": 801,
      "أك": 802,
      "أس": 803,
      "بعد": 804,
      "بد": 805,
      "لف": 806,
      "مو": 807,
      "قا": 808,
      "نظ": 809,
      "قد": 810,
      "يع": 811,
      "وك": 812,
      "الط": 813,
      "الل": 814,
      "لت": 815,
      "يد": 816,
      "كر": 817,
      "لب": 818,
      "البر": 819,
      "اني": 820,
      "المت": 821,
      "ثر": 822,
      "طة": 823,
      "عل": 824,
      "اص": 825,
      "وأ": 826,
      "سل": 827,
      "عب": 828,
      "00": 829,
      "ارة": 830,
      "رف": 831,
      "ئي": 832,
      "وفي": 833,
      "عم": 834,
      "تش": 835,
      "تص": 836,
      "ديد": 837,
      "وص": 838,
      "هد": 839,
      "حيث": 840,
      "الا": 841,
      "نية": 842,
      "ضا": 843,
      "كس": 844,
      "ولة": 845,
      "مد": 846,
      "الذي": 847,
      "بح": 848,
      "اري": 849,
      "مثل": 850,
      "كي": 851,
      "ستخدم": 852,
      "كانت": 853,
      "غة": 854,
      "ند": 855,
      "ني": 856,
      "انية": 857,
      "بط": 858,
      "200": 859,
      "دام": 860,
      "ولا": 861,
      "خص": 862,
      "شكل": 863,
      "جه": 864,
      "ادة": 865,
      "بة": 866,
      "نة": 867,
      "امج": 868,
      "استخ": 869,
      "رض": 870,
      "بار": 871,
      "وح": 872,
      "لق": 873,
      "قبل": 874,
      "والم": 875,
      "كما": 876,
      "استخدام": 877,
      "يو": 878,
      "تي": 879,
      "صر": 880,
      "اله": 881,
      "مح": 882,
      "جة": 883,
      "قط": 884,
      "عند": 885,
      "الات": 886,
      "حدة": 887,
      "يمكن": 888,
      "جا": 889,
      "201": 890,
      "بن": 891,
      "قل": 892,
      "عت": 893,
      "علي": 894,
      "فس": 895,
      "ريق": 896,
      "خرى": 897,
      "أيضا": 898,
      "زة": 899,
      "صل": 900,
      ")،": 901,
      "شركة": 902,
      "كم": 903,
      "زي": 904,
      "يرة": 905,
      "خلال": 906,
      "جل": 907,
      "المع": 908,
      "اسم": 909,
      "بعض": 910,
      "ثم": 911,
      "رق": 912,
      "الية": 913,
      "يف": 914,
      "دار": 915,
      "نس": 916,
      "وط": 917,
      "الغ": 918,
      "بت": 919,
      "وض": 920,
      "وسي": 921,
      "العالم": 922,
      "سة": 923,
      "وين": 924,
      "كا": 925,
      "وات": 926,
      "أول": 927,
      "حر": 928,
      "وان": 929,
      "والت": 930,
      "جم": 931,
      "المر": 932,
      "وية": 933,
      ").": 934,
      "اق": 935,
      "طور": 936,
      "افة": 937,
      "ذا": 938,
      "أكثر": 939,
      "وير": 940,
      "خط": 941,
      "ته": 942,
      "المن": 943,
      "اج": 944,
      "حة": 945,
      "شا": 946,
      "مس": 947,
      "عدد": 948,
      "الة": 949,
      "عمل": 950,
      "يق": 951,
      "تت": 952,
      "جن": 953,
      "وري": 954,
      "مية": 955,
      "الأم": 956,
      "اض": 957,
      "يش": 958,
      "كب": 959,
      "فض": 960,
      "أم": 961,
      "نظام": 962,
      "أص": 963,
      "مست": 964,
      "المج": 965,
      "الآ": 966,
      "عية": 967,
      "لات": 968,
      "أنه": 969,
      "البي": 970,
      "حتى": 971,
      "ثير": 972,
      "واس": 973,
      "تج": 974,
      "عي": 975,
      "وهي": 976,
      "القر": 977,
      "مق": 978,
      "عا": 979,
      "وقت": 980,
      "ورة": 981,
      "الز": 982,
      "الأس": 983,
      "هلي": 984,
      "ومن": 985,
      "فل": 986,
      "فت": 987,
      "يتم": 988,
      "جز": 989,
      "الض": 990,
      "ولكن": 991,
      "انات": 992,
      "ينة": 993,
      "وهو": 994,
      "به": 995,
      "ربية": 996,
      "تن": 997,
      "قية": 998,
      "صدار": 999,
      "المح": 1000,
      "كية": 1001,
      "ثة": 1002,
      "ختلف": 1003,
      "الأول": 1004,
      "ناء": 1005,
      "نامج": 1006,
      "طبي": 1007,
      "صف": 1008,
      "بشكل": 1009,
      "وار": 1010,
      "أغ": 1011,
      "العديد": 1012,
      "كز": 1013,
      "وني": 1014,
      "راء": 1015,
      "ميع": 1016,
      "دية": 1017,
      "تد": 1018,
      "اح": 1019,
      "قات": 1020,
      "له": 1021,
      "الأهلي": 1022,
      "سن": 1023,
      "ارات": 1024,
      "كات": 1025,
      "والتي": 1026,
      "المص": 1027,
      "وى": 1028,
      "وقد": 1029,
      "الفي": 1030,
      "ملي": 1031,
      "تها": 1032,
      "لاح": 1033,
      "جي": 1034,
      "ئة": 1035,
      "نفس": 1036,
      "هنا": 1037,
      "يط": 1038,
      "عدة": 1039,
      "ظهر": 1040,
      "سر": 1041,
      "ئية": 1042,
      "الفر": 1043,
      "قر": 1044,
      "موعة": 1045,
      "العام": 1046,
      "فة": 1047,
      "المست": 1048,
      "تحت": 1049,
      "يز": 1050,
      "لح": 1051,
      "اريخ": 1052,
      "الإن": 1053,
      "للم": 1054,
      "ساب": 1055,
      "ظم": 1056,
      "لاد": 1057,
      "يس": 1058,
      "199": 1059,
      "والأ": 1060,
      "طر": 1061,
      "ضافة": 1062,
      "فإن": 1063,
      "نها": 1064,
      "أخرى": 1065,
      "ويند": 1066,
      "دول": 1067,
      "ويندوز": 1068,
      "تو": 1069,
      "بدأ": 1070,
      "شار": 1071,
      "عندما": 1072,
      "أد": 1073,
      "برا": 1074,
      "يج": 1075,
      "هور": 1076,
      "جميع": 1077,
      "هناك": 1078,
      "عات": 1079,
      "المد": 1080,
      "لها": 1081,
      "زا": 1082,
      "القرن": 1083,
      "كتب": 1084,
      "أنها": 1085,
      "لية": 1086,
      "قام": 1087,
      "المغ": 1088,
      "رياض": 1089,
      "ابة": 1090,
      "ذي": 1091,
      "لس": 1092,
      "اصة": 1093,
      "رية": 1094,
      "عادة": 1095,
      "عشر": 1096,
      "التر": 1097,
      "فق": 1098,
      "الان": 1099,
      "جهزة": 1100,
      "تس": 1101,
      "السي": 1102,
      "اث": 1103,
      "النا": 1104,
      "إم": 1105,
      "بها": 1106,
      "كرة": 1107,
      "أر": 1108,
      "جر": 1109,
      "ئيس": 1110,
      "الرق": 1111,
      "ديدة": 1112,
      "شي": 1113,
      "حدث": 1114,
      "غم": 1115,
      "ضمن": 1116,
      "وجود": 1117,
      "النظ": 1118,
      "الشر": 1119,
      "لين": 1120,
      "التح": 1121,
      "وائ": 1122,
      "18": 1123,
      "عض": 1124,
      "وجد": 1125,
      "الاست": 1126,
      "والي": 1127,
      "تكون": 1128,
      "ذات": 1129,
      "بية": 1130,
      "العربية": 1131,
      "المتحدة": 1132,
      "سبب": 1133,
      "مص": 1134,
      "الأو": 1135,
      "المس": 1136,
      "اسوب": 1137,
      "اللغة": 1138,
      "مار": 1139,
      "ثلا": 1140,
      "اسي": 1141,
      "كام": 1142,
      "مجموعة": 1143,
      "يب": 1144,
      "الأور": 1145,
      "الولا": 1146,
      "اخت": 1147,
      "طقة": 1148,
      "يح": 1149,
      "اسية": 1150,
      "تا": 1151,
      "التق": 1152,
      "er": 1153,
      "ثل": 1154,
      "وبر": 1155,
      "سط": 1156,
      "وإ": 1157,
      "وش": 1158,
      "غيل": 1159,
      "ولي": 1160,
      "تلك": 1161,
      "لد": 1162,
      "الحر": 1163,
      "انا": 1164,
      "يكون": 1165,
      "لغة": 1166,
      "واحد": 1167,
      "هما": 1168,
      "وبي": 1169,
      "كوم": 1170,
      "وسط": 1171,
      "».": 1172,
      "غر": 1173,
      "لع": 1174,
      "طا": 1175,
      "أكبر": 1176,
      "منذ": 1177,
      "بات": 1178,
      "أحد": 1179,
      "سنة": 1180,
      "راض": 1181,
      "لكتر": 1182,
      "لكن": 1183,
      "10": 1184,
      "مما": 1185,
      "عبر": 1186,
      "غي": 1187,
      "الأخرى": 1188,
      "از": 1189,
      "أش": 1190,
      "آخر": 1191,
      "قص": 1192,
      "العمل": 1193,
      "وقع": 1194,
      "برنامج": 1195,
      "طوير": 1196,
      "سبة": 1197,
      "أور": 1198,
      "ديو": 1199,
      "تأ": 1200,
      "وكان": 1201,
      "الهند": 1202,
      "الأولى": 1203,
      "عمال": 1204,
      "in": 1205,
      "قى": 1206,
      "حص": 1207,
      "مان": 1208,
      "قاط": 1209,
      "ائية": 1210,
      "وث": 1211,
      "طي": 1212,
      "كار": 1213,
      "رس": 1214,
      "حول": 1215,
      "مؤ": 1216,
      "مين": 1217,
      "وة": 1218,
      "فقط": 1219,
      "التج": 1220,
      "دون": 1221,
      "السل": 1222,
      "وبا": 1223,
      "سين": 1224,
      "حاد": 1225,
      "الرياض": 1226,
      "فيها": 1227,
      "نتاج": 1228,
      "خة": 1229,
      "دل": 1230,
      "وتر": 1231,
      "حق": 1232,
      "ظمة": 1233,
      "مكن": 1234,
      "ترنت": 1235,
      "الجن": 1236,
      "الوقت": 1237,
      "قيم": 1238,
      "بما": 1239,
      "بيل": 1240,
      "ترة": 1241,
      "بالإ": 1242,
      "نق": 1243,
      "يني": 1244,
      "التش": 1245,
      "كبير": 1246,
      "ارية": 1247,
      "واق": 1248,
      "البرمج": 1249,
      "طق": 1250,
      "ملك": 1251,
      "12": 1252,
      "000": 1253,
      "حل": 1254,
      "مش": 1255,
      "ومع": 1256,
      "برمج": 1257,
      "فضل": 1258,
      "مرة": 1259,
      "اة": 1260,
      "ويل": 1261,
      "فع": 1262,
      "ختلفة": 1263,
      "قدم": 1264,
      "جان": 1265,
      "وضع": 1266,
      "تخ": 1267,
      "التص": 1268,
      "اه": 1269,
      "فريق": 1270,
      "واع": 1271,
      "قب": 1272,
      "دور": 1273,
      "هدف": 1274,
      "ماي": 1275,
      "انيا": 1276,
      "والذي": 1277,
      "واجه": 1278,
      "بلغ": 1279,
      "وه": 1280,
      "الأغ": 1281,
      "عداد": 1282,
      "علم": 1283,
      "مز": 1284,
      "on": 1285,
      "إلا": 1286,
      "المستخدم": 1287,
      "ابع": 1288,
      "وظ": 1289,
      "تين": 1290,
      "سمى": 1291,
      "حين": 1292,
      "الموسي": 1293,
      "حية": 1294,
      "واحدة": 1295,
      "ريقة": 1296,
      "أما": 1297,
      "198": 1298,
      "طريق": 1299,
      "إذا": 1300,
      "إصدار": 1301,
      "الرغم": 1302,
      "معظم": 1303,
      "الدين": 1304,
      "اسة": 1305,
      "البيانات": 1306,
      "قائ": 1307,
      "فية": 1308,
      "مسا": 1309,
      "نوع": 1310,
      "أط": 1311,
      "شب": 1312,
      "يون": 1313,
      "ينا": 1314,
      "المؤ": 1315,
      "أث": 1316,
      "الحاسوب": 1317,
      "منها": 1318,
      "ربي": 1319,
      "المي": 1320,
      "ماء": 1321,
      "سلام": 1322,
      "مليون": 1323,
      "الأخ": 1324,
      "لبوم": 1325,
      "ونية": 1326,
      "لاق": 1327,
      "كو": 1328,
      "حا": 1329,
      "فات": 1330,
      "عرض": 1331,
      "زم": 1332,
      "إي": 1333,
      "صة": 1334,
      "هاز": 1335,
      "روف": 1336,
      "درجة": 1337,
      "ليل": 1338,
      "الذين": 1339,
      "تل": 1340,
      "تبر": 1341,
      "هل": 1342,
      "المنا": 1343,
      "إد": 1344,
      "ياء": 1345,
      "تستخدم": 1346,
      "كور": 1347,
      "دد": 1348,
      "وذلك": 1349,
      "st": 1350,
      "الولايات": 1351,
      "فقد": 1352,
      "بسبب": 1353,
      "أخ": 1354,
      "والع": 1355,
      "ترا": 1356,
      "النظام": 1357,
      "باستخدام": 1358,
      "هند": 1359,
      "غات": 1360,
      "باسم": 1361,
      "هرب": 1362,
      "تمر": 1363,
      "بير": 1364,
      "الأر": 1365,
      "ستان": 1366,
      "المش": 1367,
      "دو": 1368,
      "نان": 1369,
      "يص": 1370,
      "تب": 1371,
      "وسم": 1372,
      "وجه": 1373,
      "إس": 1374,
      "رائ": 1375,
      "طب": 1376,
      "يست": 1377,
      "تاريخ": 1378,
      "ميم": 1379,
      "فلام": 1380,
      "جت": 1381,
      "الإصدار": 1382,
      "حو": 1383,
      "الرس": 1384,
      "وفت": 1385,
      "ارت": 1386,
      "يوم": 1387,
      "فيه": 1388,
      "15": 1389,
      "مال": 1390,
      "القي": 1391,
      "الجز": 1392,
      "التالي": 1393,
      "le": 1394,
      "وبية": 1395,
      "الدول": 1396,
      "ولوج": 1397,
      "النس": 1398,
      "اش": 1399,
      "الأمري": 1400,
      "كروس": 1401,
      "فرن": 1402,
      "ودة": 1403,
      "الأص": 1404,
      "بالإضافة": 1405,
      "كري": 1406,
      "مات": 1407,
      "الثاني": 1408,
      "المث": 1409,
      "»،": 1410,
      "بدا": 1411,
      "ائل": 1412,
      "an": 1413,
      "وخ": 1414,
      "الأك": 1415,
      "ضع": 1416,
      "كأس": 1417,
      "الإلكتر": 1418,
      "لإ": 1419,
      "البلاد": 1420,
      "الوط": 1421,
      "البا": 1422,
      "اليا": 1423,
      "الأن": 1424,
      "البط": 1425,
      "الدر": 1426,
      "ستر": 1427,
      "جام": 1428,
      "الموا": 1429,
      "طبيقات": 1430,
      "أع": 1431,
      "مط": 1432,
      "فين": 1433,
      "لاف": 1434,
      "مدينة": 1435,
      "كروسوفت": 1436,
      "الإنترنت": 1437,
      "الساب": 1438,
      "لأ": 1439,
      "باراة": 1440,
      "جزء": 1441,
      "تمد": 1442,
      "وغ": 1443,
      "فيلم": 1444,
      "داخل": 1445,
      "عر": 1446,
      "14": 1447,
      "ضة": 1448,
      "مصر": 1449,
      "الحدي": 1450,
      "يار": 1451,
      "لن": 1452,
      "ضم": 1453,
      "ضاف": 1454,
      "العل": 1455,
      "عليها": 1456,
      "اعت": 1457,
      "قياس": 1458,
      "17": 1459,
      "197": 1460,
      "بحت": 1461,
      "شخص": 1462,
      "للأ": 1463,
      "كال": 1464,
      "النها": 1465,
      "اما": 1466,
      "ارج": 1467,
      "شاء": 1468,
      "الثالث": 1469,
      "إلي": 1470,
      "بينما": 1471,
      "الملك": 1472,
      "عملية": 1473,
      "الرئيس": 1474,
      "كين": 1475,
      "يستخدم": 1476,
      "يرا": 1477,
      "فرنسا": 1478,
      "en": 1479,
      "نتي": 1480,
      "كثير": 1481,
      "ابت": 1482,
      "الخط": 1483,
      "صور": 1484,
      "ينية": 1485,
      "ناة": 1486,
      "ارس": 1487,
      "لعب": 1488,
      "196": 1489,
      "الثانية": 1490,
      "or": 1491,
      "طاق": 1492,
      "لمة": 1493,
      "الأش": 1494,
      "بم": 1495,
      "الخاصة": 1496,
      "زية": 1497,
      "عين": 1498,
      "عليه": 1499,
      "ثلاث": 1500,
      "قيق": 1501,
      "طان": 1502,
      "at": 1503,
      "شروع": 1504,
      "بال": 1505,
      "برامج": 1506,
      "أرب": 1507,
      "ملكة": 1508,
      "وما": 1509,
      "دولار": 1510,
      "ميل": 1511,
      "جلي": 1512,
      "بواس": 1513,
      "أمري": 1514,
      "الدولة": 1515,
      "خرج": 1516,
      "أل": 1517,
      "ذج": 1518,
      "أوروبا": 1519,
      "يين": 1520,
      "ديم": 1521,
      "تطوير": 1522,
      "شف": 1523,
      "حوالي": 1524,
      "مايكروسوفت": 1525,
      "طلب": 1526,
      "نج": 1527,
      "نتيجة": 1528,
      "بواسطة": 1529,
      "وء": 1530,
      "هورية": 1531,
      "بطولة": 1532,
      "شرين": 1533,
      "أنظمة": 1534,
      "منطقة": 1535,
      "ابات": 1536,
      "سبيل": 1537,
      "الأرض": 1538,
      "أب": 1539,
      "وارز": 1540,
      "الفيلم": 1541,
      "امل": 1542,
      "ضاء": 1543,
      "قلي": 1544,
      "التن": 1545,
      "اليوم": 1546,
      "تقدم": 1547,
      "الاتحاد": 1548,
      "فاز": 1549,
      "ابه": 1550,
      "غط": 1551,
      "ابن": 1552,
      "سمح": 1553,
      "آي": 1554,
      "ar": 1555,
      "16": 1556,
      "لاب": 1557,
      "المركز": 1558,
      "لدي": 1559,
      "وفر": 1560,
      "انون": 1561,
      "الأح": 1562,
      "أفضل": 1563,
      "عالم": 1564,
      "الأد": 1565,
      "اي": 1566,
      "مختلفة": 1567,
      "راف": 1568,
      "ذكر": 1569,
      "وغير": 1570,
      "الشركة": 1571,
      "أجل": 1572,
      "الأغنية": 1573,
      "ائرة": 1574,
      "جات": 1575,
      "الإم": 1576,
      "بإ": 1577,
      "وحة": 1578,
      "لعاب": 1579,
      "البرنامج": 1580,
      "نهاية": 1581,
      "أح": 1582,
      "بالت": 1583,
      "تز": 1584,
      "إنشاء": 1585,
      "نف": 1586,
      "الدوري": 1587,
      "الصوت": 1588,
      "جع": 1589,
      "قاب": 1590,
      "ئيسي": 1591,
      "سان": 1592,
      "الشب": 1593,
      "سمية": 1594,
      "ادية": 1595,
      "الحرب": 1596,
      "الكثير": 1597,
      "ريف": 1598,
      "قيقة": 1599,
      "إكس": 1600,
      "ديل": 1601,
      "أصبح": 1602,
      "الإسلام": 1603,
      "المغول": 1604,
      "شرة": 1605,
      "للت": 1606,
      "غيير": 1607,
      "براطور": 1608,
      "11": 1609,
      "بج": 1610,
      "ائن": 1611,
      "أغنية": 1612,
      "30": 1613,
      "ميز": 1614,
      "مبي": 1615,
      "الهي": 1616,
      "أنواع": 1617,
      "احت": 1618,
      "50": 1619,
      "سس": 1620,
      "البرامج": 1621,
      "المثال": 1622,
      "تقد": 1623,
      "عود": 1624,
      "تست": 1625,
      "دولة": 1626,
      "هام": 1627,
      "وصول": 1628,
      "سام": 1629,
      "واست": 1630,
      "علام": 1631,
      "خاص": 1632,
      "وبعد": 1633,
      "عني": 1634,
      "كبيرة": 1635,
      "فير": 1636,
      "واء": 1637,
      "ic": 1638,
      "جين": 1639,
      "اع": 1640,
      "التشغيل": 1641,
      "al": 1642,
      "ادي": 1643,
      "الكت": 1644,
      "محد": 1645,
      "نسية": 1646,
      "فن": 1647,
      "بالم": 1648,
      "وبة": 1649,
      "صال": 1650,
      "يه": 1651,
      "فه": 1652,
      "واقع": 1653,
      "بأن": 1654,
      "خاصة": 1655,
      "الكهرب": 1656,
      "أجهزة": 1657,
      "سلس": 1658,
      "رئيس": 1659,
      "es": 1660,
      "وحدة": 1661,
      "مبر": 1662,
      "تف": 1663,
      "جدا": 1664,
      "الرقمية": 1665,
      "تمع": 1666,
      "فاع": 1667,
      "عبد": 1668,
      "أق": 1669,
      "قت": 1670,
      "نادي": 1671,
      "is": 1672,
      "غا": 1673,
      "وحد": 1674,
      "رفة": 1675,
      "محمد": 1676,
      "حلة": 1677,
      "رات": 1678,
      "وعات": 1679,
      "جديدة": 1680,
      "أهم": 1681,
      "أوب": 1682,
      "لكل": 1683,
      "المنت": 1684,
      "لاء": 1685,
      "فري": 1686,
      "كيل": 1687,
      "نى": 1688,
      "نوف": 1689,
      "الظ": 1690,
      "لاع": 1691,
      "أصبحت": 1692,
      "الإنجلي": 1693,
      "طول": 1694,
      "ورية": 1695,
      "طلاق": 1696,
      "بق": 1697,
      "نحو": 1698,
      "زب": 1699,
      "شأ": 1700,
      "ليس": 1701,
      "النادي": 1702,
      "فترة": 1703,
      "ثلاثة": 1704,
      "إش": 1705,
      "منا": 1706,
      "جهاز": 1707,
      "أعل": 1708,
      "بناء": 1709,
      "صي": 1710,
      "الشخص": 1711,
      "أبر": 1712,
      "سلسلة": 1713,
      "عرف": 1714,
      "تحر": 1715,
      "أقل": 1716,
      "حالة": 1717,
      "العالمية": 1718,
      "{\\": 1719,
      "ولوجيا": 1720,
      "نسخة": 1721,
      "العلم": 1722,
      "غل": 1723,
      "همة": 1724,
      "فيذ": 1725,
      "ليم": 1726,
      "عاد": 1727,
      "باد": 1728,
      "ابعة": 1729,
      "هير": 1730,
      "جيل": 1731,
      "وكانت": 1732,
      "العلا": 1733,
      "ائزة": 1734,
      "ترك": 1735,
      "الآن": 1736,
      "la": 1737,
      "لأن": 1738,
      "تحديد": 1739,
      "كومة": 1740,
      "واجهة": 1741,
      "جد": 1742,
      "الفريق": 1743,
      "نشر": 1744,
      "بالن": 1745,
      "ودي": 1746,
      "قال": 1747,
      "وسيا": 1748,
      "هار": 1749,
      "سنوات": 1750,
      "تشار": 1751,
      "حساب": 1752,
      "الطبي": 1753,
      "اته": 1754,
      "دري": 1755,
      "ضد": 1756,
      "اتها": 1757,
      "شبكة": 1758,
      "قاد": 1759,
      "تعمل": 1760,
      "إنتاج": 1761,
      "يك": 1762,
      "أطلق": 1763,
      "طار": 1764,
      "وأن": 1765,
      "البح": 1766,
      "وصل": 1767,
      "قيمة": 1768,
      "تشغيل": 1769,
      "ائي": 1770,
      "195": 1771,
      "لفزي": 1772,
      "ألف": 1773,
      "أثناء": 1774,
      "جتما": 1775,
      "نقل": 1776,
      "ولد": 1777,
      "فور": 1778,
      "ماك": 1779,
      "الجديدة": 1780,
      "موسي": 1781,
      "مجال": 1782,
      "الأمريكية": 1783,
      "حف": 1784,
      "نظمة": 1785,
      "ونات": 1786,
      "موقع": 1787,
      "مض": 1788,
      "ويب": 1789,
      "جون": 1790,
      "25": 1791,
      "الاق": 1792,
      "أكت": 1793,
      "جامعة": 1794,
      "13": 1795,
      "هات": 1796,
      "التعلي": 1797,
      "مركز": 1798,
      "ياة": 1799,
      "الأكثر": 1800,
      "المنطقة": 1801,
      "بدأت": 1802,
      "حات": 1803,
      "الموسيقى": 1804,
      "ديمة": 1805,
      "عدم": 1806,
      "بول": 1807,
      "وصف": 1808,
      "السوفي": 1809,
      "يحت": 1810,
      "فيما": 1811,
      "كث": 1812,
      "والد": 1813,
      "أكتوبر": 1814,
      "ولات": 1815,
      "ويمكن": 1816,
      "سيا": 1817,
      "زل": 1818,
      "النص": 1819,
      "صورة": 1820,
      "يمة": 1821,
      "ضر": 1822,
      "خدمة": 1823,
      "طبيق": 1824,
      "24": 1825,
      "طلح": 1826,
      "خفض": 1827,
      "لذلك": 1828,
      "كتابة": 1829,
      "الصنا": 1830,
      "2007": 1831,
      "اسب": 1832,
      "صبح": 1833,
      "194": 1834,
      "اكت": 1835,
      "يجب": 1836,
      "بس": 1837,
      "تطور": 1838,
      "الاجتما": 1839,
      "2012": 1840,
      "يوجد": 1841,
      "غيرة": 1842,
      "كاني": 1843,
      "الحد": 1844,
      "فال": 1845,
      "وعة": 1846,
      "بروت": 1847,
      "ونتو": 1848,
      "امي": 1849,
      "إدارة": 1850,
      "القدم": 1851,
      "البحر": 1852,
      "الياب": 1853,
      "المدينة": 1854,
      "دوري": 1855,
      "عى": 1856,
      "جنو": 1857,
      "نقطة": 1858,
      "ديث": 1859,
      "سيس": 1860,
      "مبا": 1861,
      "الحديثة": 1862,
      "إضافة": 1863,
      "إحد": 1864,
      "شري": 1865,
      "ئيات": 1866,
      "دعم": 1867,
      "نين": 1868,
      "الثلا": 1869,
      "قناة": 1870,
      "يران": 1871,
      "يقوم": 1872,
      "بور": 1873,
      "ظر": 1874,
      "الألبوم": 1875,
      "عامل": 1876,
      "et": 1877,
      "اقة": 1878,
      "الشكل": 1879,
      "التصوير": 1880,
      "شهر": 1881,
      "الاسم": 1882,
      "مجم": 1883,
      "وزيع": 1884,
      "الرئيسي": 1885,
      "الرياضيات": 1886,
      "سجل": 1887,
      "تمبر": 1888,
      "جمع": 1889,
      "2006": 1890,
      "ناصر": 1891,
      "بان": 1892,
      "براطورية": 1893,
      "ومية": 1894,
      "ظهرت": 1895,
      "أعلى": 1896,
      "صن": 1897,
      "البرمجيات": 1898,
      "تاد": 1899,
      "حسب": 1900,
      "راضي": 1901,
      "الجزء": 1902,
      "زمة": 1903,
      "نوفمبر": 1904,
      "كتاب": 1905,
      "سرعة": 1906,
      "هن": 1907,
      "وحي": 1908,
      "بيت": 1909,
      "ولم": 1910,
      "كامل": 1911,
      "سير": 1912,
      "نمو": 1913,
      "ينات": 1914,
      "يعمل": 1915,
      "داد": 1916,
      "بيع": 1917,
      "وعلى": 1918,
      "سبتمبر": 1919,
      "يتار": 1920,
      "منه": 1921,
      "عددة": 1922,
      "قائمة": 1923,
      "وتم": 1924,
      "ارب": 1925,
      "صالات": 1926,
      "علا": 1927,
      "تصميم": 1928,
      "انو": 1929,
      "معالج": 1930,
      "السا": 1931,
      "مالك": 1932,
      "23": 1933,
      "زين": 1934,
      "خان": 1935,
      "تقري": 1936,
      "جانب": 1937,
      "فار": 1938,
      "والح": 1939,
      "جمهورية": 1940,
      "مستوى": 1941,
      "الدا": 1942,
      "سيم": 1943,
      "عار": 1944,
      "المط": 1945,
      "ولاية": 1946,
      "وليو": 1947,
      "رقام": 1948,
      "وهذا": 1949,
      "التاريخ": 1950,
      "حصل": 1951,
      "خارج": 1952,
      "لاعب": 1953,
      "خطوط": 1954,
      "جديد": 1955,
      "هب": 1956,
      "قامت": 1957,
      "سمبر": 1958,
      "الاخت": 1959,
      "لينكس": 1960,
      "إل": 1961,
      "رون": 1962,
      "صار": 1963,
      "الشم": 1964,
      "موز": 1965,
      "لمين": 1966,
      "سكان": 1967,
      "حيط": 1968,
      "صرية": 1969,
      "الدي": 1970,
      "ديسمبر": 1971,
      "الاقتص": 1972,
      "غالبا": 1973,
      "لو": 1974,
      "الدم": 1975,
      "ro": 1976,
      "إعادة": 1977,
      "السكان": 1978,
      "اللغات": 1979,
      "تشمل": 1980,
      "راق": 1981,
      "خدمات": 1982,
      "لايا": 1983,
      "اصمة": 1984,
      "ئات": 1985,
      "صنا": 1986,
      "العم": 1987,
      "وفقا": 1988,
      "بقي": 1989,
      "طريقة": 1990,
      "رقم": 1991,
      "الخام": 1992,
      "نظرية": 1993,
      "مكت": 1994,
      "سلسل": 1995,
      "جاه": 1996,
      "جزاء": 1997,
      "دات": 1998,
      "نسبة": 1999,
      "ليا": 2000,
      "ويت": 2001,
      "بداية": 2002,
      "60": 2003,
      "حاء": 2004,
      "فرة": 2005,
      "وكذلك": 2006,
      "الله": 2007,
      "بالنسبة": 2008,
      "جراء": 2009,
      "مباراة": 2010,
      "ساعد": 2011,
      "تعد": 2012,
      "الأجهزة": 2013,
      "وارزمية": 2014,
      "سطح": 2015,
      "دع": 2016,
      "ومة": 2017,
      "مارس": 2018,
      "تتم": 2019,
      "عالية": 2020,
      "والإ": 2021,
      "وجودة": 2022,
      "الأوردو": 2023,
      "ثلث": 2024,
      "واسيب": 2025,
      "كلا": 2026,
      "يعرف": 2027,
      "لأول": 2028,
      "راج": 2029,
      "وائل": 2030,
      "دخل": 2031,
      "راع": 2032,
      "الجنوبية": 2033,
      "22": 2034,
      "الرئيسية": 2035,
      "re": 2036,
      "الشي": 2037,
      "تبة": 2038,
      "صوت": 2039,
      "حكم": 2040,
      "فاد": 2041,
      "موسم": 2042,
      "تور": 2043,
      "2008": 2044,
      "خم": 2045,
      "زن": 2046,
      "مشا": 2047,
      "yst": 2048,
      "وبالتالي": 2049,
      "2000": 2050,
      "محا": 2051,
      "سون": 2052,
      "التقلي": 2053,
      "فوق": 2054,
      "لاحظ": 2055,
      "إحدى": 2056,
      "الأط": 2057,
      "الإنجليزية": 2058,
      "فص": 2059,
      "مشروع": 2060,
      "ليات": 2061,
      "ion": 2062,
      "نوات": 2063,
      "التس": 2064,
      "ادات": 2065,
      "يعتبر": 2066,
      "العامة": 2067,
      "الوسط": 2068,
      "النوع": 2069,
      "الخدم": 2070,
      "دراسة": 2071,
      "النسخة": 2072,
      "طوي": 2073,
      "واعد": 2074,
      "الجيش": 2075,
      "اط": 2076,
      "أساس": 2077,
      "المعروف": 2078,
      "it": 2079,
      "عبة": 2080,
      "سطس": 2081,
      "إذ": 2082,
      "صد": 2083,
      "العشرين": 2084,
      "فريقيا": 2085,
      "سك": 2086,
      "المملكة": 2087,
      "واف": 2088,
      "كنولوجيا": 2089,
      "عبية": 2090,
      "بطال": 2091,
      "21": 2092,
      "انتق": 2093,
      "193": 2094,
      "قدر": 2095,
      "يناير": 2096,
      "استخدم": 2097,
      "نطاق": 2098,
      "عضاء": 2099,
      "2005": 2100,
      "وائز": 2101,
      "أشهر": 2102,
      "أوبونتو": 2103,
      "بنتيجة": 2104,
      "صدر": 2105,
      "الفرنسية": 2106,
      "الأمر": 2107,
      "الاحت": 2108,
      "المكتب": 2109,
      "قسم": 2110,
      "امة": 2111,
      "الطاقة": 2112,
      "يرات": 2113,
      "أغسطس": 2114,
      "الروم": 2115,
      "الفيديو": 2116,
      "وست": 2117,
      "أخذ": 2118,
      "2010": 2119,
      "تفا": 2120,
      "الها": 2121,
      "انة": 2122,
      "وتن": 2123,
      "مكان": 2124,
      "العربي": 2125,
      "ؤدي": 2126,
      "وقف": 2127,
      "الدولية": 2128,
      "أنحاء": 2129,
      "الفترة": 2130,
      "المصدر": 2131,
      "الإش": 2132,
      "تقوم": 2133,
      "الإنس": 2134,
      "yle": 2135,
      "صحي": 2136,
      "للح": 2137,
      "شاركة": 2138,
      "ربة": 2139,
      "براير": 2140,
      "نائية": 2141,
      "ابل": 2142,
      "أمام": 2143,
      "جاء": 2144,
      "جعل": 2145,
      "كلمة": 2146,
      "نفسه": 2147,
      "29": 2148,
      "سكر": 2149,
      "مم": 2150,
      "المجر": 2151,
      "الولاية": 2152,
      "اهرة": 2153,
      "زيادة": 2154,
      "البرمجة": 2155,
      "الأخيرة": 2156,
      "استمر": 2157,
      "ويا": 2158,
      "سية": 2159,
      "مايو": 2160,
      "والث": 2161,
      "2009": 2162,
      "الأساسية": 2163,
      "ra": 2164,
      "شة": 2165,
      "حقق": 2166,
      "كيز": 2167,
      "حركة": 2168,
      "الأعمال": 2169,
      "بيا": 2170,
      "بدلا": 2171,
      "دين": 2172,
      "الخاص": 2173,
      "تعتبر": 2174,
      "ألبوم": 2175,
      "تك": 2176,
      "اتف": 2177,
      "تقريبا": 2178,
      "عمر": 2179,
      "الآخر": 2180,
      "مليات": 2181,
      "والس": 2182,
      "بلاد": 2183,
      "الأفلام": 2184,
      "القديمة": 2185,
      "رسم": 2186,
      "كوريا": 2187,
      "السابق": 2188,
      "el": 2189,
      "زياء": 2190,
      "الناس": 2191,
      "حاليا": 2192,
      "تحتوي": 2193,
      "شاف": 2194,
      "لان": 2195,
      "الوطني": 2196,
      "البطولة": 2197,
      "واد": 2198,
      "عنوان": 2199,
      "البل": 2200,
      "ربع": 2201,
      "تصف": 2202,
      "خلي": 2203,
      "كذلك": 2204,
      "التحكم": 2205,
      "طلق": 2206,
      "يوليو": 2207,
      "وغيرها": 2208,
      "اسات": 2209,
      "ويس": 2210,
      "درسة": 2211,
      "التع": 2212,
      "عبارة": 2213,
      "المختلفة": 2214,
      "لغات": 2215,
      "المض": 2216,
      "افت": 2217,
      "الفوز": 2218,
      "الرقمي": 2219,
      "فوز": 2220,
      "توجد": 2221,
      "لول": 2222,
      "هج": 2223,
      "الأعداد": 2224,
      "السين": 2225,
      "محر": 2226,
      "باست": 2227,
      "الجم": 2228,
      "100": 2229,
      "الجديد": 2230,
      "أبريل": 2231,
      "نسي": 2232,
      "وكول": 2233,
      "مائيات": 2234,
      "2011": 2235,
      "ملة": 2236,
      "البريط": 2237,
      "خطط": 2238,
      "ريد": 2239,
      "يسمى": 2240,
      "طاع": 2241,
      "اليون": 2242,
      "الموسم": 2243,
      "بأ": 2244,
      "رد": 2245,
      "فبراير": 2246,
      "تية": 2247,
      "غو": 2248,
      "طرة": 2249,
      "يعد": 2250,
      "الوطنية": 2251,
      "كاء": 2252,
      "تحقيق": 2253,
      "خصصة": 2254,
      "أدى": 2255,
      "مثلا": 2256,
      "تهم": 2257,
      "نصف": 2258,
      "وتا": 2259,
      "وذ": 2260,
      "وحدات": 2261,
      "بمع": 2262,
      "حدد": 2263,
      "كستان": 2264,
      "مغ": 2265,
      "واض": 2266,
      "يفة": 2267,
      "الزمن": 2268,
      "pla": 2269,
      "بيض": 2270,
      "ياه": 2271,
      "الشمس": 2272,
      "تمكن": 2273,
      "2016": 2274,
      "40": 2275,
      "ينيات": 2276,
      "نص": 2277,
      "تأثير": 2278,
      "وتق": 2279,
      "الهيثم": 2280,
      "28": 2281,
      "العدد": 2282,
      "تقديم": 2283,
      "27": 2284,
      "التطبيقات": 2285,
      "ريات": 2286,
      "dis": 2287,
      "متر": 2288,
      "لوب": 2289,
      "الأصل": 2290,
      "مجلس": 2291,
      "يونيو": 2292,
      "بغ": 2293,
      "والق": 2294,
      "ونة": 2295,
      "واة": 2296,
      "المناطق": 2297,
      "جمة": 2298,
      "مك": 2299,
      "ضغط": 2300,
      "الوصول": 2301,
      "تمث": 2302,
      "ثمانية": 2303,
      "ct": 2304,
      "شمل": 2305,
      "خصص": 2306,
      "عودية": 2307,
      "العصر": 2308,
      "التالية": 2309,
      "الألم": 2310,
      "ريب": 2311,
      "صول": 2312,
      "لاحقا": 2313,
      "نيات": 2314,
      "المب": 2315,
      "ائق": 2316,
      "آسيا": 2317,
      "بيانات": 2318,
      "نتوس": 2319,
      "2013": 2320,
      "إمكان": 2321,
      "خذ": 2322,
      "وتح": 2323,
      "بش": 2324,
      "تسمى": 2325,
      "لام": 2326,
      "السلطان": 2327,
      "صلاح": 2328,
      "واخر": 2329,
      "الكام": 2330,
      "displa": 2331,
      "سوف": 2332,
      "مباشرة": 2333,
      "الرا": 2334,
      "النات": 2335,
      "اقتص": 2336,
      "ystyle": 2337,
      "displaystyle": 2338,
      "مخت": 2339,
      "الكمبي": 2340,
      "2003": 2341,
      "}}": 2342,
      "بالق": 2343,
      "الحياة": 2344,
      "الكمبيوتر": 2345,
      "الأنظمة": 2346,
      "زف": 2347,
      "طيع": 2348,
      "بحث": 2349,
      "واسع": 2350,
      "تقنية": 2351,
      "مرا": 2352,
      "المسي": 2353,
      "المصري": 2354,
      "آن": 2355,
      "الور": 2356,
      "جنوب": 2357,
      "الأوروبي": 2358,
      "لال": 2359,
      "المثلث": 2360,
      "الصور": 2361,
      "أعمال": 2362,
      "ائر": 2363,
      "النهائي": 2364,
      "ch": 2365,
      "تظهر": 2366,
      "ويات": 2367,
      "عيد": 2368,
      "أت": 2369,
      "أفلام": 2370,
      "صالح": 2371,
      "تغ": 2372,
      "القائ": 2373,
      "البعض": 2374,
      "شركات": 2375,
      "أرمين": 2376,
      "الوسطى": 2377,
      "شرق": 2378,
      "ظهور": 2379,
      "يلي": 2380,
      "المجتمع": 2381,
      "الشركات": 2382,
      "لمات": 2383,
      "السر": 2384,
      "وفنتوس": 2385,
      "العد": 2386,
      "ليف": 2387,
      "والر": 2388,
      "الحكومة": 2389,
      "بعاد": 2390,
      "المستخدمة": 2391,
      "آلة": 2392,
      "جائزة": 2393,
      "القد": 2394,
      "التجارية": 2395,
      "الكائن": 2396,
      "الشبكة": 2397,
      "زر": 2398,
      "عاما": 2399,
      "أمريكا": 2400,
      "انت": 2401,
      "لهم": 2402,
      "يكن": 2403,
      "تغيير": 2404,
      "ماع": 2405,
      "برمجة": 2406,
      "قق": 2407,
      "ومي": 2408,
      "قطز": 2409,
      "تادو": 2410,
      "أف": 2411,
      "مستخدم": 2412,
      "المك": 2413,
      "غيرات": 2414,
      "الضوء": 2415,
      "مختلف": 2416,
      "اتي": 2417,
      "ارنة": 2418,
      "خلية": 2419,
      "اصط": 2420,
      "آر": 2421,
      "فرتادو": 2422,
      "..": 2423,
      "الملف": 2424,
      "التفا": 2425,
      "الصورة": 2426,
      "حجم": 2427,
      "2015": 2428,
      "راءة": 2429,
      "لغ": 2430,
      "ارسية": 2431,
      "أربعة": 2432,
      "ركة": 2433,
      "المشا": 2434,
      "السابقة": 2435,
      "ارا": 2436,
      "الجهاز": 2437,
      "التاس": 2438,
      "ائص": 2439,
      "المسا": 2440,
      "ائف": 2441,
      "ستا": 2442,
      "حقوق": 2443,
      "الكهربائية": 2444,
      "ورد": 2445,
      "أواخر": 2446,
      "المباراة": 2447,
      "ريك": 2448,
      "قطع": 2449,
      "نجا": 2450,
      "الحيو": 2451,
      "برمجيات": 2452,
      "باع": 2453,
      "الطريقة": 2454,
      "80": 2455,
      "أعلنت": 2456,
      "وسبة": 2457,
      "الجام": 2458,
      "المعاد": 2459,
      "إشارة": 2460,
      "مثلة": 2461,
      "ديا": 2462,
      "معينة": 2463,
      "الحكم": 2464,
      "السعودية": 2465,
      "هداف": 2466,
      "القط": 2467,
      "بك": 2468,
      "الويب": 2469,
      "نظيم": 2470,
      "هندسة": 2471,
      "بالك": 2472,
      "الاتصال": 2473,
      "تعرف": 2474,
      "السينما": 2475,
      "الاستخدام": 2476,
      "لكرة": 2477,
      "ائلة": 2478,
      "جال": 2479,
      "بث": 2480,
      "قرر": 2481,
      "المسلمين": 2482,
      "فصل": 2483,
      "حداث": 2484,
      "الثق": 2485,
      "2004": 2486,
      "العالمي": 2487,
      "ظل": 2488,
      "النق": 2489,
      "الإمبراطورية": 2490,
      "المز": 2491,
      "وسع": 2492,
      "ميات": 2493,
      "المواد": 2494,
      "منة": 2495,
      "هولة": 2496,
      "أرمينيا": 2497,
      "الميلاد": 2498,
      "تصوير": 2499,
      "26": 2500,
      "ائج": 2501,
      "شارك": 2502,
      "سسة": 2503,
      "طرق": 2504,
      "البرمائيات": 2505,
      "وافق": 2506,
      "حاسوب": 2507,
      "البلد": 2508,
      "افية": 2509,
      "تار": 2510,
      "تمي": 2511,
      "العمليات": 2512,
      "لدى": 2513,
      "تان": 2514,
      "2014": 2515,
      "الأصلي": 2516,
      "لوك": 2517,
      "الإلكترونية": 2518,
      "بحيث": 2519,
      "تشكل": 2520,
      "أمريكي": 2521,
      "خصة": 2522,
      "ذر": 2523,
      "منح": 2524,
      "جري": 2525,
      "الألعاب": 2526,
      "ماد": 2527,
      "عتبر": 2528,
      "برى": 2529,
      "الحالة": 2530,
      "مام": 2531,
      "بحاث": 2532,
      "اجت": 2533,
      "وسية": 2534,
      "حيانا": 2535,
      "اختيار": 2536,
      "منهم": 2537,
      "نائي": 2538,
      "مكون": 2539,
      "حدود": 2540,
      "وجل": 2541,
      "لفزيون": 2542,
      "كلي": 2543,
      "معا": 2544,
      "ورك": 2545,
      "تمام": 2546,
      "فيس": 2547,
      "والن": 2548,
      "الرابع": 2549,
      "زو": 2550,
      "ملا": 2551,
      "متعددة": 2552,
      "قلة": 2553,
      "المعالج": 2554,
      "سري": 2555,
      "جمالي": 2556,
      "ليست": 2557,
      "الحرة": 2558,
      "داية": 2559,
      "الموسيقية": 2560,
      "يسمح": 2561,
      "يري": 2562,
      "سبوع": 2563,
      "أبطال": 2564,
      "ستور": 2565,
      "الحواسيب": 2566,
      "تماما": 2567,
      "الإلكتروني": 2568,
      "مون": 2569,
      "ويتم": 2570,
      "تمت": 2571,
      "المجال": 2572,
      "الزمالك": 2573,
      "بلا": 2574,
      "إلكتر": 2575,
      "تنت": 2576,
      "الدولي": 2577,
      "ارتفاع": 2578,
      "راي": 2579,
      "شكلة": 2580,
      "المحم": 2581,
      "جار": 2582,
      "جور": 2583,
      "المستوى": 2584,
      "الرياضية": 2585,
      "صب": 2586,
      "واصل": 2587,
      "البحث": 2588,
      "بعضها": 2589,
      "اند": 2590,
      "قوق": 2591,
      "شمال": 2592,
      "تيب": 2593,
      "مفت": 2594,
      "التاسع": 2595,
      "خيص": 2596,
      "الحرارة": 2597,
      "الأنواع": 2598,
      "الكتابة": 2599,
      "فهوم": 2600,
      "ألب": 2601,
      "فيا": 2602,
      "ادل": 2603,
      "فراد": 2604,
      "اللعبة": 2605,
      "إليه": 2606,
      "تنا": 2607,
      "كانوا": 2608,
      "التقليدية": 2609,
      "ثناء": 2610,
      "الحساب": 2611,
      "الذا": 2612,
      "الفرنسي": 2613,
      "الحروف": 2614,
      "شه": 2615,
      "تطبيقات": 2616,
      "ادس": 2617,
      "قاعدة": 2618,
      "يحتوي": 2619,
      "فهي": 2620,
      "البشر": 2621,
      "لديها": 2622,
      "فادع": 2623,
      "تطبيق": 2624,
      "المخ": 2625,
      "تعريف": 2626,
      "التطور": 2627,
      "الشمالية": 2628,
      "حن": 2629,
      "ظة": 2630,
      "الأق": 2631,
      "co": 2632,
      "الأمير": 2633,
      "لمدة": 2634,
      "لمانيا": 2635,
      "أحمد": 2636,
      "شبه": 2637,
      "المرا": 2638,
      "ig": 2639,
      "باللغة": 2640,
      "سات": 2641,
      "صغيرة": 2642,
      "للمرة": 2643,
      "زات": 2644,
      "لعام": 2645,
      "الأرقام": 2646,
      "الرقم": 2647,
      "ليون": 2648,
      "وبد": 2649,
      "العملية": 2650,
      "تمثيل": 2651,
      "الغربية": 2652,
      "رسال": 2653,
      "الأمريكي": 2654,
      "بروتوكول": 2655,
      "عط": 2656,
      "موسيقى": 2657,
      "تقع": 2658,
      "روا": 2659,
      "فتح": 2660,
      "لط": 2661,
      "ويق": 2662,
      "تحويل": 2663,
      "وظائف": 2664,
      "بب": 2665,
      "لقة": 2666,
      "تحكم": 2667,
      "دمج": 2668,
      "نهايت": 2669,
      "تحسين": 2670,
      "واسعة": 2671,
      "لسلة": 2672,
      "إطلاق": 2673,
      "الممكن": 2674,
      "ثار": 2675,
      "ماية": 2676,
      "جوائز": 2677,
      "فاء": 2678,
      "وبعض": 2679,
      "وانين": 2680,
      "ing": 2681,
      "منتج": 2682,
      "عمليات": 2683,
      "صناعة": 2684,
      "32": 2685,
      "المخت": 2686,
      "توفي": 2687,
      "دائ": 2688,
      "الأخير": 2689,
      "كثيرا": 2690,
      "الذاكرة": 2691,
      "فذ": 2692,
      "الحا": 2693,
      "وإن": 2694,
      "هيل": 2695,
      "نموذج": 2696,
      "رأس": 2697,
      "طية": 2698,
      "العرض": 2699,
      "الوز": 2700,
      "شاط": 2701,
      "مصطلح": 2702,
      "كبة": 2703,
      "لهذه": 2704,
      "للع": 2705,
      "تحول": 2706,
      "فتر": 2707,
      "الري": 2708,
      "للق": 2709,
      "غرب": 2710,
      "تمثل": 2711,
      "الجسم": 2712,
      "خال": 2713,
      "تعلي": 2714,
      "كاملة": 2715,
      "مساحة": 2716,
      "ضيف": 2717,
      "نغ": 2718,
      "الحض": 2719,
      "نفسها": 2720,
      "منظمة": 2721,
      "نظرا": 2722,
      "وكس": 2723,
      "أوائل": 2724,
      "ؤية": 2725,
      "والص": 2726,
      "معروف": 2727,
      "أسس": 2728,
      "تنفيذ": 2729,
      "\"،": 2730,
      "مخ": 2731,
      "وتي": 2732,
      "جيش": 2733,
      "نائ": 2734,
      "النمو": 2735,
      "ويد": 2736,
      "القص": 2737,
      "هيئة": 2738,
      "تعتمد": 2739,
      "الرسوم": 2740,
      "المرتبة": 2741,
      "تعرض": 2742,
      "جاوز": 2743,
      "عاون": 2744,
      "المدن": 2745,
      "كول": 2746,
      "مالي": 2747,
      "سكرية": 2748,
      "شهد": 2749,
      "نيا": 2750,
      "أغلب": 2751,
      "شيء": 2752,
      "ندية": 2753,
      "مليار": 2754,
      "جوم": 2755,
      "لكية": 2756,
      "محددة": 2757,
      "بسي": 2758,
      "لون": 2759,
      "عتبار": 2760,
      "فيد": 2761,
      "العرب": 2762,
      "المق": 2763,
      "لاك": 2764,
      "العب": 2765,
      "الخلايا": 2766,
      "أشكال": 2767,
      "بأنه": 2768,
      "قواعد": 2769,
      "التأ": 2770,
      "الحصول": 2771,
      "وتار": 2772,
      "البداية": 2773,
      "قرار": 2774,
      "أصل": 2775,
      "منع": 2776,
      "ستة": 2777,
      "حيان": 2778,
      "الطب": 2779,
      "اعتبار": 2780,
      "لما": 2781,
      "توفر": 2782,
      "لهذا": 2783,
      "بدء": 2784,
      "صفح": 2785,
      "الأكبر": 2786,
      "السما": 2787,
      "الاجتماعية": 2788,
      "دير": 2789,
      "امر": 2790,
      "نيف": 2791,
      "خول": 2792,
      "لج": 2793,
      "هرنهايت": 2794,
      "الإنسان": 2795,
      "تكن": 2796,
      "شئ": 2797,
      "نهر": 2798,
      "وكل": 2799,
      "امية": 2800,
      "انيين": 2801,
      "يمثل": 2802,
      "الدوال": 2803,
      "أجزاء": 2804,
      "مب": 2805,
      "ورا": 2806,
      "طويلة": 2807,
      "غان": 2808,
      "الماء": 2809,
      "أبو": 2810,
      "ؤول": 2811,
      "سار": 2812,
      "الحركة": 2813,
      "يعني": 2814,
      "والخ": 2815,
      "مجموع": 2816,
      "الداخلية": 2817,
      "ساوي": 2818,
      "الحديث": 2819,
      "lo": 2820,
      "وجة": 2821,
      "علان": 2822,
      "نيوي": 2823,
      "ذاكرة": 2824,
      "بذلك": 2825,
      "ملعب": 2826,
      "بدو": 2827,
      "فرد": 2828,
      "مرات": 2829,
      "الثلاث": 2830,
      "بقيادة": 2831,
      "المتع": 2832,
      "الفض": 2833,
      "اريس": 2834,
      "مقارنة": 2835,
      "إفريقيا": 2836,
      "التوالي": 2837,
      "المنط": 2838,
      "ed": 2839,
      "ut": 2840,
      "تبط": 2841,
      "الفن": 2842,
      "قانون": 2843,
      "للإ": 2844,
      "الإنتاج": 2845,
      "عامة": 2846,
      "الصف": 2847,
      "لقب": 2848,
      "والف": 2849,
      "عقد": 2850,
      "فظ": 2851,
      "السنة": 2852,
      "الشاش": 2853,
      "خصوص": 2854,
      "احة": 2855,
      "موا": 2856,
      "العلوم": 2857,
      "وهذه": 2858,
      "مسترون": 2859,
      "الشع": 2860,
      "لكنه": 2861,
      "الفضة": 2862,
      "أصدر": 2863,
      "اصطنا": 2864,
      "90": 2865,
      "جوجل": 2866,
      "القمر": 2867,
      "الحدود": 2868,
      "روسيا": 2869,
      "هول": 2870,
      "المدار": 2871,
      "الأحيان": 2872,
      "جرة": 2873,
      "نوعة": 2874,
      "الأوروبية": 2875,
      "رسوم": 2876,
      "صلة": 2877,
      "بيه": 2878,
      "لعبة": 2879,
      "آلات": 2880,
      "جما": 2881,
      "تتضمن": 2882,
      "إليها": 2883,
      "توزيع": 2884,
      "وريا": 2885,
      "مود": 2886,
      "نيويورك": 2887,
      "معدل": 2888,
      "بدون": 2889,
      "استخدامها": 2890,
      "طاقة": 2891,
      "أعلن": 2892,
      "الأل": 2893,
      "الحوسبة": 2894,
      "القانون": 2895,
      "الخلي": 2896,
      "الهندسة": 2897,
      "الأرمن": 2898,
      "المحيط": 2899,
      "معالجة": 2900,
      "يور": 2901,
      "كبيرا": 2902,
      "65": 2903,
      "رح": 2904,
      "راص": 2905,
      "الاش": 2906,
      "رسميا": 2907,
      "ظام": 2908,
      "المعد": 2909,
      "هاب": 2910,
      "الاتصالات": 2911,
      "جيم": 2912,
      "الشمال": 2913,
      "مثال": 2914,
      "المحلي": 2915,
      "الإسلامية": 2916,
      "كائن": 2917,
      "الدور": 2918,
      "الخامس": 2919,
      "يظهر": 2920,
      "الحقي": 2921,
      "أداء": 2922,
      "طات": 2923,
      "والغ": 2924,
      "الكبرى": 2925,
      "مقرا": 2926,
      "الموجودة": 2927,
      "2002": 2928,
      "زيز": 2929,
      "جموعات": 2930,
      "عهد": 2931,
      "2020": 2932,
      "الشخصية": 2933,
      "الساعة": 2934,
      "وميني": 2935,
      "فاق": 2936,
      "ثاني": 2937,
      "صاح": 2938,
      "ديز": 2939,
      "المجموعة": 2940,
      "الجنوب": 2941,
      "المحلية": 2942,
      "الشرق": 2943,
      "كمة": 2944,
      "منتصف": 2945,
      "خصائص": 2946,
      "الطبيعية": 2947,
      "us": 2948,
      "جيا": 2949,
      "طن": 2950,
      "للمستخدم": 2951,
      "مهمة": 2952,
      "ri": 2953,
      "فكرة": 2954,
      "الموقع": 2955,
      "منت": 2956,
      "الأبج": 2957,
      "ماذج": 2958,
      "العود": 2959,
      "ناد": 2960,
      "الوحي": 2961,
      "راغ": 2962,
      "وبين": 2963,
      "جية": 2964,
      "معاد": 2965,
      "بنفس": 2966,
      "بخ": 2967,
      "تسمح": 2968,
      "وديو": 2969,
      "يوفنتوس": 2970,
      "السري": 2971,
      "تيجة": 2972,
      "2017": 2973,
      "تخابات": 2974,
      "مناطق": 2975,
      "ضح": 2976,
      "فهو": 2977,
      "حصول": 2978,
      "تون": 2979,
      "أحيانا": 2980,
      "الأف": 2981,
      "كيب": 2982,
      "يطاليا": 2983,
      "أربع": 2984,
      "وتو": 2985,
      "الشاشة": 2986,
      "زيا": 2987,
      "انس": 2988,
      "الفعل": 2989,
      "الخارج": 2990,
      "بوا": 2991,
      "تلق": 2992,
      "ويست": 2993,
      "مسترونغ": 2994,
      "القوات": 2995,
      "الجما": 2996,
      "بض": 2997,
      "بأنها": 2998,
      "مقياس": 2999,
      "يصل": 3000,
      "اللا": 3001,
      "المقا": 3002,
      "الشام": 3003,
      "بنى": 3004,
      "خمسة": 3005,
      "شاه": 3006,
      "عشرة": 3007,
      "المشروع": 3008,
      "انته": 3009,
      "الذكاء": 3010,
      "اليب": 3011,
      "تصل": 3012,
      "خراج": 3013,
      "معد": 3014,
      "عنه": 3015,
      "وسائل": 3016,
      "وهناك": 3017,
      "تركة": 3018,
      "الضفادع": 3019,
      "وها": 3020,
      "باط": 3021,
      "تعني": 3022,
      "نع": 3023,
      "الإد": 3024,
      "الجمع": 3025,
      "تحمل": 3026,
      "ساهم": 3027,
      "ميزات": 3028,
      "الملفات": 3029,
      "يقع": 3030,
      "الناتج": 3031,
      "كهرب": 3032,
      "لقد": 3033,
      "إيه": 3034,
      "الإس": 3035,
      "مجالات": 3036,
      "بحلول": 3037,
      "دونالد": 3038,
      "مقاط": 3039,
      "وعا": 3040,
      "الهندية": 3041,
      "ve": 3042,
      "انه": 3043,
      "بيئة": 3044,
      "ادم": 3045,
      "ارد": 3046,
      "تقسيم": 3047,
      "ساعة": 3048,
      "النهاية": 3049,
      "un": 3050,
      "رج": 3051,
      "190": 3052,
      "ضاع": 3053,
      "المكت": 3054,
      "امت": 3055,
      "القاهرة": 3056,
      "البريد": 3057,
      "مقابل": 3058,
      "الأساسي": 3059,
      "أعضاء": 3060,
      "لشركة": 3061,
      "السادس": 3062,
      "تحدث": 3063,
      "قوة": 3064,
      "2019": 3065,
      "المعروفة": 3066,
      "ثابت": 3067,
      "دبي": 3068,
      "فون": 3069,
      "المذ": 3070,
      "امتد": 3071,
      "العاصمة": 3072,
      "والج": 3073,
      "31": 3074,
      "بيرة": 3075,
      "ألعاب": 3076,
      "يشير": 3077,
      "النسخ": 3078,
      "إجراء": 3079,
      "مرحلة": 3080,
      "كادي": 3081,
      "ation": 3082,
      "راب": 3083,
      "زال": 3084,
      "كود": 3085,
      "التتار": 3086,
      "الحالي": 3087,
      "الفارسية": 3088,
      "قيد": 3089,
      "بهدف": 3090,
      "وهم": 3091,
      "الرسمية": 3092,
      "اللون": 3093,
      "ent": 3094,
      "سواء": 3095,
      "نقاط": 3096,
      "يبلغ": 3097,
      "ابتد": 3098,
      "تمل": 3099,
      "الخوارزمية": 3100,
      "اليد": 3101,
      "التقنية": 3102,
      "ألبانيا": 3103,
      "هز": 3104,
      "سيد": 3105,
      "جهة": 3106,
      "الثلاثة": 3107,
      "حمل": 3108,
      "شق": 3109,
      "مناف": 3110,
      "أيام": 3111,
      "الشرقية": 3112,
      "جزءا": 3113,
      "صيغة": 3114,
      "أطلقت": 3115,
      "أهل": 3116,
      "عكس": 3117,
      "ميد": 3118,
      "الثالثة": 3119,
      "صنع": 3120,
      "em": 3121,
      "الأقل": 3122,
      "قض": 3123,
      "مبار": 3124,
      "أمر": 3125,
      "فيديو": 3126,
      "الآلة": 3127,
      "حس": 3128,
      "زمن": 3129,
      "هيم": 3130,
      "معين": 3131,
      "الثا": 3132,
      "طيسي": 3133,
      "وحتى": 3134,
      "الأراضي": 3135,
      "واح": 3136,
      "العلماء": 3137,
      "غاية": 3138,
      "سمة": 3139,
      "المصرية": 3140,
      "جنوم": 3141,
      "سد": 3142,
      "الماض": 3143,
      "بيين": 3144,
      "الكر": 3145,
      "وفاز": 3146,
      "أسر": 3147,
      "مجموعات": 3148,
      "ئوية": 3149,
      "فعل": 3150,
      "مور": 3151,
      "ندي": 3152,
      "الحالية": 3153,
      "بطريقة": 3154,
      "فهرنهايت": 3155,
      "الإيط": 3156,
      "يسوتا": 3157,
      "الأبجدية": 3158,
      "أج": 3159,
      "وليس": 3160,
      "الغربي": 3161,
      "سوي": 3162,
      "المكون": 3163,
      "اتحاد": 3164,
      "تأسيس": 3165,
      "العلمية": 3166,
      "لكي": 3167,
      "حتوى": 3168,
      "علوم": 3169,
      "رقمية": 3170,
      "النظر": 3171,
      "وتش": 3172,
      "درجات": 3173,
      "الإسب": 3174,
      "إنترنت": 3175,
      "الضو": 3176,
      "مكتب": 3177,
      "الأي": 3178,
      "درس": 3179,
      "أكسس": 3180,
      "وأص": 3181,
      "2001": 3182,
      "الصناعية": 3183,
      "تمتلك": 3184,
      "القيمة": 3185,
      "باي": 3186,
      "رغم": 3187,
      "الأمن": 3188,
      "ابا": 3189,
      "الصح": 3190,
      "تعا": 3191,
      "مير": 3192,
      "مقا": 3193,
      "الفيزياء": 3194,
      "فاتيح": 3195,
      "القدرة": 3196,
      "بالان": 3197,
      "بسرعة": 3198,
      "سمي": 3199,
      "اللي": 3200,
      "البص": 3201,
      "تقل": 3202,
      "تيان": 3203,
      "تتكون": 3204,
      "أسست": 3205,
      "يونكس": 3206,
      "قابلة": 3207,
      "تث": 3208,
      "الاصطنا": 3209,
      "فاظ": 3210,
      "البريطانية": 3211,
      "عان": 3212,
      "القناة": 3213,
      "النانو": 3214,
      "السام": 3215,
      "كلفة": 3216,
      "he": 3217,
      "إضاف": 3218,
      "اك": 3219,
      "الأطفال": 3220,
      "للا": 3221,
      "البد": 3222,
      "فرق": 3223,
      "علماء": 3224,
      "مينيسوتا": 3225,
      "المستخدمين": 3226,
      "ماكدونالد": 3227,
      "مكتبة": 3228,
      "لوحة": 3229,
      "وأيضا": 3230,
      "المفت": 3231,
      "البير": 3232,
      "يعتمد": 3233,
      "الكتاب": 3234,
      "الخدمة": 3235,
      "هود": 3236,
      "نظم": 3237,
      "شائ": 3238,
      "ريبة": 3239,
      "الصلي": 3240,
      "عنها": 3241,
      "خفضة": 3242,
      "الجمهورية": 3243,
      "اغ": 3244,
      "تضم": 3245,
      "موس": 3246,
      "الأبعاد": 3247,
      "الفضاء": 3248,
      "de": 3249,
      "ضي": 3250,
      "الصحي": 3251,
      "64": 3252,
      "خمس": 3253,
      "الدوميني": 3254,
      "الإسلامي": 3255,
      "ماليك": 3256,
      "لاست": 3257,
      "الميز": 3258,
      "براء": 3259,
      "نهائي": 3260,
      "المغنا": 3261,
      "غول": 3262,
      "لنظام": 3263,
      "مجتمع": 3264,
      "المدارس": 3265,
      "بص": 3266,
      "قاء": 3267,
      "ائط": 3268,
      "باه": 3269,
      "اتصال": 3270,
      "ديدا": 3271,
      "الأسود": 3272,
      "يجعل": 3273,
      "أرض": 3274,
      "كير": 3275,
      "الحكوم": 3276,
      "الجيتار": 3277,
      "الميكاني": 3278,
      "ذو": 3279,
      "وامل": 3280,
      "حرك": 3281,
      "طرح": 3282,
      "تسجيل": 3283,
      "حب": 3284,
      "ذب": 3285,
      "سكري": 3286,
      "الجهد": 3287,
      "الرسمي": 3288,
      "تال": 3289,
      "تغير": 3290,
      "العن": 3291,
      "قابل": 3292,
      "النقطة": 3293,
      "as": 3294,
      "بهذا": 3295,
      "الصفر": 3296,
      "أة": 3297,
      "غار": 3298,
      "فيرف": 3299,
      "المه": 3300,
      "وارد": 3301,
      "طيس": 3302,
      "عديدة": 3303,
      "التعب": 3304,
      "يتها": 3305,
      "ولكنه": 3306,
      "المثلثية": 3307,
      "لويس": 3308,
      "مفهوم": 3309,
      "العص": 3310,
      "تعلم": 3311,
      "والتر": 3312,
      "قار": 3313,
      "المتحر": 3314,
      "الحرف": 3315,
      "ولكنها": 3316,
      "القيث": 3317,
      "ديزني": 3318,
      "ألمانيا": 3319,
      "أندية": 3320,
      "اللات": 3321,
      "مدى": 3322,
      "كاي": 3323,
      "لاحق": 3324,
      "السوفيتية": 3325,
      "وزي": 3326,
      "شع": 3327,
      "یة": 3328,
      "الذكر": 3329,
      "باعة": 3330,
      "الزرا": 3331,
      "إصدارات": 3332,
      "إمكانية": 3333,
      "طاب": 3334,
      "عمو": 3335,
      "انز": 3336,
      "استر": 3337,
      "اسبة": 3338,
      "الساح": 3339,
      "باحية": 3340,
      "يجاد": 3341,
      "بود": 3342,
      "فلا": 3343,
      "العين": 3344,
      "السنوات": 3345,
      "نسخ": 3346,
      "سابقا": 3347,
      "للس": 3348,
      "المرحلة": 3349,
      "ألة": 3350,
      "مه": 3351,
      "المياه": 3352,
      "الصين": 3353,
      "ماكدونالدز": 3354,
      "70": 3355,
      "الأرب": 3356,
      "الكون": 3357,
      "الدقيقة": 3358,
      "متوسط": 3359,
      "كذا": 3360,
      "لادي": 3361,
      "السوق": 3362,
      "الدرجة": 3363,
      "ملايين": 3364,
      "إما": 3365,
      "برة": 3366,
      "واج": 3367,
      "وسائط": 3368,
      "الخص": 3369,
      "وزارة": 3370,
      "يطلق": 3371,
      "أثر": 3372,
      "كالي": 3373,
      "نز": 3374,
      "يؤدي": 3375,
      "ومتر": 3376,
      "تردد": 3377,
      "تقر": 3378,
      "مقر": 3379,
      "بوب": 3380,
      "شعبية": 3381,
      "المجموعات": 3382,
      "ماط": 3383,
      "العناصر": 3384,
      "وجي": 3385,
      "البروت": 3386,
      "شاهد": 3387,
      "1990": 3388,
      "تري": 3389,
      "يحدث": 3390,
      "يعود": 3391,
      "ميزة": 3392,
      "هواتف": 3393,
      "يته": 3394,
      "كوب": 3395,
      "انتشار": 3396,
      "الحال": 3397,
      "فردة": 3398,
      "قدرة": 3399,
      "البرمجية": 3400,
      "ايير": 3401,
      "أهمية": 3402,
      "خوارزمية": 3403,
      "رخ": 3404,
      "خلف": 3405,
      "جلس": 3406,
      "صاحب": 3407,
      "معرفة": 3408,
      "وائر": 3409,
      "راز": 3410,
      "النطاق": 3411,
      "الكبيرة": 3412,
      "يرية": 3413,
      "رافي": 3414,
      "وجين": 3415,
      "افتت": 3416,
      "بنسبة": 3417,
      "تخب": 3418,
      "500": 3419,
      "فينة": 3420,
      "النصوص": 3421,
      "المحمولة": 3422,
      "اخ": 3423,
      "صات": 3424,
      "المبار": 3425,
      "أغاني": 3426,
      "ضوء": 3427,
      "عناصر": 3428,
      "فوت": 3429,
      "مذ": 3430,
      "العليا": 3431,
      "الأغاني": 3432,
      "ذاك": 3433,
      "ولت": 3434,
      "البنية": 3435,
      "الصي": 3436,
      "اختبار": 3437,
      "رخصة": 3438,
      "شح": 3439,
      "رافية": 3440,
      "أوفيس": 3441,
      "السوفيتي": 3442,
      "ئيا": 3443,
      "قدة": 3444,
      "لز": 3445,
      "ريض": 3446,
      "والك": 3447,
      "الحالات": 3448,
      "جاز": 3449,
      "عاع": 3450,
      "وجهة": 3451,
      "il": 3452,
      "يلا": 3453,
      "الهدف": 3454,
      "سرطان": 3455,
      "كثيرة": 3456,
      "الأردية": 3457,
      "رمز": 3458,
      "موض": 3459,
      "المصطلح": 3460,
      "الإصدارات": 3461,
      "إيطاليا": 3462,
      "شل": 3463,
      "طوع": 3464,
      "الإشارة": 3465,
      "باس": 3466,
      "ولها": 3467,
      "وتع": 3468,
      "الرمز": 3469,
      "السوبر": 3470,
      "الصغيرة": 3471,
      "عاية": 3472,
      "شاريع": 3473,
      "جح": 3474,
      "فيات": 3475,
      "ونت": 3476,
      "وأصبح": 3477,
      "كينيا": 3478,
      "ثق": 3479,
      "حرب": 3480,
      "ضرب": 3481,
      "الكلمة": 3482,
      "نتائج": 3483,
      "مساعدة": 3484,
      "om": 3485,
      "بعنوان": 3486,
      "برلين": 3487,
      "فاض": 3488,
      "لاعبين": 3489,
      "فيرفكس": 3490,
      "المماليك": 3491,
      "أنشأ": 3492,
      "تقي": 3493,
      "بدور": 3494,
      "2018": 3495,
      "البيضاء": 3496,
      "خصوصا": 3497,
      "صغير": 3498,
      "الوح": 3499,
      "السن": 3500,
      "قلال": 3501,
      "سسات": 3502,
      "تضمن": 3503,
      "لاس": 3504,
      "وائية": 3505,
      "فإنه": 3506,
      "سويفت": 3507,
      "يتي": 3508,
      "الآلات": 3509,
      "وراء": 3510,
      "للغاية": 3511,
      "عددا": 3512,
      "الأشخاص": 3513,
      "ملح": 3514,
      "مدة": 3515,
      "القراءة": 3516,
      "أقدم": 3517,
      "إتش": 3518,
      "شات": 3519,
      "لمان": 3520,
      "أوزب": 3521,
      "بلد": 3522,
      "فريقية": 3523,
      "تختلف": 3524,
      "سوق": 3525,
      "يخ": 3526,
      "محاولة": 3527,
      "الكائنات": 3528,
      "الين": 3529,
      "برت": 3530,
      "تميز": 3531,
      "الدعم": 3532,
      "الفلس": 3533,
      "تحليل": 3534,
      "فسير": 3535,
      "القيثارات": 3536,
      "شطة": 3537,
      "عص": 3538,
      "السياسية": 3539,
      "المتحركة": 3540,
      "ولاكو": 3541,
      "المستقبل": 3542,
      "الاجتماعي": 3543,
      "اجتما": 3544,
      "كتور": 3545,
      "اسمه": 3546,
      "مصدر": 3547,
      "مؤسسة": 3548,
      "تزال": 3549,
      "افتراض": 3550,
      "اول": 3551,
      "ومر": 3552,
      "لبة": 3553,
      "دورا": 3554,
      "حفل": 3555,
      "ندا": 3556,
      "النقل": 3557,
      "جنب": 3558,
      "الموسيقي": 3559,
      "التعليمات": 3560,
      "الست": 3561,
      "العثمانية": 3562,
      "العسكرية": 3563,
      "وتس": 3564,
      "أدوات": 3565,
      "بغداد": 3566,
      "بو": 3567,
      "ثانية": 3568,
      "فان": 3569,
      "هان": 3570,
      "مجلة": 3571,
      "التعليم": 3572,
      "أعداد": 3573,
      "الأجن": 3574,
      "اسل": 3575,
      "ومان": 3576,
      "الحاسب": 3577,
      "ess": 3578,
      "عاصمة": 3579,
      "قصة": 3580,
      "خري": 3581,
      "نسب": 3582,
      "المالية": 3583,
      "الجان": 3584,
      "ائدة": 3585,
      "الكبير": 3586,
      "الشفق": 3587,
      "تيانجين": 3588,
      "لأنه": 3589,
      "نيل": 3590,
      "التقاط": 3591,
      "بينها": 3592,
      "وأد": 3593,
      "95": 3594,
      "الأكادي": 3595,
      "سباب": 3596,
      "وصلت": 3597,
      "وقعت": 3598,
      "بدل": 3599,
      "تشير": 3600,
      "حرارة": 3601,
      "تراك": 3602,
      "غز": 3603,
      "الواقع": 3604,
      "الكورية": 3605,
      "تعيين": 3606,
      "وفرة": 3607,
      "علاقة": 3608,
      "الاقتصادية": 3609,
      "باب": 3610,
      "فهم": 3611,
      "‏،": 3612,
      "انوية": 3613,
      "يرون": 3614,
      "معركة": 3615,
      "الكل": 3616,
      "الفوت": 3617,
      "داة": 3618,
      "ph": 3619,
      "لر": 3620,
      "وعندما": 3621,
      "الكلمات": 3622,
      "هرجان": 3623,
      "وصيل": 3624,
      "السلطة": 3625,
      "اليابان": 3626,
      "الدومينيكان": 3627,
      "حض": 3628,
      "يؤ": 3629,
      "وقال": 3630,
      "باك": 3631,
      "1996": 3632,
      "شت": 3633,
      "الثابت": 3634,
      "الهاتف": 3635,
      "1999": 3636,
      "35": 3637,
      "ol": 3638,
      "حال": 3639,
      "القلاب": 3640,
      "ائد": 3641,
      "الشعبية": 3642,
      "تبع": 3643,
      "جلت": 3644,
      "للج": 3645,
      "محمود": 3646,
      "وسيلة": 3647,
      "إطار": 3648,
      "حم": 3649,
      "عامي": 3650,
      "يشار": 3651,
      "1994": 3652,
      "التصميم": 3653,
      "اكتشاف": 3654,
      "رئيسي": 3655,
      "يدة": 3656,
      "اليم": 3657,
      "اتصالات": 3658,
      "ارجي": 3659,
      "ملفات": 3660,
      "قدار": 3661,
      "تصنيف": 3662,
      "عادل": 3663,
      "os": 3664,
      "هادة": 3665,
      "لايف": 3666,
      "St": 3667,
      "الكرة": 3668,
      "الطرق": 3669,
      "علق": 3670,
      "المجمع": 3671,
      "لديه": 3672,
      "موجودة": 3673,
      "السابع": 3674,
      "الاعت": 3675,
      "اقات": 3676,
      "طح": 3677,
      "هدة": 3678,
      "اختصار": 3679,
      "جو": 3680,
      "ينو": 3681,
      "النو": 3682,
      "الخوارز": 3683,
      "كتابه": 3684,
      "1998": 3685,
      "الانتق": 3686,
      "ur": 3687,
      "عودي": 3688,
      "مملكة": 3689,
      "هولاكو": 3690,
      "وجيه": 3691,
      "سبق": 3692,
      "إدخال": 3693,
      "القائمة": 3694,
      "86": 3695,
      "المبا": 3696,
      "ائرات": 3697,
      "تحديث": 3698,
      "طورة": 3699,
      "صح": 3700,
      "فئة": 3701,
      "أكد": 3702,
      "1995": 3703,
      "تايل": 3704,
      "نشأ": 3705,
      "الممت": 3706,
      "ونيات": 3707,
      "أسلوب": 3708,
      "تهاء": 3709,
      "نمط": 3710,
      "بقية": 3711,
      "نيع": 3712,
      "استه": 3713,
      "يميا": 3714,
      "سلط": 3715,
      "سنجر": 3716,
      "البحرية": 3717,
      "سوى": 3718,
      "معه": 3719,
      "الخلا": 3720,
      "باعتبار": 3721,
      "المعرفة": 3722,
      "البشرية": 3723,
      "شن": 3724,
      "وام": 3725,
      "وأكثر": 3726,
      "بريط": 3727,
      "للحصول": 3728,
      "الدائرة": 3729,
      "الذه": 3730,
      "وظيفة": 3731,
      "الجزيرة": 3732,
      "الصوتية": 3733,
      "um": 3734,
      "جوز": 3735,
      "حرة": 3736,
      "كوك": 3737,
      "الخل": 3738,
      "الماضي": 3739,
      "im": 3740,
      "تض": 3741,
      "الملعب": 3742,
      "الإباحية": 3743,
      "فرض": 3744,
      "مرور": 3745,
      "يستطيع": 3746,
      "النهائية": 3747,
      "الميزات": 3748,
      "أتي": 3749,
      "سق": 3750,
      "للد": 3751,
      "ابية": 3752,
      "الجبر": 3753,
      "ترتيب": 3754,
      "كسون": 3755,
      "فريقي": 3756,
      "\".": 3757,
      "إقلي": 3758,
      "تزا": 3759,
      "ممت": 3760,
      "مشكلة": 3761,
      "السلسلة": 3762,
      "اللج": 3763,
      "سنويا": 3764,
      "قصى": 3765,
      "يصبح": 3766,
      "تبطة": 3767,
      "اقتصاد": 3768,
      "الثامن": 3769,
      "عموما": 3770,
      "أعم": 3771,
      "الشبكات": 3772,
      "الخدمات": 3773,
      "وفاة": 3774,
      "المركبة": 3775,
      "ذهب": 3776,
      "لانا": 3777,
      "التمام": 3778,
      "العر": 3779,
      "ويج": 3780,
      "بتاريخ": 3781,
      "التركية": 3782,
      "الأشعة": 3783,
      "الخليفة": 3784,
      "طبق": 3785,
      "الرسائل": 3786,
      "علامات": 3787,
      "وليد": 3788,
      "العمر": 3789,
      "أنهم": 3790,
      "ويع": 3791,
      "ترجمة": 3792,
      "وجب": 3793,
      "مرض": 3794,
      "المسيحي": 3795,
      "الخارجية": 3796,
      "المكان": 3797,
      "برس": 3798,
      "ادت": 3799,
      "الحزب": 3800,
      "رفض": 3801,
      "مقدم": 3802,
      "الرياضي": 3803,
      "الاصطناعي": 3804,
      "طيسية": 3805,
      "do": 3806,
      "اهر": 3807,
      "ثور": 3808,
      "اروسيا": 3809,
      "الأحداث": 3810,
      "حدوث": 3811,
      "محطة": 3812,
      "وغالبا": 3813,
      "الأحرف": 3814,
      "أبرز": 3815,
      "فارق": 3816,
      "جسام": 3817,
      "فيذي": 3818,
      "باقي": 3819,
      "باكستان": 3820,
      "وكالة": 3821,
      "وائم": 3822,
      "الأحمر": 3823,
      "أوزبكستان": 3824,
      "والمت": 3825,
      "قيام": 3826,
      "أسماء": 3827,
      "يعتقد": 3828,
      "يزال": 3829,
      "بلغت": 3830,
      "الألوان": 3831,
      "45": 3832,
      "الشائ": 3833,
      "وارزم": 3834,
      "شيوعا": 3835,
      "الحيوانات": 3836,
      "اللاتينية": 3837,
      "التلفزي": 3838,
      "لكت": 3839,
      "الإعلام": 3840,
      "فصلة": 3841,
      "حاس": 3842,
      "أنتج": 3843,
      "ادر": 3844,
      "لبية": 3845,
      "الشرقي": 3846,
      "بمعنى": 3847,
      "افظ": 3848,
      "بلقب": 3849,
      "تشكيل": 3850,
      "التجارة": 3851,
      "تاريخه": 3852,
      "In": 3853,
      "رئ": 3854,
      "سنت": 3855,
      "مواقع": 3856,
      "السود": 3857,
      "فران": 3858,
      "فرقة": 3859,
      "ثمان": 3860,
      "المجرية": 3861,
      "جيب": 3862,
      "دقيقة": 3863,
      "لأي": 3864,
      "العصور": 3865,
      "الجوية": 3866,
      "الخمس": 3867,
      "السيطرة": 3868,
      "خسر": 3869,
      "الحديد": 3870,
      "القوة": 3871,
      "ودية": 3872,
      "ربط": 3873,
      "الغرب": 3874,
      "الملكية": 3875,
      "ck": 3876,
      "دفع": 3877,
      "نر": 3878,
      "واجهات": 3879,
      "وهكذا": 3880,
      "وأصبحت": 3881,
      "شعار": 3882,
      "العودة": 3883,
      "ابلة": 3884,
      "أكمل": 3885,
      "am": 3886,
      "ce": 3887,
      "إير": 3888,
      "صابة": 3889,
      "قوية": 3890,
      "بعدما": 3891,
      "الهواء": 3892,
      "التجري": 3893,
      "حلول": 3894,
      "and": 3895,
      "تحرك": 3896,
      "دائما": 3897,
      "ينت": 3898,
      "لائ": 3899,
      "ليكون": 3900,
      "الخلف": 3901,
      "الطائرة": 3902,
      "الجنوبي": 3903,
      "خي": 3904,
      "الأمراء": 3905,
      "تدري": 3906,
      "طبقة": 3907,
      "النموذج": 3908,
      "بلي": 3909,
      "خرا": 3910,
      "كاب": 3911,
      "هاد": 3912,
      "صفحات": 3913,
      "الأداء": 3914,
      "ولون": 3915,
      "ريا": 3916,
      "افات": 3917,
      "مجرد": 3918,
      "يتحدث": 3919,
      "باح": 3920,
      "أحداث": 3921,
      "تنتج": 3922,
      "بنية": 3923,
      "ترع": 3924,
      "بلغة": 3925,
      "أساسي": 3926,
      "يدعم": 3927,
      "الأولم": 3928,
      "تدعم": 3929,
      "أدت": 3930,
      "اعتمد": 3931,
      "حراف": 3932,
      "مسب": 3933,
      "ترف": 3934,
      "يتين": 3935,
      "كبات": 3936,
      "زاوية": 3937,
      "العلاقة": 3938,
      "المهمة": 3939,
      "المدرسة": 3940,
      "ديش": 3941,
      "والش": 3942,
      "حركات": 3943,
      "اقتر": 3944,
      "اضطر": 3945,
      "بالكامل": 3946,
      "يرو": 3947,
      "البث": 3948,
      "الطرف": 3949,
      "بني": 3950,
      "دالة": 3951,
      "الطلاب": 3952,
      "مدن": 3953,
      "كمية": 3954,
      "الزا": 3955,
      "باريس": 3956,
      "تأسست": 3957,
      "عائلة": 3958,
      "ماسنجر": 3959,
      "يوفر": 3960,
      "كاتب": 3961,
      "مشابه": 3962,
      "سكي": 3963,
      "اللاعب": 3964,
      "لكنها": 3965,
      "راوح": 3966,
      "الإضاف": 3967,
      "الجوي": 3968,
      "النف": 3969,
      "صحيح": 3970,
      "البيروني": 3971,
      "عصر": 3972,
      "الروا": 3973,
      "وخاصة": 3974,
      "حالات": 3975,
      "حسين": 3976,
      "غلات": 3977,
      "يتضمن": 3978,
      "بطل": 3979,
      "طل": 3980,
      "كجزء": 3981,
      "التعاون": 3982,
      "واخت": 3983,
      "السبب": 3984,
      "وسا": 3985,
      "الفنان": 3986,
      "الاح": 3987,
      "ندوق": 3988,
      "قطاع": 3989,
      "الكهربائي": 3990,
      "العلاقات": 3991,
      "pi": 3992,
      "خفاض": 3993,
      "طائرة": 3994,
      "التيار": 3995,
      "فرع": 3996,
      "اللقب": 3997,
      "الأمم": 3998,
      "الفرق": 3999,
      "1997": 4000,
      "قصيرة": 4001,
      "العلاج": 4002,
      "إسب": 4003,
      "بون": 4004,
      "فارس": 4005,
      "سينما": 4006,
      "العلمي": 4007,
      "موزيلا": 4008,
      "البلدان": 4009,
      "التغيير": 4010,
      "الدخل": 4011,
      "الفار": 4012,
      "مثيل": 4013,
      "إنها": 4014,
      "ؤلاء": 4015,
      "صفر": 4016,
      "طرف": 4017,
      "الطريق": 4018,
      "اختراع": 4019,
      "إرسال": 4020,
      "جابة": 4021,
      "المادة": 4022,
      "المواقع": 4023,
      "ورتس": 4024,
      "يحمل": 4025,
      "محرك": 4026,
      "تالية": 4027,
      "شستر": 4028,
      "راك": 4029,
      "الإير": 4030,
      "جنكيز": 4031,
      "الأولية": 4032,
      "قدمت": 4033,
      "ثلاثية": 4034,
      "سلسلات": 4035,
      "زوج": 4036,
      "امات": 4037,
      "الأبيض": 4038,
      "ماس": 4039,
      "عدا": 4040,
      "وعلم": 4041,
      "يتكون": 4042,
      "خلق": 4043,
      "تعديل": 4044,
      "ot": 4045,
      "طى": 4046,
      "انع": 4047,
      "سيطر": 4048,
      "لمون": 4049,
      "كندا": 4050,
      "تصبح": 4051,
      "استخدامه": 4052,
      "الألماني": 4053,
      "اعتبارا": 4054,
      "SD": 4055,
      "انها": 4056,
      "ورات": 4057,
      "العا": 4058,
      "الخي": 4059,
      "شاشة": 4060,
      "التعبير": 4061,
      "ؤون": 4062,
      "حوا": 4063,
      "نات": 4064,
      "التجميع": 4065,
      "عينيات": 4066,
      "بسهولة": 4067,
      "تبلغ": 4068,
      "لصالح": 4069,
      "للش": 4070,
      "الصالح": 4071,
      "متعدد": 4072,
      "ئلة": 4073,
      "النسب": 4074,
      "الكهر": 4075,
      "تقنيات": 4076,
      "أدوبي": 4077,
      "بالقرب": 4078,
      "بالرغم": 4079,
      "تؤ": 4080,
      "خزين": 4081,
      "خلايا": 4082,
      "وبات": 4083,
      "القديم": 4084,
      "البار": 4085,
      "مدير": 4086,
      "يقدم": 4087,
      "أرسل": 4088,
      "اكتشف": 4089,
      "باستثناء": 4090,
      "إجمالي": 4091,
      "قتل": 4092,
      "تحميل": 4093,
      "بصورة": 4094,
      "تعود": 4095,
      "رم": 4096,
      "الثورة": 4097,
      "77": 4098,
      "قس": 4099,
      "كائ": 4100,
      "الحجم": 4101,
      "ترجم": 4102,
      "وسنة": 4103,
      "موظ": 4104,
      "سيمات": 4105,
      "دمشق": 4106,
      "حصلت": 4107,
      "الأولمبية": 4108,
      "شط": 4109,
      "مباد": 4110,
      "إف": 4111,
      "اذ": 4112,
      "جموعة": 4113,
      "لسي": 4114,
      "هزم": 4115,
      "ناف": 4116,
      "القوى": 4117,
      "درين": 4118,
      "وفة": 4119,
      "قيادة": 4120,
      "جاح": 4121,
      "جلات": 4122,
      "أصغر": 4123,
      "افتتاح": 4124,
      "رسمية": 4125,
      "هة": 4126,
      "الواحد": 4127,
      "المرض": 4128,
      "النقاط": 4129,
      "هيكل": 4130,
      "الديمقرا": 4131,
      "إث": 4132,
      "سور": 4133,
      "حرية": 4134,
      "ثين": 4135,
      "سبي": 4136,
      "هية": 4137,
      "ولى": 4138,
      "واص": 4139,
      "الفائ": 4140,
      "عضو": 4141,
      "تستعمل": 4142,
      "ثي": 4143,
      "صع": 4144,
      "طف": 4145,
      "مربع": 4146,
      "الموض": 4147,
      "برغ": 4148,
      "معهد": 4149,
      "النظم": 4150,
      "مستقلة": 4151,
      "يزيد": 4152,
      "المغولي": 4153,
      "نجاح": 4154,
      "توس": 4155,
      "درا": 4156,
      "لوس": 4157,
      "لأنها": 4158,
      "الإقلي": 4159,
      "يقرب": 4160,
      "زرق": 4161,
      "طالب": 4162,
      "مدرسة": 4163,
      "وله": 4164,
      "واي": 4165,
      "البسي": 4166,
      "والمع": 4167,
      "واحدا": 4168,
      "وتيوب": 4169,
      "غانستان": 4170,
      "33": 4171,
      "بهم": 4172,
      "جسم": 4173,
      "حديث": 4174,
      "اتفا": 4175,
      "النهر": 4176,
      "النمط": 4177,
      "درج": 4178,
      "لتش": 4179,
      "بحر": 4180,
      "الضر": 4181,
      "المؤلف": 4182,
      "الميلادي": 4183,
      "الأشكال": 4184,
      "الإمارات": 4185,
      "استمرار": 4186,
      "المنطقية": 4187,
      "يورو": 4188,
      "المغناطيسي": 4189,
      "رأ": 4190,
      "لذا": 4191,
      "العق": 4192,
      "يلون": 4193,
      "انيون": 4194,
      "اصر": 4195,
      "هدفين": 4196,
      "المركزية": 4197,
      "99": 4198,
      "المعم": 4199,
      "الأيو": 4200,
      "الأوسط": 4201,
      "وادي": 4202,
      "تحوي": 4203,
      "خصيص": 4204,
      "اسمها": 4205,
      "فضلا": 4206,
      "شخصية": 4207,
      "المفر": 4208,
      "الكود": 4209,
      "لته": 4210,
      "++": 4211,
      "تصدر": 4212,
      "ولايات": 4213,
      "pt": 4214,
      "أولا": 4215,
      "ففي": 4216,
      "الأسبوع": 4217,
      "ولو": 4218,
      "عنى": 4219,
      "طورت": 4220,
      "صفات": 4221,
      "قرص": 4222,
      "رئيسية": 4223,
      "آنذاك": 4224,
      "كولوم": 4225,
      "هلك": 4226,
      "الأع": 4227,
      "والاست": 4228,
      "افا": 4229,
      "يعيش": 4230,
      "بحيرة": 4231,
      "وسيع": 4232,
      "دخول": 4233,
      "وطة": 4234,
      "المنظمة": 4235,
      "المشاركة": 4236,
      "بري": 4237,
      "العقد": 4238,
      "وأجهزة": 4239,
      "1992": 4240,
      "الكاميرا": 4241,
      "الأكاديمية": 4242,
      "التفاعل": 4243,
      "اللجنة": 4244,
      "of": 4245,
      "أسبوع": 4246,
      "مئوية": 4247,
      "وعند": 4248,
      "ولين": 4249,
      "ماث": 4250,
      "واب": 4251,
      "أولى": 4252,
      "خطاء": 4253,
      "رائط": 4254,
      "دن": 4255,
      "زالة": 4256,
      "وادم": 4257,
      "السلاح": 4258,
      "الرابعة": 4259,
      "تقلي": 4260,
      "طرنج": 4261,
      "تفع": 4262,
      "لتحديد": 4263,
      "هؤلاء": 4264,
      "الفنية": 4265,
      "1991": 4266,
      "شبكات": 4267,
      "المنتج": 4268,
      "استخدمت": 4269,
      "المسيحية": 4270,
      "فاءة": 4271,
      "رئي": 4272,
      "المجا": 4273,
      "الملح": 4274,
      "الرئ": 4275,
      "متنوعة": 4276,
      "سلحة": 4277,
      "وضعت": 4278,
      "فورنيا": 4279,
      "الرومانية": 4280,
      "الوحيد": 4281,
      "روس": 4282,
      "غري": 4283,
      "البوسنة": 4284,
      "مايكل": 4285,
      "القياسي": 4286,
      "تحرير": 4287,
      "هزيمة": 4288,
      "بهذه": 4289,
      "ريال": 4290,
      "الحين": 4291,
      "ويعتبر": 4292,
      "استطاع": 4293,
      "بعدها": 4294,
      "نظر": 4295,
      "الموافق": 4296,
      "الخامسة": 4297,
      "الأصلية": 4298,
      "توفير": 4299,
      "58": 4300,
      "توم": 4301,
      "طويل": 4302,
      "وبذلك": 4303,
      "القيم": 4304,
      "السعودي": 4305,
      "الإنجليزي": 4306,
      "الاقتصاد": 4307,
      "شهدت": 4308,
      "حقي": 4309,
      "الأعلى": 4310,
      "لاج": 4311,
      "برز": 4312,
      "للغة": 4313,
      "ناث": 4314,
      "قطر": 4315,
      "المنافس": 4316,
      "المتعلقة": 4317,
      "توق": 4318,
      "تسمية": 4319,
      "ثنائية": 4320,
      "شد": 4321,
      "كاري": 4322,
      "هنة": 4323,
      "الصد": 4324,
      "اللاس": 4325,
      "نسمة": 4326,
      "زامن": 4327,
      "ماعيل": 4328,
      "كاليفورنيا": 4329,
      "AT": 4330,
      "ag": 4331,
      "أه": 4332,
      "كاف": 4333,
      "الجدول": 4334,
      "ودر": 4335,
      "الشاب": 4336,
      "مانشستر": 4337,
      "للمستخدمين": 4338,
      "IS": 4339,
      "الحقيقة": 4340,
      "متصفح": 4341,
      "تدعى": 4342,
      "الألمانية": 4343,
      "الحاجة": 4344,
      "الكلاسي": 4345,
      "طع": 4346,
      "عق": 4347,
      "لخ": 4348,
      "النت": 4349,
      "الثمان": 4350,
      "كيف": 4351,
      "صفة": 4352,
      "الفيزيا": 4353,
      "وشوب": 4354,
      "قادرة": 4355,
      "المعالجة": 4356,
      "بكثير": 4357,
      "سه": 4358,
      "سليم": 4359,
      "الواق": 4360,
      "المفاتيح": 4361,
      "بريد": 4362,
      "سيكون": 4363,
      "شرطة": 4364,
      "الكتب": 4365,
      "يتطلب": 4366,
      "ضعف": 4367,
      "كايبا": 4368,
      "جلة": 4369,
      "يختلف": 4370,
      "المحد": 4371,
      "ناحية": 4372,
      "جزيرة": 4373,
      "المصورة": 4374,
      "البطولات": 4375,
      "الموص": 4376,
      "التعامل": 4377,
      "وتص": 4378,
      "الباح": 4379,
      "رفع": 4380,
      "إمبراطورية": 4381,
      "الجامعة": 4382,
      "ثنائي": 4383,
      "فقة": 4384,
      "لوح": 4385,
      "نو": 4386,
      "نور": 4387,
      "منصب": 4388,
      "أنا": 4389,
      "وجات": 4390,
      "كتبت": 4391,
      "المتوسط": 4392,
      "بحسب": 4393,
      "سابقة": 4394,
      "النظرية": 4395,
      "مؤشر": 4396,
      "العمومية": 4397,
      "المعادلات": 4398,
      "حرف": 4399,
      "حزمة": 4400,
      "رؤ": 4401,
      "بيبرس": 4402,
      "شرف": 4403,
      "بلور": 4404,
      "جاكسون": 4405,
      "المعار": 4406,
      "رقية": 4407,
      "الأسنان": 4408,
      "بهة": 4409,
      "الحقيقي": 4410,
      "زع": 4411,
      "ظهار": 4412,
      "مول": 4413,
      "يغ": 4414,
      "الأوتار": 4415,
      "الروسية": 4416,
      "تجري": 4417,
      "لديهم": 4418,
      "هايد": 4419,
      "معايير": 4420,
      "عنصر": 4421,
      "ملوك": 4422,
      "فاير": 4423,
      "تصر": 4424,
      "والأجهزة": 4425,
      "الدراسات": 4426,
      "الزاوية": 4427,
      "48": 4428,
      "od": 4429,
      "أراضي": 4430,
      "أفريقيا": 4431,
      "ضلية": 4432,
      "نب": 4433,
      "المخرج": 4434,
      "اريا": 4435,
      "ماكن": 4436,
      "واهر": 4437,
      "المتعددة": 4438,
      "يوغي": 4439,
      "يفية": 4440,
      "عينات": 4441,
      "يحتاج": 4442,
      "حكومة": 4443,
      "منصة": 4444,
      "التطوير": 4445,
      "لووس": 4446,
      "الآخرين": 4447,
      "نجاحا": 4448,
      "القطع": 4449,
      "مباريات": 4450,
      "36": 4451,
      "ter": 4452,
      "أبي": 4453,
      "لوم": 4454,
      "المبيض": 4455,
      "تصنيع": 4456,
      "الأشياء": 4457,
      "أصدرت": 4458,
      "أرقام": 4459,
      "أفراد": 4460,
      "تابعة": 4461,
      "ذت": 4462,
      "شفت": 4463,
      "لور": 4464,
      "ارع": 4465,
      "تمال": 4466,
      "وبل": 4467,
      "خلص": 4468,
      "وأخ": 4469,
      "وفير": 4470,
      "كيفية": 4471,
      "الأصوات": 4472,
      "تنظيم": 4473,
      "ارى": 4474,
      "القتال": 4475,
      "الذاتي": 4476,
      "وعادة": 4477,
      "الثنائي": 4478,
      "سلوك": 4479,
      "عمله": 4480,
      "المشترك": 4481,
      "وافذ": 4482,
      "ab": 4483,
      "كوين": 4484,
      "كافة": 4485,
      "مزي": 4486,
      "ملف": 4487,
      "درات": 4488,
      "مجد": 4489,
      "فورد": 4490,
      "جمعية": 4491,
      "المعادلة": 4492,
      "ir": 4493,
      "أحدث": 4494,
      "تكنولوجيا": 4495,
      "تؤدي": 4496,
      "دائرة": 4497,
      "الأجسام": 4498,
      "التل": 4499,
      "التابعة": 4500,
      "هاجر": 4501,
      "وبوت": 4502,
      "الإجمالي": 4503,
      "استبد": 4504,
      "الرؤية": 4505,
      "المجالات": 4506,
      "مارك": 4507,
      "اليابانية": 4508,
      "افي": 4509,
      "الوحدة": 4510,
      "العادية": 4511,
      "الإحص": 4512,
      "نسبيا": 4513,
      "الضغط": 4514,
      "زايا": 4515,
      "أساسا": 4516,
      "اليونانية": 4517,
      "جيد": 4518,
      "حمد": 4519,
      "سكا": 4520,
      "الأعضاء": 4521,
      "وسر": 4522,
      "الرأس": 4523,
      "يدعى": 4524,
      "الغذ": 4525,
      "الأساس": 4526,
      "ive": 4527,
      "خب": 4528,
      "ضبط": 4529,
      "ادرة": 4530,
      "السبع": 4531,
      "الأساليب": 4532,
      "وجدت": 4533,
      "تتمتع": 4534,
      ".»": 4535,
      "آل": 4536,
      "ثالث": 4537,
      "قرة": 4538,
      "مهرجان": 4539,
      "’’": 4540,
      "أيوب": 4541,
      "جرى": 4542,
      "ظرية": 4543,
      "ماكس": 4544,
      "قبال": 4545,
      "إسماعيل": 4546,
      "الإيطالي": 4547,
      "العثور": 4548,
      "الفلك": 4549,
      "متها": 4550,
      "أطفال": 4551,
      "ولوجية": 4552,
      "علامة": 4553,
      "الاقتصادي": 4554,
      "Te": 4555,
      "ذور": 4556,
      "قوات": 4557,
      "مشاركة": 4558,
      "هتمام": 4559,
      "الأبحاث": 4560,
      "ماغ": 4561,
      "عليهم": 4562,
      "يشن": 4563,
      "المحا": 4564,
      "قامة": 4565,
      "اهدة": 4566,
      "التنفيذ": 4567,
      "دورة": 4568,
      "مخطط": 4569,
      "تتطلب": 4570,
      "تجمع": 4571,
      "راغيف": 4572,
      "75": 4573,
      "تكتب": 4574,
      "جير": 4575,
      "نواة": 4576,
      "الوضع": 4577,
      "النفس": 4578,
      "البالغ": 4579,
      "الخارجي": 4580,
      "المجري": 4581,
      "مشاكل": 4582,
      "ad": 4583,
      "كك": 4584,
      "الما": 4585,
      "ولذلك": 4586,
      "الكاث": 4587,
      "الاستقلال": 4588,
      "التنفيذي": 4589,
      "الكهرباء": 4590,
      "مشاهدة": 4591,
      "IP": 4592,
      "أداة": 4593,
      "تهر": 4594,
      "تسبب": 4595,
      "ممكن": 4596,
      "وقات": 4597,
      "استعمال": 4598,
      "الدوائر": 4599,
      "فاعل": 4600,
      "دارية": 4601,
      "1960": 4602,
      "آثار": 4603,
      "ذربي": 4604,
      "رجل": 4605,
      "صيل": 4606,
      "نك": 4607,
      "‘‘": 4608,
      "التدري": 4609,
      "برات": 4610,
      "ابط": 4611,
      "لتطوير": 4612,
      "والمن": 4613,
      "لندا": 4614,
      "وافقة": 4615,
      "مكونات": 4616,
      "الأربعة": 4617,
      "حدي": 4618,
      "لبعض": 4619,
      "المهام": 4620,
      "منط": 4621,
      "للط": 4622,
      "معها": 4623,
      "وقام": 4624,
      "الغلاف": 4625,
      "خطر": 4626,
      "مسألة": 4627,
      "والعشرين": 4628,
      "الطبيعي": 4629,
      "المشاكل": 4630,
      "معادلة": 4631,
      "الخلافة": 4632,
      "جدول": 4633,
      "خوارزم": 4634,
      "ذية": 4635,
      "وويندوز": 4636,
      "يوتيوب": 4637,
      "اتيج": 4638,
      "ونا": 4639,
      "مدريد": 4640,
      "مستويات": 4641,
      "رسالة": 4642,
      "المصدرية": 4643,
      "بالأ": 4644,
      "حياة": 4645,
      "يشكل": 4646,
      "الحق": 4647,
      "اءات": 4648,
      "ندن": 4649,
      "خطوطات": 4650,
      "راقبة": 4651,
      "الثقافة": 4652,
      "37": 4653,
      "98": 4654,
      "th": 4655,
      "ومؤ": 4656,
      "مدار": 4657,
      "الانحراف": 4658,
      "السياسي": 4659,
      "رسمي": 4660,
      "حسن": 4661,
      "زيد": 4662,
      "كشف": 4663,
      "مهند": 4664,
      "يان": 4665,
      "يساوي": 4666,
      "الوسائط": 4667,
      "الإطلاق": 4668,
      "درك": 4669,
      "كرو": 4670,
      "1993": 4671,
      "اليومية": 4672,
      "انتقل": 4673,
      "آلاف": 4674,
      "تعبير": 4675,
      "كرر": 4676,
      "تخزين": 4677,
      "المؤرخ": 4678,
      "الطبيعة": 4679,
      "الاشترا": 4680,
      "300": 4681,
      "زرا": 4682,
      "يبدو": 4683,
      "وتحت": 4684,
      "مرق": 4685,
      "بنظام": 4686,
      "تبدأ": 4687,
      "نه": 4688,
      "سيق": 4689,
      "الجيل": 4690,
      "الجيب": 4691,
      "ساعات": 4692,
      "طبيعة": 4693,
      "رائد": 4694,
      "تتميز": 4695,
      "صحيفة": 4696,
      "97": 4697,
      "HD": 4698,
      "ver": 4699,
      "دارة": 4700,
      "يتعلق": 4701,
      "المصن": 4702,
      "التقنيات": 4703,
      "المنتجات": 4704,
      "إضافية": 4705,
      "الأجنبية": 4706,
      "أهداف": 4707,
      "والعديد": 4708,
      "التنا": 4709,
      "وتشمل": 4710,
      "يمتلك": 4711,
      "الطيران": 4712,
      "الغالب": 4713,
      "المغرب": 4714,
      "هندية": 4715,
      "عرفت": 4716,
      "أقيم": 4717,
      "خمة": 4718,
      "قلب": 4719,
      "نفيذ": 4720,
      "العالية": 4721,
      "وايا": 4722,
      "تعليم": 4723,
      "برمجية": 4724,
      "دخلت": 4725,
      "روبر": 4726,
      "شعر": 4727,
      "التوق": 4728,
      "الرسم": 4729,
      "وكأس": 4730,
      "كاثر": 4731,
      "يشمل": 4732,
      "رياضيات": 4733,
      "السريع": 4734,
      "مهم": 4735,
      "يبدأ": 4736,
      "المقد": 4737,
      "الكلي": 4738,
      "ميكاني": 4739,
      "يلعب": 4740,
      "سبعة": 4741,
      "المنز": 4742,
      "أقرب": 4743,
      "ملاحظ": 4744,
      "يدا": 4745,
      "ورت": 4746,
      "ديق": 4747,
      "وفق": 4748,
      "زايد": 4749,
      "أثينا": 4750,
      "الخطوط": 4751,
      "استمرت": 4752,
      "معروفة": 4753,
      "صمم": 4754,
      "طيات": 4755,
      "منفردة": 4756,
      "ديات": 4757,
      "ستيف": 4758,
      "افظة": 4759,
      "يوش": 4760,
      "البيانو": 4761,
      "البريطاني": 4762,
      "واضحة": 4763,
      "المباشر": 4764,
      "43": 4765,
      "أقصى": 4766,
      "ثات": 4767,
      "ضو": 4768,
      "مادة": 4769,
      "العظ": 4770,
      "بيوتر": 4771,
      "والهندسة": 4772,
      "الفني": 4773,
      "وأر": 4774,
      "الفرقة": 4775,
      "مباشر": 4776,
      "id": 4777,
      "حاب": 4778,
      "كزي": 4779,
      "كلمات": 4780,
      "لأكثر": 4781,
      "قطعة": 4782,
      "جلال": 4783,
      "طورين": 4784,
      "1985": 4785,
      "AN": 4786,
      "The": 4787,
      "العراق": 4788,
      "الإعلان": 4789,
      "الكات": 4790,
      "يعطي": 4791,
      "رقمي": 4792,
      "والتص": 4793,
      "التحديث": 4794,
      "يحصل": 4795,
      "المشتركة": 4796,
      "عالميا": 4797,
      "التاريخية": 4798,
      "تجاوز": 4799,
      "حماية": 4800,
      "ده": 4801,
      "المظ": 4802,
      "التلفزيون": 4803,
      "ادثة": 4804,
      "ومت": 4805,
      "الجلد": 4806,
      "زيئات": 4807,
      "وانب": 4808,
      "آخرين": 4809,
      "حاول": 4810,
      "الدراسة": 4811,
      "الشيفرة": 4812,
      "ستاذ": 4813,
      "خريطة": 4814,
      "op": 4815,
      "تيم": 4816,
      "فيل": 4817,
      "منتخب": 4818,
      "ائيا": 4819,
      "اللغ": 4820,
      "مستقل": 4821,
      "180": 4822,
      "سيسكو": 4823,
      "هايدغر": 4824,
      "بالفوز": 4825,
      "فيزياء": 4826,
      "وتسمى": 4827,
      "تركي": 4828,
      "وجبة": 4829,
      "فوزه": 4830,
      "إسبانيا": 4831,
      "بلورر": 4832,
      "ect": 4833,
      "جهد": 4834,
      "حزم": 4835,
      "التوزيع": 4836,
      "هاجم": 4837,
      "والذ": 4838,
      "الإذا": 4839,
      "وسطة": 4840,
      "حيل": 4841,
      "حلقة": 4842,
      "الشمالي": 4843,
      "51": 4844,
      "ul": 4845,
      "تلي": 4846,
      "شراء": 4847,
      "نماذج": 4848,
      "ونها": 4849,
      "ويستخدم": 4850,
      "القوانين": 4851,
      "النمل": 4852,
      "وعية": 4853,
      "كونه": 4854,
      "النساء": 4855,
      "ard": 4856,
      "المقاومة": 4857,
      "أخر": 4858,
      "بالس": 4859,
      "موت": 4860,
      "اتهم": 4861,
      "وفا": 4862,
      "مشتركة": 4863,
      "تطورت": 4864,
      "أسرع": 4865,
      "سقوط": 4866,
      "عش": 4867,
      "مفا": 4868,
      "الأمثلة": 4869,
      "لمس": 4870,
      "كلية": 4871,
      "حرز": 4872,
      "المزيد": 4873,
      "رئيسا": 4874,
      "34": 4875,
      "إيجاد": 4876,
      "اتجاه": 4877,
      "لاط": 4878,
      "للاستخدام": 4879,
      "للعمل": 4880,
      "كانون": 4881,
      "الدستور": 4882,
      "وأم": 4883,
      "تجميع": 4884,
      "تدخل": 4885,
      "حينها": 4886,
      "محدد": 4887,
      "موسيقية": 4888,
      "عائ": 4889,
      "فنان": 4890,
      "لندن": 4891,
      "نشاط": 4892,
      "يخت": 4893,
      "للأندية": 4894,
      "ويكون": 4895,
      "البراز": 4896,
      "خطيط": 4897,
      "الأرضية": 4898,
      "التقليدي": 4899,
      "افتراضية": 4900,
      "ؤها": 4901,
      "سوني": 4902,
      "برية": 4903,
      "بينهما": 4904,
      "أسوان": 4905,
      "وانته": 4906,
      "رياضية": 4907,
      "ذاته": 4908,
      "الأوردية": 4909,
      "احتلت": 4910,
      "بالاند": 4911,
      "MP": 4912,
      "باء": 4913,
      "روان": 4914,
      "رؤية": 4915,
      "الوث": 4916,
      "منز": 4917,
      "سيطرة": 4918,
      "ترض": 4919,
      "حرر": 4920,
      "والتق": 4921,
      "القياس": 4922,
      "تفاعل": 4923,
      "اجتماعية": 4924,
      "OS": 4925,
      "بذ": 4926,
      "تفسير": 4927,
      "لإنشاء": 4928,
      "والط": 4929,
      "الجوائز": 4930,
      "افع": 4931,
      "أشعة": 4932,
      "القياسية": 4933,
      "1970": 4934,
      "الأحياء": 4935,
      "امتداد": 4936,
      "الضوئي": 4937,
      "تثبيت": 4938,
      "1000": 4939,
      "li": 4940,
      "ثبت": 4941,
      "روت": 4942,
      "زالت": 4943,
      "سو": 4944,
      "ساء": 4945,
      "يرجع": 4946,
      "ناج": 4947,
      "النقاد": 4948,
      "كتشاف": 4949,
      "لتس": 4950,
      "جمهور": 4951,
      "السلوك": 4952,
      "ضافت": 4953,
      "الروماني": 4954,
      "واضح": 4955,
      "MA": 4956,
      "قوانين": 4957,
      "هاري": 4958,
      "ييس": 4959,
      "الهواتف": 4960,
      "فيف": 4961,
      "الجنسية": 4962,
      "وسلسلة": 4963,
      "الكامل": 4964,
      "الطباعة": 4965,
      "أمم": 4966,
      "تجارية": 4967,
      "ومنذ": 4968,
      "1980": 4969,
      "قليلا": 4970,
      "بدي": 4971,
      "رال": 4972,
      "زيل": 4973,
      "فز": 4974,
      "المقاط": 4975,
      "المبرمج": 4976,
      "التد": 4977,
      "أنشئ": 4978,
      "الشه": 4979,
      "بعضهم": 4980,
      "أمين": 4981,
      "إكسبلورر": 4982,
      "غنية": 4983,
      "لص": 4984,
      "املة": 4985,
      "ربما": 4986,
      "باق": 4987,
      "لفظ": 4988,
      "موضع": 4989,
      "يوما": 4990,
      "تتبع": 4991,
      "فضاء": 4992,
      "التركيز": 4993,
      "لينيوم": 4994,
      "عالمية": 4995,
      "اللاسلكية": 4996,
      "أسا": 4997,
      "كد": 4998,
      "يوني": 4999
    },
    "merges": [
      [
        "ا",
        "ل"
      ],
      [
        "ي",
        "ة"
      ],
      [
        "ف",
        "ي"
      ],
      [
        "ال",
        "م"
      ],
      [
        "ا",
        "ت"
      ],
      [
        "م",
        "ن"
      ],
      [
        "ا",
        "ن"
      ],
      [
        "ي",
        "ن"
      ],
      [
        "ا",
        "ر"
      ],
      [
        "ا",
        "م"
      ],
      [
        "ل",
        "ى"
      ],
      [
        "ال",
        "أ"
      ],
      [
        "ال",
        "ت"
      ],
      [
        "و",
        "ل"
      ],
      [
        "ه",
        "ا"
      ],
      [
        "م",
        "ا"
      ],
      [
        "و",
        "ن"
      ],
      [
        "ي",
        "ر"
      ],
      [
        "ا",
        "س"
      ],
      [
        "و",
        "ر"
      ],
      [
        "ل",
        "ا"
      ],
      [
        "ب",
        "ر"
      ],
      [
        "ال",
        "ع"
      ],
      [
        "ع",
        "لى"
      ],
      [
        "ل",
        "ي"
      ],
      [
        "د",
        "ي"
      ],
      [
        "و",
        "ا"
      ],
      [
        "أ",
        "ن"
      ],
      [
        "ر",
        "ي"
      ],
      [
        "ب",
        "ي"
      ],
      [
        "و",
        "ال"
      ],
      [
        "ل",
        "ل"
      ],
      [
        "م",
        "ع"
      ],
      [
        "ا",
        "ب"
      ],
      [
        "س",
        "ت"
      ],
      [
        "ا",
        "د"
      ],
      [
        "ل",
        "ك"
      ],
      [
        "و",
        "م"
      ],
      [
        "ع",
        "د"
      ],
      [
        "ال",
        "ح"
      ],
      [
        "و",
        "ت"
      ],
      [
        "ن",
        "ا"
      ],
      [
        "س",
        "ي"
      ],
      [
        "و",
        "ي"
      ],
      [
        "ر",
        "ا"
      ],
      [
        "إ",
        "لى"
      ],
      [
        "ت",
        "م"
      ],
      [
        "و",
        "ب"
      ],
      [
        "ك",
        "ان"
      ],
      [
        "ش",
        "ر"
      ],
      [
        "ال",
        "ق"
      ],
      [
        "ال",
        "إ"
      ],
      [
        "ي",
        "ا"
      ],
      [
        "ال",
        "ج"
      ],
      [
        "ال",
        "ن"
      ],
      [
        "ل",
        "م"
      ],
      [
        "ال",
        "س"
      ],
      [
        "ا",
        "ئ"
      ],
      [
        "ح",
        "د"
      ],
      [
        "ع",
        "ن"
      ],
      [
        "و",
        "ق"
      ],
      [
        "ت",
        "ر"
      ],
      [
        "د",
        "م"
      ],
      [
        "ال",
        "ب"
      ],
      [
        "ه",
        "ذ"
      ],
      [
        "و",
        "س"
      ],
      [
        "ال",
        "ك"
      ],
      [
        "ع",
        "ة"
      ],
      [
        "اس",
        "ت"
      ],
      [
        "ي",
        "م"
      ],
      [
        "الت",
        "ي"
      ],
      [
        "ك",
        "ل"
      ],
      [
        "أ",
        "و"
      ],
      [
        "ال",
        "ر"
      ],
      [
        "ع",
        "ام"
      ],
      [
        "و",
        "د"
      ],
      [
        "ك",
        "ن"
      ],
      [
        "ف",
        "ر"
      ],
      [
        "م",
        "ل"
      ],
      [
        "ال",
        "د"
      ],
      [
        "2",
        "0"
      ],
      [
        "ه",
        "ي"
      ],
      [
        "و",
        "ج"
      ],
      [
        "ر",
        "ب"
      ],
      [
        "ه",
        "م"
      ],
      [
        "ل",
        "ة"
      ],
      [
        "ر",
        "ة"
      ],
      [
        "ا",
        "ء"
      ],
      [
        "م",
        "ي"
      ],
      [
        "ح",
        "ت"
      ],
      [
        "ق",
        "ة"
      ],
      [
        "ح",
        "ي"
      ],
      [
        "ا",
        "ف"
      ],
      [
        "ال",
        "ش"
      ],
      [
        "1",
        "9"
      ],
      [
        "ال",
        "ف"
      ],
      [
        "ه",
        "و"
      ],
      [
        "ب",
        "ل"
      ],
      [
        "ي",
        "ل"
      ],
      [
        "ال",
        "خ"
      ],
      [
        "ت",
        "ق"
      ],
      [
        "د",
        "ر"
      ],
      [
        "م",
        "ج"
      ],
      [
        "و",
        "ف"
      ],
      [
        "ذ",
        "لك"
      ],
      [
        "س",
        "ب"
      ],
      [
        "ك",
        "ت"
      ],
      [
        "ال",
        "ذ"
      ],
      [
        "ال",
        "ص"
      ],
      [
        "و",
        "ع"
      ],
      [
        "خ",
        "ر"
      ],
      [
        "ق",
        "ي"
      ],
      [
        "ي",
        "ات"
      ],
      [
        "أ",
        "ي"
      ],
      [
        "ي",
        "ت"
      ],
      [
        "ن",
        "ت"
      ],
      [
        "ك",
        "ة"
      ],
      [
        "خ",
        "ل"
      ],
      [
        "م",
        "ة"
      ],
      [
        "و",
        "ز"
      ],
      [
        "م",
        "ت"
      ],
      [
        "د",
        "ا"
      ],
      [
        "ال",
        "ي"
      ],
      [
        "د",
        "ة"
      ],
      [
        "ب",
        "ا"
      ],
      [
        "ال",
        "ث"
      ],
      [
        "ب",
        "ين"
      ],
      [
        "م",
        "ر"
      ],
      [
        "ت",
        "ح"
      ],
      [
        "ت",
        "ع"
      ],
      [
        "خ",
        "دم"
      ],
      [
        "س",
        "م"
      ],
      [
        "هذ",
        "ه"
      ],
      [
        "ب",
        "ع"
      ],
      [
        "م",
        "ث"
      ],
      [
        "ك",
        "ون"
      ],
      [
        "ف",
        "ا"
      ],
      [
        "خ",
        "ت"
      ],
      [
        "س",
        "ا"
      ],
      [
        "إ",
        "ن"
      ],
      [
        "ه",
        "ر"
      ],
      [
        "هذ",
        "ا"
      ],
      [
        "غ",
        "ير"
      ],
      [
        "أ",
        "ك"
      ],
      [
        "أ",
        "س"
      ],
      [
        "ب",
        "عد"
      ],
      [
        "ب",
        "د"
      ],
      [
        "ل",
        "ف"
      ],
      [
        "م",
        "و"
      ],
      [
        "ق",
        "ا"
      ],
      [
        "ن",
        "ظ"
      ],
      [
        "ق",
        "د"
      ],
      [
        "ي",
        "ع"
      ],
      [
        "و",
        "ك"
      ],
      [
        "ال",
        "ط"
      ],
      [
        "ال",
        "ل"
      ],
      [
        "ل",
        "ت"
      ],
      [
        "ي",
        "د"
      ],
      [
        "ك",
        "ر"
      ],
      [
        "ل",
        "ب"
      ],
      [
        "ال",
        "بر"
      ],
      [
        "ان",
        "ي"
      ],
      [
        "الم",
        "ت"
      ],
      [
        "ث",
        "ر"
      ],
      [
        "ط",
        "ة"
      ],
      [
        "ع",
        "ل"
      ],
      [
        "ا",
        "ص"
      ],
      [
        "و",
        "أ"
      ],
      [
        "س",
        "ل"
      ],
      [
        "ع",
        "ب"
      ],
      [
        "0",
        "0"
      ],
      [
        "ار",
        "ة"
      ],
      [
        "ر",
        "ف"
      ],
      [
        "ئ",
        "ي"
      ],
      [
        "و",
        "في"
      ],
      [
        "ع",
        "م"
      ],
      [
        "ت",
        "ش"
      ],
      [
        "ت",
        "ص"
      ],
      [
        "دي",
        "د"
      ],
      [
        "و",
        "ص"
      ],
      [
        "ه",
        "د"
      ],
      [
        "حي",
        "ث"
      ],
      [
        "ال",
        "ا"
      ],
      [
        "ن",
        "ية"
      ],
      [
        "ض",
        "ا"
      ],
      [
        "ك",
        "س"
      ],
      [
        "ول",
        "ة"
      ],
      [
        "م",
        "د"
      ],
      [
        "الذ",
        "ي"
      ],
      [
        "ب",
        "ح"
      ],
      [
        "ار",
        "ي"
      ],
      [
        "مث",
        "ل"
      ],
      [
        "ك",
        "ي"
      ],
      [
        "ست",
        "خدم"
      ],
      [
        "كان",
        "ت"
      ],
      [
        "غ",
        "ة"
      ],
      [
        "ن",
        "د"
      ],
      [
        "ن",
        "ي"
      ],
      [
        "ان",
        "ية"
      ],
      [
        "ب",
        "ط"
      ],
      [
        "20",
        "0"
      ],
      [
        "د",
        "ام"
      ],
      [
        "ول",
        "ا"
      ],
      [
        "خ",
        "ص"
      ],
      [
        "ش",
        "كل"
      ],
      [
        "ج",
        "ه"
      ],
      [
        "اد",
        "ة"
      ],
      [
        "ب",
        "ة"
      ],
      [
        "ن",
        "ة"
      ],
      [
        "ام",
        "ج"
      ],
      [
        "است",
        "خ"
      ],
      [
        "ر",
        "ض"
      ],
      [
        "ب",
        "ار"
      ],
      [
        "و",
        "ح"
      ],
      [
        "ل",
        "ق"
      ],
      [
        "ق",
        "بل"
      ],
      [
        "و",
        "الم"
      ],
      [
        "ك",
        "ما"
      ],
      [
        "استخ",
        "دام"
      ],
      [
        "ي",
        "و"
      ],
      [
        "ت",
        "ي"
      ],
      [
        "ص",
        "ر"
      ],
      [
        "ال",
        "ه"
      ],
      [
        "م",
        "ح"
      ],
      [
        "ج",
        "ة"
      ],
      [
        "ق",
        "ط"
      ],
      [
        "عن",
        "د"
      ],
      [
        "ال",
        "ات"
      ],
      [
        "حد",
        "ة"
      ],
      [
        "يم",
        "كن"
      ],
      [
        "ج",
        "ا"
      ],
      [
        "20",
        "1"
      ],
      [
        "ب",
        "ن"
      ],
      [
        "ق",
        "ل"
      ],
      [
        "ع",
        "ت"
      ],
      [
        "ع",
        "لي"
      ],
      [
        "ف",
        "س"
      ],
      [
        "ري",
        "ق"
      ],
      [
        "خر",
        "ى"
      ],
      [
        "أي",
        "ضا"
      ],
      [
        "ز",
        "ة"
      ],
      [
        "ص",
        "ل"
      ],
      [
        ")",
        "،"
      ],
      [
        "شر",
        "كة"
      ],
      [
        "ك",
        "م"
      ],
      [
        "ز",
        "ي"
      ],
      [
        "ير",
        "ة"
      ],
      [
        "خل",
        "ال"
      ],
      [
        "ج",
        "ل"
      ],
      [
        "الم",
        "ع"
      ],
      [
        "اس",
        "م"
      ],
      [
        "بع",
        "ض"
      ],
      [
        "ث",
        "م"
      ],
      [
        "ر",
        "ق"
      ],
      [
        "ال",
        "ية"
      ],
      [
        "ي",
        "ف"
      ],
      [
        "د",
        "ار"
      ],
      [
        "ن",
        "س"
      ],
      [
        "و",
        "ط"
      ],
      [
        "ال",
        "غ"
      ],
      [
        "ب",
        "ت"
      ],
      [
        "و",
        "ض"
      ],
      [
        "و",
        "سي"
      ],
      [
        "الع",
        "الم"
      ],
      [
        "س",
        "ة"
      ],
      [
        "و",
        "ين"
      ],
      [
        "ك",
        "ا"
      ],
      [
        "و",
        "ات"
      ],
      [
        "أ",
        "ول"
      ],
      [
        "ح",
        "ر"
      ],
      [
        "و",
        "ان"
      ],
      [
        "و",
        "الت"
      ],
      [
        "ج",
        "م"
      ],
      [
        "الم",
        "ر"
      ],
      [
        "و",
        "ية"
      ],
      [
        ")",
        "."
      ],
      [
        "ا",
        "ق"
      ],
      [
        "ط",
        "ور"
      ],
      [
        "اف",
        "ة"
      ],
      [
        "ذ",
        "ا"
      ],
      [
        "أك",
        "ثر"
      ],
      [
        "و",
        "ير"
      ],
      [
        "خ",
        "ط"
      ],
      [
        "ت",
        "ه"
      ],
      [
        "الم",
        "ن"
      ],
      [
        "ا",
        "ج"
      ],
      [
        "ح",
        "ة"
      ],
      [
        "ش",
        "ا"
      ],
      [
        "م",
        "س"
      ],
      [
        "عد",
        "د"
      ],
      [
        "ال",
        "ة"
      ],
      [
        "ع",
        "مل"
      ],
      [
        "ي",
        "ق"
      ],
      [
        "ت",
        "ت"
      ],
      [
        "ج",
        "ن"
      ],
      [
        "ور",
        "ي"
      ],
      [
        "م",
        "ية"
      ],
      [
        "الأ",
        "م"
      ],
      [
        "ا",
        "ض"
      ],
      [
        "ي",
        "ش"
      ],
      [
        "ك",
        "ب"
      ],
      [
        "ف",
        "ض"
      ],
      [
        "أ",
        "م"
      ],
      [
        "نظ",
        "ام"
      ],
      [
        "أ",
        "ص"
      ],
      [
        "م",
        "ست"
      ],
      [
        "الم",
        "ج"
      ],
      [
        "ال",
        "آ"
      ],
      [
        "ع",
        "ية"
      ],
      [
        "ل",
        "ات"
      ],
      [
        "أن",
        "ه"
      ],
      [
        "ال",
        "بي"
      ],
      [
        "حت",
        "ى"
      ],
      [
        "ث",
        "ير"
      ],
      [
        "و",
        "اس"
      ],
      [
        "ت",
        "ج"
      ],
      [
        "ع",
        "ي"
      ],
      [
        "و",
        "هي"
      ],
      [
        "الق",
        "ر"
      ],
      [
        "م",
        "ق"
      ],
      [
        "ع",
        "ا"
      ],
      [
        "وق",
        "ت"
      ],
      [
        "ور",
        "ة"
      ],
      [
        "ال",
        "ز"
      ],
      [
        "الأ",
        "س"
      ],
      [
        "ه",
        "لي"
      ],
      [
        "و",
        "من"
      ],
      [
        "ف",
        "ل"
      ],
      [
        "ف",
        "ت"
      ],
      [
        "ي",
        "تم"
      ],
      [
        "ج",
        "ز"
      ],
      [
        "ال",
        "ض"
      ],
      [
        "ول",
        "كن"
      ],
      [
        "ان",
        "ات"
      ],
      [
        "ين",
        "ة"
      ],
      [
        "و",
        "هو"
      ],
      [
        "ب",
        "ه"
      ],
      [
        "رب",
        "ية"
      ],
      [
        "ت",
        "ن"
      ],
      [
        "ق",
        "ية"
      ],
      [
        "ص",
        "دار"
      ],
      [
        "الم",
        "ح"
      ],
      [
        "ك",
        "ية"
      ],
      [
        "ث",
        "ة"
      ],
      [
        "خت",
        "لف"
      ],
      [
        "الأ",
        "ول"
      ],
      [
        "نا",
        "ء"
      ],
      [
        "ن",
        "امج"
      ],
      [
        "ط",
        "بي"
      ],
      [
        "ص",
        "ف"
      ],
      [
        "ب",
        "شكل"
      ],
      [
        "و",
        "ار"
      ],
      [
        "أ",
        "غ"
      ],
      [
        "الع",
        "ديد"
      ],
      [
        "ك",
        "ز"
      ],
      [
        "ون",
        "ي"
      ],
      [
        "را",
        "ء"
      ],
      [
        "مي",
        "ع"
      ],
      [
        "د",
        "ية"
      ],
      [
        "ت",
        "د"
      ],
      [
        "ا",
        "ح"
      ],
      [
        "ق",
        "ات"
      ],
      [
        "ل",
        "ه"
      ],
      [
        "الأ",
        "هلي"
      ],
      [
        "س",
        "ن"
      ],
      [
        "ار",
        "ات"
      ],
      [
        "ك",
        "ات"
      ],
      [
        "و",
        "التي"
      ],
      [
        "الم",
        "ص"
      ],
      [
        "و",
        "ى"
      ],
      [
        "وق",
        "د"
      ],
      [
        "ال",
        "في"
      ],
      [
        "م",
        "لي"
      ],
      [
        "ت",
        "ها"
      ],
      [
        "لا",
        "ح"
      ],
      [
        "ج",
        "ي"
      ],
      [
        "ئ",
        "ة"
      ],
      [
        "ن",
        "فس"
      ],
      [
        "ه",
        "نا"
      ],
      [
        "ي",
        "ط"
      ],
      [
        "عد",
        "ة"
      ],
      [
        "ظ",
        "هر"
      ],
      [
        "س",
        "ر"
      ],
      [
        "ئ",
        "ية"
      ],
      [
        "ال",
        "فر"
      ],
      [
        "ق",
        "ر"
      ],
      [
        "مو",
        "عة"
      ],
      [
        "الع",
        "ام"
      ],
      [
        "ف",
        "ة"
      ],
      [
        "الم",
        "ست"
      ],
      [
        "ت",
        "حت"
      ],
      [
        "ي",
        "ز"
      ],
      [
        "ل",
        "ح"
      ],
      [
        "اري",
        "خ"
      ],
      [
        "الإ",
        "ن"
      ],
      [
        "لل",
        "م"
      ],
      [
        "س",
        "اب"
      ],
      [
        "ظ",
        "م"
      ],
      [
        "لا",
        "د"
      ],
      [
        "ي",
        "س"
      ],
      [
        "19",
        "9"
      ],
      [
        "و",
        "الأ"
      ],
      [
        "ط",
        "ر"
      ],
      [
        "ض",
        "افة"
      ],
      [
        "ف",
        "إن"
      ],
      [
        "ن",
        "ها"
      ],
      [
        "أ",
        "خرى"
      ],
      [
        "وين",
        "د"
      ],
      [
        "د",
        "ول"
      ],
      [
        "ويند",
        "وز"
      ],
      [
        "ت",
        "و"
      ],
      [
        "بد",
        "أ"
      ],
      [
        "ش",
        "ار"
      ],
      [
        "عند",
        "ما"
      ],
      [
        "أ",
        "د"
      ],
      [
        "بر",
        "ا"
      ],
      [
        "ي",
        "ج"
      ],
      [
        "ه",
        "ور"
      ],
      [
        "ج",
        "ميع"
      ],
      [
        "هنا",
        "ك"
      ],
      [
        "ع",
        "ات"
      ],
      [
        "الم",
        "د"
      ],
      [
        "ل",
        "ها"
      ],
      [
        "ز",
        "ا"
      ],
      [
        "القر",
        "ن"
      ],
      [
        "كت",
        "ب"
      ],
      [
        "أن",
        "ها"
      ],
      [
        "ل",
        "ية"
      ],
      [
        "ق",
        "ام"
      ],
      [
        "الم",
        "غ"
      ],
      [
        "ري",
        "اض"
      ],
      [
        "اب",
        "ة"
      ],
      [
        "ذ",
        "ي"
      ],
      [
        "ل",
        "س"
      ],
      [
        "اص",
        "ة"
      ],
      [
        "ر",
        "ية"
      ],
      [
        "ع",
        "ادة"
      ],
      [
        "ع",
        "شر"
      ],
      [
        "الت",
        "ر"
      ],
      [
        "ف",
        "ق"
      ],
      [
        "ال",
        "ان"
      ],
      [
        "جه",
        "زة"
      ],
      [
        "ت",
        "س"
      ],
      [
        "ال",
        "سي"
      ],
      [
        "ا",
        "ث"
      ],
      [
        "ال",
        "نا"
      ],
      [
        "إ",
        "م"
      ],
      [
        "ب",
        "ها"
      ],
      [
        "ك",
        "رة"
      ],
      [
        "أ",
        "ر"
      ],
      [
        "ج",
        "ر"
      ],
      [
        "ئي",
        "س"
      ],
      [
        "الر",
        "ق"
      ],
      [
        "دي",
        "دة"
      ],
      [
        "ش",
        "ي"
      ],
      [
        "حد",
        "ث"
      ],
      [
        "غ",
        "م"
      ],
      [
        "ض",
        "من"
      ],
      [
        "وج",
        "ود"
      ],
      [
        "الن",
        "ظ"
      ],
      [
        "ال",
        "شر"
      ],
      [
        "ل",
        "ين"
      ],
      [
        "الت",
        "ح"
      ],
      [
        "وا",
        "ئ"
      ],
      [
        "1",
        "8"
      ],
      [
        "ع",
        "ض"
      ],
      [
        "وج",
        "د"
      ],
      [
        "ال",
        "است"
      ],
      [
        "وال",
        "ي"
      ],
      [
        "ت",
        "كون"
      ],
      [
        "ذ",
        "ات"
      ],
      [
        "ب",
        "ية"
      ],
      [
        "الع",
        "ربية"
      ],
      [
        "المت",
        "حدة"
      ],
      [
        "سب",
        "ب"
      ],
      [
        "م",
        "ص"
      ],
      [
        "الأ",
        "و"
      ],
      [
        "الم",
        "س"
      ],
      [
        "اس",
        "وب"
      ],
      [
        "الل",
        "غة"
      ],
      [
        "م",
        "ار"
      ],
      [
        "ث",
        "لا"
      ],
      [
        "اس",
        "ي"
      ],
      [
        "ك",
        "ام"
      ],
      [
        "مج",
        "موعة"
      ],
      [
        "ي",
        "ب"
      ],
      [
        "الأ",
        "ور"
      ],
      [
        "ال",
        "ولا"
      ],
      [
        "ا",
        "خت"
      ],
      [
        "ط",
        "قة"
      ],
      [
        "ي",
        "ح"
      ],
      [
        "اس",
        "ية"
      ],
      [
        "ت",
        "ا"
      ],
      [
        "الت",
        "ق"
      ],
      [
        "e",
        "r"
      ],
      [
        "ث",
        "ل"
      ],
      [
        "و",
        "بر"
      ],
      [
        "س",
        "ط"
      ],
      [
        "و",
        "إ"
      ],
      [
        "و",
        "ش"
      ],
      [
        "غ",
        "يل"
      ],
      [
        "ول",
        "ي"
      ],
      [
        "ت",
        "لك"
      ],
      [
        "ل",
        "د"
      ],
      [
        "الح",
        "ر"
      ],
      [
        "ان",
        "ا"
      ],
      [
        "ي",
        "كون"
      ],
      [
        "ل",
        "غة"
      ],
      [
        "وا",
        "حد"
      ],
      [
        "ه",
        "ما"
      ],
      [
        "و",
        "بي"
      ],
      [
        "ك",
        "وم"
      ],
      [
        "وس",
        "ط"
      ],
      [
        "»",
        "."
      ],
      [
        "غ",
        "ر"
      ],
      [
        "ل",
        "ع"
      ],
      [
        "ط",
        "ا"
      ],
      [
        "أك",
        "بر"
      ],
      [
        "من",
        "ذ"
      ],
      [
        "ب",
        "ات"
      ],
      [
        "أ",
        "حد"
      ],
      [
        "س",
        "نة"
      ],
      [
        "را",
        "ض"
      ],
      [
        "لك",
        "تر"
      ],
      [
        "لك",
        "ن"
      ],
      [
        "1",
        "0"
      ],
      [
        "م",
        "ما"
      ],
      [
        "ع",
        "بر"
      ],
      [
        "غ",
        "ي"
      ],
      [
        "الأ",
        "خرى"
      ],
      [
        "ا",
        "ز"
      ],
      [
        "أ",
        "ش"
      ],
      [
        "آ",
        "خر"
      ],
      [
        "ق",
        "ص"
      ],
      [
        "الع",
        "مل"
      ],
      [
        "وق",
        "ع"
      ],
      [
        "بر",
        "نامج"
      ],
      [
        "ط",
        "وير"
      ],
      [
        "سب",
        "ة"
      ],
      [
        "أ",
        "ور"
      ],
      [
        "دي",
        "و"
      ],
      [
        "ت",
        "أ"
      ],
      [
        "و",
        "كان"
      ],
      [
        "اله",
        "ند"
      ],
      [
        "الأو",
        "لى"
      ],
      [
        "عم",
        "ال"
      ],
      [
        "i",
        "n"
      ],
      [
        "ق",
        "ى"
      ],
      [
        "ح",
        "ص"
      ],
      [
        "م",
        "ان"
      ],
      [
        "قا",
        "ط"
      ],
      [
        "ائ",
        "ية"
      ],
      [
        "و",
        "ث"
      ],
      [
        "ط",
        "ي"
      ],
      [
        "ك",
        "ار"
      ],
      [
        "ر",
        "س"
      ],
      [
        "ح",
        "ول"
      ],
      [
        "م",
        "ؤ"
      ],
      [
        "م",
        "ين"
      ],
      [
        "و",
        "ة"
      ],
      [
        "ف",
        "قط"
      ],
      [
        "الت",
        "ج"
      ],
      [
        "د",
        "ون"
      ],
      [
        "الس",
        "ل"
      ],
      [
        "وب",
        "ا"
      ],
      [
        "س",
        "ين"
      ],
      [
        "ح",
        "اد"
      ],
      [
        "ال",
        "رياض"
      ],
      [
        "في",
        "ها"
      ],
      [
        "نت",
        "اج"
      ],
      [
        "خ",
        "ة"
      ],
      [
        "د",
        "ل"
      ],
      [
        "وت",
        "ر"
      ],
      [
        "ح",
        "ق"
      ],
      [
        "ظ",
        "مة"
      ],
      [
        "م",
        "كن"
      ],
      [
        "تر",
        "نت"
      ],
      [
        "الج",
        "ن"
      ],
      [
        "ال",
        "وقت"
      ],
      [
        "ق",
        "يم"
      ],
      [
        "ب",
        "ما"
      ],
      [
        "بي",
        "ل"
      ],
      [
        "تر",
        "ة"
      ],
      [
        "ب",
        "الإ"
      ],
      [
        "ن",
        "ق"
      ],
      [
        "ين",
        "ي"
      ],
      [
        "الت",
        "ش"
      ],
      [
        "كب",
        "ير"
      ],
      [
        "ار",
        "ية"
      ],
      [
        "وا",
        "ق"
      ],
      [
        "البر",
        "مج"
      ],
      [
        "ط",
        "ق"
      ],
      [
        "م",
        "لك"
      ],
      [
        "1",
        "2"
      ],
      [
        "00",
        "0"
      ],
      [
        "ح",
        "ل"
      ],
      [
        "م",
        "ش"
      ],
      [
        "و",
        "مع"
      ],
      [
        "بر",
        "مج"
      ],
      [
        "فض",
        "ل"
      ],
      [
        "م",
        "رة"
      ],
      [
        "ا",
        "ة"
      ],
      [
        "وي",
        "ل"
      ],
      [
        "ف",
        "ع"
      ],
      [
        "ختلف",
        "ة"
      ],
      [
        "ق",
        "دم"
      ],
      [
        "ج",
        "ان"
      ],
      [
        "وض",
        "ع"
      ],
      [
        "ت",
        "خ"
      ],
      [
        "الت",
        "ص"
      ],
      [
        "ا",
        "ه"
      ],
      [
        "ف",
        "ريق"
      ],
      [
        "وا",
        "ع"
      ],
      [
        "ق",
        "ب"
      ],
      [
        "د",
        "ور"
      ],
      [
        "هد",
        "ف"
      ],
      [
        "ما",
        "ي"
      ],
      [
        "ان",
        "يا"
      ],
      [
        "وال",
        "ذي"
      ],
      [
        "وا",
        "جه"
      ],
      [
        "بل",
        "غ"
      ],
      [
        "و",
        "ه"
      ],
      [
        "الأ",
        "غ"
      ],
      [
        "عد",
        "اد"
      ],
      [
        "ع",
        "لم"
      ],
      [
        "م",
        "ز"
      ],
      [
        "o",
        "n"
      ],
      [
        "إ",
        "لا"
      ],
      [
        "الم",
        "ستخدم"
      ],
      [
        "اب",
        "ع"
      ],
      [
        "و",
        "ظ"
      ],
      [
        "ت",
        "ين"
      ],
      [
        "سم",
        "ى"
      ],
      [
        "ح",
        "ين"
      ],
      [
        "الم",
        "وسي"
      ],
      [
        "ح",
        "ية"
      ],
      [
        "وا",
        "حدة"
      ],
      [
        "ري",
        "قة"
      ],
      [
        "أ",
        "ما"
      ],
      [
        "19",
        "8"
      ],
      [
        "ط",
        "ريق"
      ],
      [
        "إ",
        "ذا"
      ],
      [
        "إ",
        "صدار"
      ],
      [
        "الر",
        "غم"
      ],
      [
        "مع",
        "ظم"
      ],
      [
        "الد",
        "ين"
      ],
      [
        "اس",
        "ة"
      ],
      [
        "البي",
        "انات"
      ],
      [
        "ق",
        "ائ"
      ],
      [
        "ف",
        "ية"
      ],
      [
        "م",
        "سا"
      ],
      [
        "ن",
        "وع"
      ],
      [
        "أ",
        "ط"
      ],
      [
        "ش",
        "ب"
      ],
      [
        "ي",
        "ون"
      ],
      [
        "ين",
        "ا"
      ],
      [
        "الم",
        "ؤ"
      ],
      [
        "أ",
        "ث"
      ],
      [
        "الح",
        "اسوب"
      ],
      [
        "من",
        "ها"
      ],
      [
        "ر",
        "بي"
      ],
      [
        "الم",
        "ي"
      ],
      [
        "ما",
        "ء"
      ],
      [
        "سل",
        "ام"
      ],
      [
        "ملي",
        "ون"
      ],
      [
        "الأ",
        "خ"
      ],
      [
        "لب",
        "وم"
      ],
      [
        "ون",
        "ية"
      ],
      [
        "لا",
        "ق"
      ],
      [
        "ك",
        "و"
      ],
      [
        "ح",
        "ا"
      ],
      [
        "ف",
        "ات"
      ],
      [
        "ع",
        "رض"
      ],
      [
        "ز",
        "م"
      ],
      [
        "إ",
        "ي"
      ],
      [
        "ص",
        "ة"
      ],
      [
        "ها",
        "ز"
      ],
      [
        "ر",
        "وف"
      ],
      [
        "در",
        "جة"
      ],
      [
        "لي",
        "ل"
      ],
      [
        "الذ",
        "ين"
      ],
      [
        "ت",
        "ل"
      ],
      [
        "ت",
        "بر"
      ],
      [
        "ه",
        "ل"
      ],
      [
        "الم",
        "نا"
      ],
      [
        "إ",
        "د"
      ],
      [
        "يا",
        "ء"
      ],
      [
        "ت",
        "ستخدم"
      ],
      [
        "ك",
        "ور"
      ],
      [
        "د",
        "د"
      ],
      [
        "و",
        "ذلك"
      ],
      [
        "s",
        "t"
      ],
      [
        "الولا",
        "يات"
      ],
      [
        "ف",
        "قد"
      ],
      [
        "ب",
        "سبب"
      ],
      [
        "أ",
        "خ"
      ],
      [
        "و",
        "الع"
      ],
      [
        "ت",
        "را"
      ],
      [
        "النظ",
        "ام"
      ],
      [
        "ب",
        "استخدام"
      ],
      [
        "ه",
        "ند"
      ],
      [
        "غ",
        "ات"
      ],
      [
        "ب",
        "اسم"
      ],
      [
        "ه",
        "رب"
      ],
      [
        "تم",
        "ر"
      ],
      [
        "ب",
        "ير"
      ],
      [
        "الأ",
        "ر"
      ],
      [
        "ست",
        "ان"
      ],
      [
        "الم",
        "ش"
      ],
      [
        "د",
        "و"
      ],
      [
        "ن",
        "ان"
      ],
      [
        "ي",
        "ص"
      ],
      [
        "ت",
        "ب"
      ],
      [
        "وس",
        "م"
      ],
      [
        "وج",
        "ه"
      ],
      [
        "إ",
        "س"
      ],
      [
        "را",
        "ئ"
      ],
      [
        "ط",
        "ب"
      ],
      [
        "ي",
        "ست"
      ],
      [
        "ت",
        "اريخ"
      ],
      [
        "م",
        "يم"
      ],
      [
        "فل",
        "ام"
      ],
      [
        "ج",
        "ت"
      ],
      [
        "الإ",
        "صدار"
      ],
      [
        "ح",
        "و"
      ],
      [
        "الر",
        "س"
      ],
      [
        "وف",
        "ت"
      ],
      [
        "ار",
        "ت"
      ],
      [
        "ي",
        "وم"
      ],
      [
        "في",
        "ه"
      ],
      [
        "1",
        "5"
      ],
      [
        "م",
        "ال"
      ],
      [
        "الق",
        "ي"
      ],
      [
        "الج",
        "ز"
      ],
      [
        "الت",
        "الي"
      ],
      [
        "l",
        "e"
      ],
      [
        "وب",
        "ية"
      ],
      [
        "الد",
        "ول"
      ],
      [
        "ول",
        "وج"
      ],
      [
        "الن",
        "س"
      ],
      [
        "ا",
        "ش"
      ],
      [
        "الأم",
        "ري"
      ],
      [
        "كر",
        "وس"
      ],
      [
        "فر",
        "ن"
      ],
      [
        "ود",
        "ة"
      ],
      [
        "الأ",
        "ص"
      ],
      [
        "بالإ",
        "ضافة"
      ],
      [
        "ك",
        "ري"
      ],
      [
        "م",
        "ات"
      ],
      [
        "الث",
        "اني"
      ],
      [
        "الم",
        "ث"
      ],
      [
        "»",
        "،"
      ],
      [
        "ب",
        "دا"
      ],
      [
        "ائ",
        "ل"
      ],
      [
        "a",
        "n"
      ],
      [
        "و",
        "خ"
      ],
      [
        "الأ",
        "ك"
      ],
      [
        "ض",
        "ع"
      ],
      [
        "ك",
        "أس"
      ],
      [
        "الإ",
        "لكتر"
      ],
      [
        "ل",
        "إ"
      ],
      [
        "الب",
        "لاد"
      ],
      [
        "ال",
        "وط"
      ],
      [
        "الب",
        "ا"
      ],
      [
        "ال",
        "يا"
      ],
      [
        "الأ",
        "ن"
      ],
      [
        "الب",
        "ط"
      ],
      [
        "الد",
        "ر"
      ],
      [
        "ست",
        "ر"
      ],
      [
        "ج",
        "ام"
      ],
      [
        "الم",
        "وا"
      ],
      [
        "طبي",
        "قات"
      ],
      [
        "أ",
        "ع"
      ],
      [
        "م",
        "ط"
      ],
      [
        "في",
        "ن"
      ],
      [
        "لا",
        "ف"
      ],
      [
        "مد",
        "ينة"
      ],
      [
        "كروس",
        "وفت"
      ],
      [
        "الإن",
        "ترنت"
      ],
      [
        "الس",
        "اب"
      ],
      [
        "ل",
        "أ"
      ],
      [
        "بار",
        "اة"
      ],
      [
        "جز",
        "ء"
      ],
      [
        "تم",
        "د"
      ],
      [
        "و",
        "غ"
      ],
      [
        "في",
        "لم"
      ],
      [
        "دا",
        "خل"
      ],
      [
        "ع",
        "ر"
      ],
      [
        "1",
        "4"
      ],
      [
        "ض",
        "ة"
      ],
      [
        "م",
        "صر"
      ],
      [
        "الح",
        "دي"
      ],
      [
        "ي",
        "ار"
      ],
      [
        "ل",
        "ن"
      ],
      [
        "ض",
        "م"
      ],
      [
        "ض",
        "اف"
      ],
      [
        "الع",
        "ل"
      ],
      [
        "علي",
        "ها"
      ],
      [
        "ا",
        "عت"
      ],
      [
        "قي",
        "اس"
      ],
      [
        "1",
        "7"
      ],
      [
        "19",
        "7"
      ],
      [
        "ب",
        "حت"
      ],
      [
        "ش",
        "خص"
      ],
      [
        "لل",
        "أ"
      ],
      [
        "ك",
        "ال"
      ],
      [
        "الن",
        "ها"
      ],
      [
        "ام",
        "ا"
      ],
      [
        "ار",
        "ج"
      ],
      [
        "ش",
        "اء"
      ],
      [
        "الث",
        "الث"
      ],
      [
        "إ",
        "لي"
      ],
      [
        "بين",
        "ما"
      ],
      [
        "الم",
        "لك"
      ],
      [
        "عمل",
        "ية"
      ],
      [
        "الر",
        "ئيس"
      ],
      [
        "ك",
        "ين"
      ],
      [
        "ي",
        "ستخدم"
      ],
      [
        "ير",
        "ا"
      ],
      [
        "فرن",
        "سا"
      ],
      [
        "e",
        "n"
      ],
      [
        "نت",
        "ي"
      ],
      [
        "ك",
        "ثير"
      ],
      [
        "اب",
        "ت"
      ],
      [
        "الخ",
        "ط"
      ],
      [
        "ص",
        "ور"
      ],
      [
        "ين",
        "ية"
      ],
      [
        "نا",
        "ة"
      ],
      [
        "ار",
        "س"
      ],
      [
        "ل",
        "عب"
      ],
      [
        "19",
        "6"
      ],
      [
        "الث",
        "انية"
      ],
      [
        "o",
        "r"
      ],
      [
        "ط",
        "اق"
      ],
      [
        "لم",
        "ة"
      ],
      [
        "الأ",
        "ش"
      ],
      [
        "ب",
        "م"
      ],
      [
        "الخ",
        "اصة"
      ],
      [
        "ز",
        "ية"
      ],
      [
        "ع",
        "ين"
      ],
      [
        "علي",
        "ه"
      ],
      [
        "ثلا",
        "ث"
      ],
      [
        "قي",
        "ق"
      ],
      [
        "ط",
        "ان"
      ],
      [
        "a",
        "t"
      ],
      [
        "شر",
        "وع"
      ],
      [
        "ب",
        "ال"
      ],
      [
        "بر",
        "امج"
      ],
      [
        "أ",
        "رب"
      ],
      [
        "ملك",
        "ة"
      ],
      [
        "و",
        "ما"
      ],
      [
        "دول",
        "ار"
      ],
      [
        "مي",
        "ل"
      ],
      [
        "ج",
        "لي"
      ],
      [
        "ب",
        "واس"
      ],
      [
        "أم",
        "ري"
      ],
      [
        "الد",
        "ولة"
      ],
      [
        "خر",
        "ج"
      ],
      [
        "أ",
        "ل"
      ],
      [
        "ذ",
        "ج"
      ],
      [
        "أور",
        "وبا"
      ],
      [
        "ي",
        "ين"
      ],
      [
        "دي",
        "م"
      ],
      [
        "ت",
        "طوير"
      ],
      [
        "ش",
        "ف"
      ],
      [
        "ح",
        "والي"
      ],
      [
        "ماي",
        "كروسوفت"
      ],
      [
        "ط",
        "لب"
      ],
      [
        "ن",
        "ج"
      ],
      [
        "نتي",
        "جة"
      ],
      [
        "بواس",
        "طة"
      ],
      [
        "و",
        "ء"
      ],
      [
        "هور",
        "ية"
      ],
      [
        "بط",
        "ولة"
      ],
      [
        "شر",
        "ين"
      ],
      [
        "أن",
        "ظمة"
      ],
      [
        "من",
        "طقة"
      ],
      [
        "اب",
        "ات"
      ],
      [
        "س",
        "بيل"
      ],
      [
        "الأ",
        "رض"
      ],
      [
        "أ",
        "ب"
      ],
      [
        "وار",
        "ز"
      ],
      [
        "الفي",
        "لم"
      ],
      [
        "ام",
        "ل"
      ],
      [
        "ض",
        "اء"
      ],
      [
        "ق",
        "لي"
      ],
      [
        "الت",
        "ن"
      ],
      [
        "الي",
        "وم"
      ],
      [
        "تق",
        "دم"
      ],
      [
        "الات",
        "حاد"
      ],
      [
        "فا",
        "ز"
      ],
      [
        "اب",
        "ه"
      ],
      [
        "غ",
        "ط"
      ],
      [
        "اب",
        "ن"
      ],
      [
        "سم",
        "ح"
      ],
      [
        "آ",
        "ي"
      ],
      [
        "a",
        "r"
      ],
      [
        "1",
        "6"
      ],
      [
        "لا",
        "ب"
      ],
      [
        "المر",
        "كز"
      ],
      [
        "ل",
        "دي"
      ],
      [
        "و",
        "فر"
      ],
      [
        "ان",
        "ون"
      ],
      [
        "الأ",
        "ح"
      ],
      [
        "أ",
        "فضل"
      ],
      [
        "ع",
        "الم"
      ],
      [
        "الأ",
        "د"
      ],
      [
        "ا",
        "ي"
      ],
      [
        "م",
        "ختلفة"
      ],
      [
        "را",
        "ف"
      ],
      [
        "ذ",
        "كر"
      ],
      [
        "و",
        "غير"
      ],
      [
        "ال",
        "شركة"
      ],
      [
        "أ",
        "جل"
      ],
      [
        "الأغ",
        "نية"
      ],
      [
        "ائ",
        "رة"
      ],
      [
        "ج",
        "ات"
      ],
      [
        "الإ",
        "م"
      ],
      [
        "ب",
        "إ"
      ],
      [
        "وح",
        "ة"
      ],
      [
        "لع",
        "اب"
      ],
      [
        "البر",
        "نامج"
      ],
      [
        "نها",
        "ية"
      ],
      [
        "أ",
        "ح"
      ],
      [
        "ب",
        "الت"
      ],
      [
        "ت",
        "ز"
      ],
      [
        "إن",
        "شاء"
      ],
      [
        "ن",
        "ف"
      ],
      [
        "الد",
        "وري"
      ],
      [
        "الص",
        "وت"
      ],
      [
        "ج",
        "ع"
      ],
      [
        "ق",
        "اب"
      ],
      [
        "ئي",
        "سي"
      ],
      [
        "س",
        "ان"
      ],
      [
        "الش",
        "ب"
      ],
      [
        "سم",
        "ية"
      ],
      [
        "اد",
        "ية"
      ],
      [
        "الح",
        "رب"
      ],
      [
        "الك",
        "ثير"
      ],
      [
        "ري",
        "ف"
      ],
      [
        "قي",
        "قة"
      ],
      [
        "إ",
        "كس"
      ],
      [
        "دي",
        "ل"
      ],
      [
        "أص",
        "بح"
      ],
      [
        "الإ",
        "سلام"
      ],
      [
        "المغ",
        "ول"
      ],
      [
        "شر",
        "ة"
      ],
      [
        "لل",
        "ت"
      ],
      [
        "غي",
        "ير"
      ],
      [
        "برا",
        "طور"
      ],
      [
        "1",
        "1"
      ],
      [
        "ب",
        "ج"
      ],
      [
        "ائ",
        "ن"
      ],
      [
        "أغ",
        "نية"
      ],
      [
        "3",
        "0"
      ],
      [
        "مي",
        "ز"
      ],
      [
        "م",
        "بي"
      ],
      [
        "ال",
        "هي"
      ],
      [
        "أن",
        "واع"
      ],
      [
        "ا",
        "حت"
      ],
      [
        "5",
        "0"
      ],
      [
        "س",
        "س"
      ],
      [
        "البر",
        "امج"
      ],
      [
        "المث",
        "ال"
      ],
      [
        "تق",
        "د"
      ],
      [
        "ع",
        "ود"
      ],
      [
        "ت",
        "ست"
      ],
      [
        "د",
        "ولة"
      ],
      [
        "ه",
        "ام"
      ],
      [
        "وص",
        "ول"
      ],
      [
        "س",
        "ام"
      ],
      [
        "و",
        "است"
      ],
      [
        "عل",
        "ام"
      ],
      [
        "خ",
        "اص"
      ],
      [
        "وب",
        "عد"
      ],
      [
        "عن",
        "ي"
      ],
      [
        "كب",
        "يرة"
      ],
      [
        "في",
        "ر"
      ],
      [
        "وا",
        "ء"
      ],
      [
        "i",
        "c"
      ],
      [
        "ج",
        "ين"
      ],
      [
        "ا",
        "ع"
      ],
      [
        "التش",
        "غيل"
      ],
      [
        "a",
        "l"
      ],
      [
        "ا",
        "دي"
      ],
      [
        "الك",
        "ت"
      ],
      [
        "م",
        "حد"
      ],
      [
        "نس",
        "ية"
      ],
      [
        "ف",
        "ن"
      ],
      [
        "ب",
        "الم"
      ],
      [
        "وب",
        "ة"
      ],
      [
        "ص",
        "ال"
      ],
      [
        "ي",
        "ه"
      ],
      [
        "ف",
        "ه"
      ],
      [
        "واق",
        "ع"
      ],
      [
        "ب",
        "أن"
      ],
      [
        "خ",
        "اصة"
      ],
      [
        "الك",
        "هرب"
      ],
      [
        "أ",
        "جهزة"
      ],
      [
        "سل",
        "س"
      ],
      [
        "ر",
        "ئيس"
      ],
      [
        "e",
        "s"
      ],
      [
        "و",
        "حدة"
      ],
      [
        "م",
        "بر"
      ],
      [
        "ت",
        "ف"
      ],
      [
        "ج",
        "دا"
      ],
      [
        "الرق",
        "مية"
      ],
      [
        "ت",
        "مع"
      ],
      [
        "فا",
        "ع"
      ],
      [
        "ع",
        "بد"
      ],
      [
        "أ",
        "ق"
      ],
      [
        "ق",
        "ت"
      ],
      [
        "نا",
        "دي"
      ],
      [
        "i",
        "s"
      ],
      [
        "غ",
        "ا"
      ],
      [
        "و",
        "حد"
      ],
      [
        "رف",
        "ة"
      ],
      [
        "مح",
        "مد"
      ],
      [
        "ح",
        "لة"
      ],
      [
        "ر",
        "ات"
      ],
      [
        "وع",
        "ات"
      ],
      [
        "ج",
        "ديدة"
      ],
      [
        "أ",
        "هم"
      ],
      [
        "أ",
        "وب"
      ],
      [
        "لك",
        "ل"
      ],
      [
        "الم",
        "نت"
      ],
      [
        "لا",
        "ء"
      ],
      [
        "ف",
        "ري"
      ],
      [
        "ك",
        "يل"
      ],
      [
        "ن",
        "ى"
      ],
      [
        "ن",
        "وف"
      ],
      [
        "ال",
        "ظ"
      ],
      [
        "لا",
        "ع"
      ],
      [
        "أص",
        "بحت"
      ],
      [
        "الإن",
        "جلي"
      ],
      [
        "ط",
        "ول"
      ],
      [
        "ور",
        "ية"
      ],
      [
        "ط",
        "لاق"
      ],
      [
        "ب",
        "ق"
      ],
      [
        "ن",
        "حو"
      ],
      [
        "ز",
        "ب"
      ],
      [
        "ش",
        "أ"
      ],
      [
        "لي",
        "س"
      ],
      [
        "النا",
        "دي"
      ],
      [
        "ف",
        "ترة"
      ],
      [
        "ثلا",
        "ثة"
      ],
      [
        "إ",
        "ش"
      ],
      [
        "من",
        "ا"
      ],
      [
        "ج",
        "هاز"
      ],
      [
        "أ",
        "عل"
      ],
      [
        "ب",
        "ناء"
      ],
      [
        "ص",
        "ي"
      ],
      [
        "الش",
        "خص"
      ],
      [
        "أ",
        "بر"
      ],
      [
        "سلس",
        "لة"
      ],
      [
        "ع",
        "رف"
      ],
      [
        "تح",
        "ر"
      ],
      [
        "أ",
        "قل"
      ],
      [
        "ح",
        "الة"
      ],
      [
        "العالم",
        "ية"
      ],
      [
        "{",
        "\\"
      ],
      [
        "ولوج",
        "يا"
      ],
      [
        "نس",
        "خة"
      ],
      [
        "الع",
        "لم"
      ],
      [
        "غ",
        "ل"
      ],
      [
        "هم",
        "ة"
      ],
      [
        "في",
        "ذ"
      ],
      [
        "لي",
        "م"
      ],
      [
        "ع",
        "اد"
      ],
      [
        "ب",
        "اد"
      ],
      [
        "اب",
        "عة"
      ],
      [
        "ه",
        "ير"
      ],
      [
        "ج",
        "يل"
      ],
      [
        "و",
        "كانت"
      ],
      [
        "الع",
        "لا"
      ],
      [
        "ائ",
        "زة"
      ],
      [
        "تر",
        "ك"
      ],
      [
        "الآ",
        "ن"
      ],
      [
        "l",
        "a"
      ],
      [
        "ل",
        "أن"
      ],
      [
        "تح",
        "ديد"
      ],
      [
        "كوم",
        "ة"
      ],
      [
        "واجه",
        "ة"
      ],
      [
        "ج",
        "د"
      ],
      [
        "الف",
        "ريق"
      ],
      [
        "ن",
        "شر"
      ],
      [
        "ب",
        "الن"
      ],
      [
        "و",
        "دي"
      ],
      [
        "ق",
        "ال"
      ],
      [
        "وسي",
        "ا"
      ],
      [
        "ه",
        "ار"
      ],
      [
        "سن",
        "وات"
      ],
      [
        "تش",
        "ار"
      ],
      [
        "ح",
        "ساب"
      ],
      [
        "الط",
        "بي"
      ],
      [
        "ات",
        "ه"
      ],
      [
        "د",
        "ري"
      ],
      [
        "ض",
        "د"
      ],
      [
        "ات",
        "ها"
      ],
      [
        "شب",
        "كة"
      ],
      [
        "ق",
        "اد"
      ],
      [
        "تع",
        "مل"
      ],
      [
        "إ",
        "نتاج"
      ],
      [
        "ي",
        "ك"
      ],
      [
        "أط",
        "لق"
      ],
      [
        "ط",
        "ار"
      ],
      [
        "و",
        "أن"
      ],
      [
        "الب",
        "ح"
      ],
      [
        "وص",
        "ل"
      ],
      [
        "قيم",
        "ة"
      ],
      [
        "تش",
        "غيل"
      ],
      [
        "ائ",
        "ي"
      ],
      [
        "19",
        "5"
      ],
      [
        "لف",
        "زي"
      ],
      [
        "أ",
        "لف"
      ],
      [
        "أث",
        "ناء"
      ],
      [
        "جت",
        "ما"
      ],
      [
        "ن",
        "قل"
      ],
      [
        "ول",
        "د"
      ],
      [
        "ف",
        "ور"
      ],
      [
        "ما",
        "ك"
      ],
      [
        "الج",
        "ديدة"
      ],
      [
        "مو",
        "سي"
      ],
      [
        "مج",
        "ال"
      ],
      [
        "الأمري",
        "كية"
      ],
      [
        "ح",
        "ف"
      ],
      [
        "نظ",
        "مة"
      ],
      [
        "ون",
        "ات"
      ],
      [
        "م",
        "وقع"
      ],
      [
        "م",
        "ض"
      ],
      [
        "وي",
        "ب"
      ],
      [
        "ج",
        "ون"
      ],
      [
        "2",
        "5"
      ],
      [
        "الا",
        "ق"
      ],
      [
        "أ",
        "كت"
      ],
      [
        "جام",
        "عة"
      ],
      [
        "1",
        "3"
      ],
      [
        "ه",
        "ات"
      ],
      [
        "الت",
        "علي"
      ],
      [
        "مر",
        "كز"
      ],
      [
        "يا",
        "ة"
      ],
      [
        "الأك",
        "ثر"
      ],
      [
        "المن",
        "طقة"
      ],
      [
        "بدأ",
        "ت"
      ],
      [
        "ح",
        "ات"
      ],
      [
        "الموسي",
        "قى"
      ],
      [
        "دي",
        "مة"
      ],
      [
        "عد",
        "م"
      ],
      [
        "ب",
        "ول"
      ],
      [
        "وص",
        "ف"
      ],
      [
        "الس",
        "وفي"
      ],
      [
        "ي",
        "حت"
      ],
      [
        "في",
        "ما"
      ],
      [
        "ك",
        "ث"
      ],
      [
        "وال",
        "د"
      ],
      [
        "أكت",
        "وبر"
      ],
      [
        "ول",
        "ات"
      ],
      [
        "وي",
        "مكن"
      ],
      [
        "سي",
        "ا"
      ],
      [
        "ز",
        "ل"
      ],
      [
        "الن",
        "ص"
      ],
      [
        "ص",
        "ورة"
      ],
      [
        "يم",
        "ة"
      ],
      [
        "ض",
        "ر"
      ],
      [
        "خدم",
        "ة"
      ],
      [
        "طبي",
        "ق"
      ],
      [
        "2",
        "4"
      ],
      [
        "ط",
        "لح"
      ],
      [
        "خ",
        "فض"
      ],
      [
        "ل",
        "ذلك"
      ],
      [
        "كت",
        "ابة"
      ],
      [
        "الص",
        "نا"
      ],
      [
        "200",
        "7"
      ],
      [
        "اس",
        "ب"
      ],
      [
        "ص",
        "بح"
      ],
      [
        "19",
        "4"
      ],
      [
        "ا",
        "كت"
      ],
      [
        "يج",
        "ب"
      ],
      [
        "ب",
        "س"
      ],
      [
        "ت",
        "طور"
      ],
      [
        "الا",
        "جتما"
      ],
      [
        "201",
        "2"
      ],
      [
        "ي",
        "وجد"
      ],
      [
        "غير",
        "ة"
      ],
      [
        "كان",
        "ي"
      ],
      [
        "الح",
        "د"
      ],
      [
        "ف",
        "ال"
      ],
      [
        "و",
        "عة"
      ],
      [
        "بر",
        "وت"
      ],
      [
        "ون",
        "تو"
      ],
      [
        "ام",
        "ي"
      ],
      [
        "إد",
        "ارة"
      ],
      [
        "الق",
        "دم"
      ],
      [
        "الب",
        "حر"
      ],
      [
        "الي",
        "اب"
      ],
      [
        "المد",
        "ينة"
      ],
      [
        "د",
        "وري"
      ],
      [
        "ع",
        "ى"
      ],
      [
        "جن",
        "و"
      ],
      [
        "نق",
        "طة"
      ],
      [
        "دي",
        "ث"
      ],
      [
        "سي",
        "س"
      ],
      [
        "م",
        "با"
      ],
      [
        "الحدي",
        "ثة"
      ],
      [
        "إ",
        "ضافة"
      ],
      [
        "إ",
        "حد"
      ],
      [
        "ش",
        "ري"
      ],
      [
        "ئ",
        "يات"
      ],
      [
        "د",
        "عم"
      ],
      [
        "ن",
        "ين"
      ],
      [
        "الث",
        "لا"
      ],
      [
        "ق",
        "ناة"
      ],
      [
        "ير",
        "ان"
      ],
      [
        "يق",
        "وم"
      ],
      [
        "ب",
        "ور"
      ],
      [
        "ظ",
        "ر"
      ],
      [
        "الأ",
        "لبوم"
      ],
      [
        "عام",
        "ل"
      ],
      [
        "e",
        "t"
      ],
      [
        "ا",
        "قة"
      ],
      [
        "الش",
        "كل"
      ],
      [
        "التص",
        "وير"
      ],
      [
        "ش",
        "هر"
      ],
      [
        "ال",
        "اسم"
      ],
      [
        "مج",
        "م"
      ],
      [
        "وز",
        "يع"
      ],
      [
        "الر",
        "ئيسي"
      ],
      [
        "الرياض",
        "يات"
      ],
      [
        "س",
        "جل"
      ],
      [
        "تم",
        "بر"
      ],
      [
        "ج",
        "مع"
      ],
      [
        "200",
        "6"
      ],
      [
        "نا",
        "صر"
      ],
      [
        "ب",
        "ان"
      ],
      [
        "براطور",
        "ية"
      ],
      [
        "وم",
        "ية"
      ],
      [
        "ظهر",
        "ت"
      ],
      [
        "أ",
        "على"
      ],
      [
        "ص",
        "ن"
      ],
      [
        "البرمج",
        "يات"
      ],
      [
        "ت",
        "اد"
      ],
      [
        "ح",
        "سب"
      ],
      [
        "راض",
        "ي"
      ],
      [
        "الجز",
        "ء"
      ],
      [
        "ز",
        "مة"
      ],
      [
        "نوف",
        "مبر"
      ],
      [
        "كت",
        "اب"
      ],
      [
        "سر",
        "عة"
      ],
      [
        "ه",
        "ن"
      ],
      [
        "و",
        "حي"
      ],
      [
        "بي",
        "ت"
      ],
      [
        "ول",
        "م"
      ],
      [
        "كام",
        "ل"
      ],
      [
        "س",
        "ير"
      ],
      [
        "ن",
        "مو"
      ],
      [
        "ين",
        "ات"
      ],
      [
        "يع",
        "مل"
      ],
      [
        "د",
        "اد"
      ],
      [
        "بي",
        "ع"
      ],
      [
        "و",
        "على"
      ],
      [
        "سب",
        "تمبر"
      ],
      [
        "يت",
        "ار"
      ],
      [
        "من",
        "ه"
      ],
      [
        "عد",
        "دة"
      ],
      [
        "قائ",
        "مة"
      ],
      [
        "وت",
        "م"
      ],
      [
        "ار",
        "ب"
      ],
      [
        "ص",
        "الات"
      ],
      [
        "ع",
        "لا"
      ],
      [
        "تص",
        "ميم"
      ],
      [
        "ان",
        "و"
      ],
      [
        "مع",
        "الج"
      ],
      [
        "الس",
        "ا"
      ],
      [
        "م",
        "الك"
      ],
      [
        "2",
        "3"
      ],
      [
        "ز",
        "ين"
      ],
      [
        "خ",
        "ان"
      ],
      [
        "تق",
        "ري"
      ],
      [
        "جان",
        "ب"
      ],
      [
        "ف",
        "ار"
      ],
      [
        "وال",
        "ح"
      ],
      [
        "جم",
        "هورية"
      ],
      [
        "مست",
        "وى"
      ],
      [
        "الد",
        "ا"
      ],
      [
        "سي",
        "م"
      ],
      [
        "ع",
        "ار"
      ],
      [
        "الم",
        "ط"
      ],
      [
        "ولا",
        "ية"
      ],
      [
        "ول",
        "يو"
      ],
      [
        "رق",
        "ام"
      ],
      [
        "و",
        "هذا"
      ],
      [
        "الت",
        "اريخ"
      ],
      [
        "ح",
        "صل"
      ],
      [
        "خ",
        "ارج"
      ],
      [
        "لا",
        "عب"
      ],
      [
        "خط",
        "وط"
      ],
      [
        "ج",
        "ديد"
      ],
      [
        "ه",
        "ب"
      ],
      [
        "قام",
        "ت"
      ],
      [
        "سم",
        "بر"
      ],
      [
        "الا",
        "خت"
      ],
      [
        "لين",
        "كس"
      ],
      [
        "إ",
        "ل"
      ],
      [
        "ر",
        "ون"
      ],
      [
        "ص",
        "ار"
      ],
      [
        "الش",
        "م"
      ],
      [
        "م",
        "وز"
      ],
      [
        "لم",
        "ين"
      ],
      [
        "س",
        "كان"
      ],
      [
        "حي",
        "ط"
      ],
      [
        "صر",
        "ية"
      ],
      [
        "ال",
        "دي"
      ],
      [
        "دي",
        "سمبر"
      ],
      [
        "الاق",
        "تص"
      ],
      [
        "غ",
        "البا"
      ],
      [
        "ل",
        "و"
      ],
      [
        "ال",
        "دم"
      ],
      [
        "r",
        "o"
      ],
      [
        "إ",
        "عادة"
      ],
      [
        "الس",
        "كان"
      ],
      [
        "الل",
        "غات"
      ],
      [
        "تش",
        "مل"
      ],
      [
        "را",
        "ق"
      ],
      [
        "خدم",
        "ات"
      ],
      [
        "لا",
        "يا"
      ],
      [
        "اص",
        "مة"
      ],
      [
        "ئ",
        "ات"
      ],
      [
        "ص",
        "نا"
      ],
      [
        "الع",
        "م"
      ],
      [
        "وف",
        "قا"
      ],
      [
        "ب",
        "قي"
      ],
      [
        "ط",
        "ريقة"
      ],
      [
        "رق",
        "م"
      ],
      [
        "الخ",
        "ام"
      ],
      [
        "نظ",
        "رية"
      ],
      [
        "م",
        "كت"
      ],
      [
        "سل",
        "سل"
      ],
      [
        "جا",
        "ه"
      ],
      [
        "جز",
        "اء"
      ],
      [
        "د",
        "ات"
      ],
      [
        "ن",
        "سبة"
      ],
      [
        "لي",
        "ا"
      ],
      [
        "وي",
        "ت"
      ],
      [
        "بدا",
        "ية"
      ],
      [
        "6",
        "0"
      ],
      [
        "ح",
        "اء"
      ],
      [
        "فر",
        "ة"
      ],
      [
        "وك",
        "ذلك"
      ],
      [
        "الل",
        "ه"
      ],
      [
        "بالن",
        "سبة"
      ],
      [
        "ج",
        "راء"
      ],
      [
        "م",
        "باراة"
      ],
      [
        "سا",
        "عد"
      ],
      [
        "ت",
        "عد"
      ],
      [
        "الأ",
        "جهزة"
      ],
      [
        "وارز",
        "مية"
      ],
      [
        "سط",
        "ح"
      ],
      [
        "د",
        "ع"
      ],
      [
        "وم",
        "ة"
      ],
      [
        "مار",
        "س"
      ],
      [
        "ت",
        "تم"
      ],
      [
        "ع",
        "الية"
      ],
      [
        "وال",
        "إ"
      ],
      [
        "وجود",
        "ة"
      ],
      [
        "الأور",
        "دو"
      ],
      [
        "ثل",
        "ث"
      ],
      [
        "واس",
        "يب"
      ],
      [
        "ك",
        "لا"
      ],
      [
        "يع",
        "رف"
      ],
      [
        "ل",
        "أول"
      ],
      [
        "را",
        "ج"
      ],
      [
        "وائ",
        "ل"
      ],
      [
        "د",
        "خل"
      ],
      [
        "را",
        "ع"
      ],
      [
        "الجن",
        "وبية"
      ],
      [
        "2",
        "2"
      ],
      [
        "الرئيس",
        "ية"
      ],
      [
        "r",
        "e"
      ],
      [
        "الش",
        "ي"
      ],
      [
        "ت",
        "بة"
      ],
      [
        "ص",
        "وت"
      ],
      [
        "ح",
        "كم"
      ],
      [
        "ف",
        "اد"
      ],
      [
        "م",
        "وسم"
      ],
      [
        "ت",
        "ور"
      ],
      [
        "200",
        "8"
      ],
      [
        "خ",
        "م"
      ],
      [
        "ز",
        "ن"
      ],
      [
        "م",
        "شا"
      ],
      [
        "y",
        "st"
      ],
      [
        "وب",
        "التالي"
      ],
      [
        "20",
        "00"
      ],
      [
        "مح",
        "ا"
      ],
      [
        "س",
        "ون"
      ],
      [
        "التق",
        "لي"
      ],
      [
        "ف",
        "وق"
      ],
      [
        "لاح",
        "ظ"
      ],
      [
        "إحد",
        "ى"
      ],
      [
        "الأ",
        "ط"
      ],
      [
        "الإنجلي",
        "زية"
      ],
      [
        "ف",
        "ص"
      ],
      [
        "م",
        "شروع"
      ],
      [
        "لي",
        "ات"
      ],
      [
        "i",
        "on"
      ],
      [
        "ن",
        "وات"
      ],
      [
        "الت",
        "س"
      ],
      [
        "اد",
        "ات"
      ],
      [
        "يع",
        "تبر"
      ],
      [
        "العام",
        "ة"
      ],
      [
        "ال",
        "وسط"
      ],
      [
        "الن",
        "وع"
      ],
      [
        "الخ",
        "دم"
      ],
      [
        "در",
        "اسة"
      ],
      [
        "النس",
        "خة"
      ],
      [
        "ط",
        "وي"
      ],
      [
        "وا",
        "عد"
      ],
      [
        "الج",
        "يش"
      ],
      [
        "ا",
        "ط"
      ],
      [
        "أس",
        "اس"
      ],
      [
        "المع",
        "روف"
      ],
      [
        "i",
        "t"
      ],
      [
        "عب",
        "ة"
      ],
      [
        "سط",
        "س"
      ],
      [
        "إ",
        "ذ"
      ],
      [
        "ص",
        "د"
      ],
      [
        "الع",
        "شرين"
      ],
      [
        "فريق",
        "يا"
      ],
      [
        "س",
        "ك"
      ],
      [
        "الم",
        "ملكة"
      ],
      [
        "وا",
        "ف"
      ],
      [
        "كن",
        "ولوجيا"
      ],
      [
        "عب",
        "ية"
      ],
      [
        "بط",
        "ال"
      ],
      [
        "2",
        "1"
      ],
      [
        "ان",
        "تق"
      ],
      [
        "19",
        "3"
      ],
      [
        "ق",
        "در"
      ],
      [
        "ينا",
        "ير"
      ],
      [
        "است",
        "خدم"
      ],
      [
        "ن",
        "طاق"
      ],
      [
        "عض",
        "اء"
      ],
      [
        "200",
        "5"
      ],
      [
        "وائ",
        "ز"
      ],
      [
        "أش",
        "هر"
      ],
      [
        "أوب",
        "ونتو"
      ],
      [
        "ب",
        "نتيجة"
      ],
      [
        "ص",
        "در"
      ],
      [
        "الفر",
        "نسية"
      ],
      [
        "الأ",
        "مر"
      ],
      [
        "الا",
        "حت"
      ],
      [
        "الم",
        "كتب"
      ],
      [
        "ق",
        "سم"
      ],
      [
        "ام",
        "ة"
      ],
      [
        "الط",
        "اقة"
      ],
      [
        "ير",
        "ات"
      ],
      [
        "أغ",
        "سطس"
      ],
      [
        "الر",
        "وم"
      ],
      [
        "الفي",
        "ديو"
      ],
      [
        "و",
        "ست"
      ],
      [
        "أخ",
        "ذ"
      ],
      [
        "201",
        "0"
      ],
      [
        "ت",
        "فا"
      ],
      [
        "ال",
        "ها"
      ],
      [
        "ان",
        "ة"
      ],
      [
        "وت",
        "ن"
      ],
      [
        "م",
        "كان"
      ],
      [
        "الع",
        "ربي"
      ],
      [
        "ؤ",
        "دي"
      ],
      [
        "وق",
        "ف"
      ],
      [
        "الدول",
        "ية"
      ],
      [
        "أن",
        "حاء"
      ],
      [
        "الف",
        "ترة"
      ],
      [
        "المص",
        "در"
      ],
      [
        "الإ",
        "ش"
      ],
      [
        "تق",
        "وم"
      ],
      [
        "الإ",
        "نس"
      ],
      [
        "y",
        "le"
      ],
      [
        "ص",
        "حي"
      ],
      [
        "لل",
        "ح"
      ],
      [
        "شار",
        "كة"
      ],
      [
        "رب",
        "ة"
      ],
      [
        "برا",
        "ير"
      ],
      [
        "نا",
        "ئية"
      ],
      [
        "اب",
        "ل"
      ],
      [
        "أم",
        "ام"
      ],
      [
        "ج",
        "اء"
      ],
      [
        "ج",
        "عل"
      ],
      [
        "ك",
        "لمة"
      ],
      [
        "نفس",
        "ه"
      ],
      [
        "2",
        "9"
      ],
      [
        "س",
        "كر"
      ],
      [
        "م",
        "م"
      ],
      [
        "المج",
        "ر"
      ],
      [
        "الولا",
        "ية"
      ],
      [
        "اه",
        "رة"
      ],
      [
        "زي",
        "ادة"
      ],
      [
        "البرمج",
        "ة"
      ],
      [
        "الأخ",
        "يرة"
      ],
      [
        "اس",
        "تمر"
      ],
      [
        "وي",
        "ا"
      ],
      [
        "س",
        "ية"
      ],
      [
        "ما",
        "يو"
      ],
      [
        "وال",
        "ث"
      ],
      [
        "200",
        "9"
      ],
      [
        "الأس",
        "اسية"
      ],
      [
        "r",
        "a"
      ],
      [
        "ش",
        "ة"
      ],
      [
        "حق",
        "ق"
      ],
      [
        "كي",
        "ز"
      ],
      [
        "حر",
        "كة"
      ],
      [
        "الأ",
        "عمال"
      ],
      [
        "بي",
        "ا"
      ],
      [
        "بد",
        "لا"
      ],
      [
        "د",
        "ين"
      ],
      [
        "الخ",
        "اص"
      ],
      [
        "تع",
        "تبر"
      ],
      [
        "أ",
        "لبوم"
      ],
      [
        "ت",
        "ك"
      ],
      [
        "ات",
        "ف"
      ],
      [
        "تقري",
        "با"
      ],
      [
        "ع",
        "مر"
      ],
      [
        "الآ",
        "خر"
      ],
      [
        "ملي",
        "ات"
      ],
      [
        "وال",
        "س"
      ],
      [
        "ب",
        "لاد"
      ],
      [
        "الأ",
        "فلام"
      ],
      [
        "الق",
        "ديمة"
      ],
      [
        "ر",
        "سم"
      ],
      [
        "كور",
        "يا"
      ],
      [
        "الساب",
        "ق"
      ],
      [
        "e",
        "l"
      ],
      [
        "ز",
        "ياء"
      ],
      [
        "الن",
        "اس"
      ],
      [
        "ح",
        "اليا"
      ],
      [
        "تحت",
        "وي"
      ],
      [
        "ش",
        "اف"
      ],
      [
        "ل",
        "ان"
      ],
      [
        "الوط",
        "ني"
      ],
      [
        "البط",
        "ولة"
      ],
      [
        "وا",
        "د"
      ],
      [
        "عن",
        "وان"
      ],
      [
        "الب",
        "ل"
      ],
      [
        "رب",
        "ع"
      ],
      [
        "تص",
        "ف"
      ],
      [
        "خ",
        "لي"
      ],
      [
        "ك",
        "ذلك"
      ],
      [
        "التح",
        "كم"
      ],
      [
        "ط",
        "لق"
      ],
      [
        "ي",
        "وليو"
      ],
      [
        "وغير",
        "ها"
      ],
      [
        "اس",
        "ات"
      ],
      [
        "وي",
        "س"
      ],
      [
        "در",
        "سة"
      ],
      [
        "الت",
        "ع"
      ],
      [
        "عب",
        "ارة"
      ],
      [
        "الم",
        "ختلفة"
      ],
      [
        "ل",
        "غات"
      ],
      [
        "الم",
        "ض"
      ],
      [
        "اف",
        "ت"
      ],
      [
        "الف",
        "وز"
      ],
      [
        "الرق",
        "مي"
      ],
      [
        "ف",
        "وز"
      ],
      [
        "ت",
        "وجد"
      ],
      [
        "ل",
        "ول"
      ],
      [
        "ه",
        "ج"
      ],
      [
        "الأ",
        "عداد"
      ],
      [
        "الس",
        "ين"
      ],
      [
        "مح",
        "ر"
      ],
      [
        "ب",
        "است"
      ],
      [
        "الج",
        "م"
      ],
      [
        "1",
        "00"
      ],
      [
        "الج",
        "ديد"
      ],
      [
        "أبر",
        "يل"
      ],
      [
        "ن",
        "سي"
      ],
      [
        "وك",
        "ول"
      ],
      [
        "ما",
        "ئيات"
      ],
      [
        "201",
        "1"
      ],
      [
        "مل",
        "ة"
      ],
      [
        "البر",
        "يط"
      ],
      [
        "خط",
        "ط"
      ],
      [
        "ري",
        "د"
      ],
      [
        "ي",
        "سمى"
      ],
      [
        "طا",
        "ع"
      ],
      [
        "الي",
        "ون"
      ],
      [
        "الم",
        "وسم"
      ],
      [
        "ب",
        "أ"
      ],
      [
        "ر",
        "د"
      ],
      [
        "ف",
        "براير"
      ],
      [
        "ت",
        "ية"
      ],
      [
        "غ",
        "و"
      ],
      [
        "ط",
        "رة"
      ],
      [
        "ي",
        "عد"
      ],
      [
        "الوط",
        "نية"
      ],
      [
        "ك",
        "اء"
      ],
      [
        "تح",
        "قيق"
      ],
      [
        "خص",
        "صة"
      ],
      [
        "أد",
        "ى"
      ],
      [
        "مث",
        "لا"
      ],
      [
        "ت",
        "هم"
      ],
      [
        "ن",
        "صف"
      ],
      [
        "وت",
        "ا"
      ],
      [
        "و",
        "ذ"
      ],
      [
        "وحد",
        "ات"
      ],
      [
        "ب",
        "مع"
      ],
      [
        "حد",
        "د"
      ],
      [
        "ك",
        "ستان"
      ],
      [
        "م",
        "غ"
      ],
      [
        "وا",
        "ض"
      ],
      [
        "يف",
        "ة"
      ],
      [
        "الز",
        "من"
      ],
      [
        "p",
        "la"
      ],
      [
        "بي",
        "ض"
      ],
      [
        "يا",
        "ه"
      ],
      [
        "الش",
        "مس"
      ],
      [
        "تم",
        "كن"
      ],
      [
        "201",
        "6"
      ],
      [
        "4",
        "0"
      ],
      [
        "ين",
        "يات"
      ],
      [
        "ن",
        "ص"
      ],
      [
        "تأ",
        "ثير"
      ],
      [
        "وت",
        "ق"
      ],
      [
        "الهي",
        "ثم"
      ],
      [
        "2",
        "8"
      ],
      [
        "الع",
        "دد"
      ],
      [
        "تق",
        "ديم"
      ],
      [
        "2",
        "7"
      ],
      [
        "الت",
        "طبيقات"
      ],
      [
        "ري",
        "ات"
      ],
      [
        "d",
        "is"
      ],
      [
        "م",
        "تر"
      ],
      [
        "ل",
        "وب"
      ],
      [
        "الأ",
        "صل"
      ],
      [
        "مج",
        "لس"
      ],
      [
        "يون",
        "يو"
      ],
      [
        "ب",
        "غ"
      ],
      [
        "وال",
        "ق"
      ],
      [
        "ون",
        "ة"
      ],
      [
        "وا",
        "ة"
      ],
      [
        "المنا",
        "طق"
      ],
      [
        "ج",
        "مة"
      ],
      [
        "م",
        "ك"
      ],
      [
        "ض",
        "غط"
      ],
      [
        "ال",
        "وصول"
      ],
      [
        "تم",
        "ث"
      ],
      [
        "ثم",
        "انية"
      ],
      [
        "c",
        "t"
      ],
      [
        "ش",
        "مل"
      ],
      [
        "خص",
        "ص"
      ],
      [
        "عود",
        "ية"
      ],
      [
        "الع",
        "صر"
      ],
      [
        "الت",
        "الية"
      ],
      [
        "الأ",
        "لم"
      ],
      [
        "ري",
        "ب"
      ],
      [
        "ص",
        "ول"
      ],
      [
        "لاح",
        "قا"
      ],
      [
        "ن",
        "يات"
      ],
      [
        "الم",
        "ب"
      ],
      [
        "ائ",
        "ق"
      ],
      [
        "آ",
        "سيا"
      ],
      [
        "بي",
        "انات"
      ],
      [
        "نت",
        "وس"
      ],
      [
        "201",
        "3"
      ],
      [
        "إم",
        "كان"
      ],
      [
        "خ",
        "ذ"
      ],
      [
        "وت",
        "ح"
      ],
      [
        "ب",
        "ش"
      ],
      [
        "ت",
        "سمى"
      ],
      [
        "ل",
        "ام"
      ],
      [
        "السل",
        "طان"
      ],
      [
        "ص",
        "لاح"
      ],
      [
        "وا",
        "خر"
      ],
      [
        "الك",
        "ام"
      ],
      [
        "dis",
        "pla"
      ],
      [
        "س",
        "وف"
      ],
      [
        "مبا",
        "شرة"
      ],
      [
        "ال",
        "را"
      ],
      [
        "الن",
        "ات"
      ],
      [
        "اق",
        "تص"
      ],
      [
        "yst",
        "yle"
      ],
      [
        "displa",
        "ystyle"
      ],
      [
        "م",
        "خت"
      ],
      [
        "الك",
        "مبي"
      ],
      [
        "200",
        "3"
      ],
      [
        "}",
        "}"
      ],
      [
        "ب",
        "الق"
      ],
      [
        "الح",
        "ياة"
      ],
      [
        "الكمبي",
        "وتر"
      ],
      [
        "الأ",
        "نظمة"
      ],
      [
        "ز",
        "ف"
      ],
      [
        "ط",
        "يع"
      ],
      [
        "بح",
        "ث"
      ],
      [
        "واس",
        "ع"
      ],
      [
        "تق",
        "نية"
      ],
      [
        "م",
        "را"
      ],
      [
        "الم",
        "سي"
      ],
      [
        "المص",
        "ري"
      ],
      [
        "آ",
        "ن"
      ],
      [
        "ال",
        "ور"
      ],
      [
        "جن",
        "وب"
      ],
      [
        "الأور",
        "وبي"
      ],
      [
        "ل",
        "ال"
      ],
      [
        "الم",
        "ثلث"
      ],
      [
        "الص",
        "ور"
      ],
      [
        "أ",
        "عمال"
      ],
      [
        "ائ",
        "ر"
      ],
      [
        "النها",
        "ئي"
      ],
      [
        "c",
        "h"
      ],
      [
        "ت",
        "ظهر"
      ],
      [
        "وي",
        "ات"
      ],
      [
        "ع",
        "يد"
      ],
      [
        "أ",
        "ت"
      ],
      [
        "أ",
        "فلام"
      ],
      [
        "ص",
        "الح"
      ],
      [
        "ت",
        "غ"
      ],
      [
        "الق",
        "ائ"
      ],
      [
        "الب",
        "عض"
      ],
      [
        "شر",
        "كات"
      ],
      [
        "أر",
        "مين"
      ],
      [
        "الوسط",
        "ى"
      ],
      [
        "شر",
        "ق"
      ],
      [
        "ظ",
        "هور"
      ],
      [
        "ي",
        "لي"
      ],
      [
        "المج",
        "تمع"
      ],
      [
        "الشر",
        "كات"
      ],
      [
        "لم",
        "ات"
      ],
      [
        "الس",
        "ر"
      ],
      [
        "وف",
        "نتوس"
      ],
      [
        "الع",
        "د"
      ],
      [
        "لي",
        "ف"
      ],
      [
        "وال",
        "ر"
      ],
      [
        "الح",
        "كومة"
      ],
      [
        "بع",
        "اد"
      ],
      [
        "المستخدم",
        "ة"
      ],
      [
        "آ",
        "لة"
      ],
      [
        "ج",
        "ائزة"
      ],
      [
        "الق",
        "د"
      ],
      [
        "التج",
        "ارية"
      ],
      [
        "الك",
        "ائن"
      ],
      [
        "الشب",
        "كة"
      ],
      [
        "ز",
        "ر"
      ],
      [
        "عام",
        "ا"
      ],
      [
        "أمري",
        "كا"
      ],
      [
        "ان",
        "ت"
      ],
      [
        "ل",
        "هم"
      ],
      [
        "ي",
        "كن"
      ],
      [
        "ت",
        "غيير"
      ],
      [
        "ما",
        "ع"
      ],
      [
        "برمج",
        "ة"
      ],
      [
        "ق",
        "ق"
      ],
      [
        "وم",
        "ي"
      ],
      [
        "قط",
        "ز"
      ],
      [
        "تاد",
        "و"
      ],
      [
        "أ",
        "ف"
      ],
      [
        "م",
        "ستخدم"
      ],
      [
        "الم",
        "ك"
      ],
      [
        "غير",
        "ات"
      ],
      [
        "الض",
        "وء"
      ],
      [
        "م",
        "ختلف"
      ],
      [
        "ات",
        "ي"
      ],
      [
        "ار",
        "نة"
      ],
      [
        "خل",
        "ية"
      ],
      [
        "اص",
        "ط"
      ],
      [
        "آ",
        "ر"
      ],
      [
        "فر",
        "تادو"
      ],
      [
        ".",
        "."
      ],
      [
        "الم",
        "لف"
      ],
      [
        "الت",
        "فا"
      ],
      [
        "الص",
        "ورة"
      ],
      [
        "ح",
        "جم"
      ],
      [
        "201",
        "5"
      ],
      [
        "راء",
        "ة"
      ],
      [
        "ل",
        "غ"
      ],
      [
        "ارس",
        "ية"
      ],
      [
        "أرب",
        "عة"
      ],
      [
        "ر",
        "كة"
      ],
      [
        "الم",
        "شا"
      ],
      [
        "الساب",
        "قة"
      ],
      [
        "ار",
        "ا"
      ],
      [
        "الج",
        "هاز"
      ],
      [
        "الت",
        "اس"
      ],
      [
        "ائ",
        "ص"
      ],
      [
        "الم",
        "سا"
      ],
      [
        "ائ",
        "ف"
      ],
      [
        "ست",
        "ا"
      ],
      [
        "حق",
        "وق"
      ],
      [
        "الكهرب",
        "ائية"
      ],
      [
        "ور",
        "د"
      ],
      [
        "أ",
        "واخر"
      ],
      [
        "الم",
        "باراة"
      ],
      [
        "ري",
        "ك"
      ],
      [
        "قط",
        "ع"
      ],
      [
        "ن",
        "جا"
      ],
      [
        "الح",
        "يو"
      ],
      [
        "برمج",
        "يات"
      ],
      [
        "با",
        "ع"
      ],
      [
        "الط",
        "ريقة"
      ],
      [
        "8",
        "0"
      ],
      [
        "أعل",
        "نت"
      ],
      [
        "وس",
        "بة"
      ],
      [
        "الج",
        "ام"
      ],
      [
        "المع",
        "اد"
      ],
      [
        "إش",
        "ارة"
      ],
      [
        "مث",
        "لة"
      ],
      [
        "دي",
        "ا"
      ],
      [
        "مع",
        "ينة"
      ],
      [
        "الح",
        "كم"
      ],
      [
        "الس",
        "عودية"
      ],
      [
        "هد",
        "اف"
      ],
      [
        "الق",
        "ط"
      ],
      [
        "ب",
        "ك"
      ],
      [
        "ال",
        "ويب"
      ],
      [
        "نظ",
        "يم"
      ],
      [
        "هند",
        "سة"
      ],
      [
        "ب",
        "الك"
      ],
      [
        "الات",
        "صال"
      ],
      [
        "تع",
        "رف"
      ],
      [
        "السين",
        "ما"
      ],
      [
        "ال",
        "استخدام"
      ],
      [
        "لك",
        "رة"
      ],
      [
        "ائ",
        "لة"
      ],
      [
        "ج",
        "ال"
      ],
      [
        "ب",
        "ث"
      ],
      [
        "قر",
        "ر"
      ],
      [
        "المس",
        "لمين"
      ],
      [
        "ف",
        "صل"
      ],
      [
        "حد",
        "اث"
      ],
      [
        "الث",
        "ق"
      ],
      [
        "200",
        "4"
      ],
      [
        "العالم",
        "ي"
      ],
      [
        "ظ",
        "ل"
      ],
      [
        "الن",
        "ق"
      ],
      [
        "الإم",
        "براطورية"
      ],
      [
        "الم",
        "ز"
      ],
      [
        "وس",
        "ع"
      ],
      [
        "مي",
        "ات"
      ],
      [
        "الموا",
        "د"
      ],
      [
        "من",
        "ة"
      ],
      [
        "ه",
        "ولة"
      ],
      [
        "أرمين",
        "يا"
      ],
      [
        "المي",
        "لاد"
      ],
      [
        "تص",
        "وير"
      ],
      [
        "2",
        "6"
      ],
      [
        "ائ",
        "ج"
      ],
      [
        "شار",
        "ك"
      ],
      [
        "س",
        "سة"
      ],
      [
        "ط",
        "رق"
      ],
      [
        "البر",
        "مائيات"
      ],
      [
        "وا",
        "فق"
      ],
      [
        "ح",
        "اسوب"
      ],
      [
        "الب",
        "لد"
      ],
      [
        "اف",
        "ية"
      ],
      [
        "ت",
        "ار"
      ],
      [
        "تم",
        "ي"
      ],
      [
        "الع",
        "مليات"
      ],
      [
        "لد",
        "ى"
      ],
      [
        "ت",
        "ان"
      ],
      [
        "201",
        "4"
      ],
      [
        "الأص",
        "لي"
      ],
      [
        "ل",
        "وك"
      ],
      [
        "الإلكتر",
        "ونية"
      ],
      [
        "ب",
        "حيث"
      ],
      [
        "تش",
        "كل"
      ],
      [
        "أمري",
        "كي"
      ],
      [
        "خص",
        "ة"
      ],
      [
        "ذ",
        "ر"
      ],
      [
        "من",
        "ح"
      ],
      [
        "ج",
        "ري"
      ],
      [
        "الأ",
        "لعاب"
      ],
      [
        "ما",
        "د"
      ],
      [
        "عت",
        "بر"
      ],
      [
        "بر",
        "ى"
      ],
      [
        "الح",
        "الة"
      ],
      [
        "م",
        "ام"
      ],
      [
        "بح",
        "اث"
      ],
      [
        "اج",
        "ت"
      ],
      [
        "وس",
        "ية"
      ],
      [
        "حي",
        "انا"
      ],
      [
        "اخت",
        "يار"
      ],
      [
        "من",
        "هم"
      ],
      [
        "نا",
        "ئي"
      ],
      [
        "م",
        "كون"
      ],
      [
        "حد",
        "ود"
      ],
      [
        "وج",
        "ل"
      ],
      [
        "لفزي",
        "ون"
      ],
      [
        "ك",
        "لي"
      ],
      [
        "مع",
        "ا"
      ],
      [
        "ور",
        "ك"
      ],
      [
        "تم",
        "ام"
      ],
      [
        "في",
        "س"
      ],
      [
        "وال",
        "ن"
      ],
      [
        "الر",
        "ابع"
      ],
      [
        "ز",
        "و"
      ],
      [
        "م",
        "لا"
      ],
      [
        "مت",
        "عددة"
      ],
      [
        "ق",
        "لة"
      ],
      [
        "المع",
        "الج"
      ],
      [
        "س",
        "ري"
      ],
      [
        "جم",
        "الي"
      ],
      [
        "لي",
        "ست"
      ],
      [
        "الح",
        "رة"
      ],
      [
        "دا",
        "ية"
      ],
      [
        "الموسي",
        "قية"
      ],
      [
        "ي",
        "سمح"
      ],
      [
        "ير",
        "ي"
      ],
      [
        "سب",
        "وع"
      ],
      [
        "أ",
        "بطال"
      ],
      [
        "ست",
        "ور"
      ],
      [
        "الح",
        "واسيب"
      ],
      [
        "تم",
        "اما"
      ],
      [
        "الإلكتر",
        "وني"
      ],
      [
        "م",
        "ون"
      ],
      [
        "وي",
        "تم"
      ],
      [
        "تم",
        "ت"
      ],
      [
        "المج",
        "ال"
      ],
      [
        "الز",
        "مالك"
      ],
      [
        "ب",
        "لا"
      ],
      [
        "إ",
        "لكتر"
      ],
      [
        "ت",
        "نت"
      ],
      [
        "الد",
        "ولي"
      ],
      [
        "ارت",
        "فاع"
      ],
      [
        "را",
        "ي"
      ],
      [
        "شكل",
        "ة"
      ],
      [
        "المح",
        "م"
      ],
      [
        "ج",
        "ار"
      ],
      [
        "ج",
        "ور"
      ],
      [
        "المست",
        "وى"
      ],
      [
        "الرياض",
        "ية"
      ],
      [
        "ص",
        "ب"
      ],
      [
        "وا",
        "صل"
      ],
      [
        "البح",
        "ث"
      ],
      [
        "بعض",
        "ها"
      ],
      [
        "ان",
        "د"
      ],
      [
        "ق",
        "وق"
      ],
      [
        "ش",
        "مال"
      ],
      [
        "تي",
        "ب"
      ],
      [
        "م",
        "فت"
      ],
      [
        "التاس",
        "ع"
      ],
      [
        "خ",
        "يص"
      ],
      [
        "الحر",
        "ارة"
      ],
      [
        "الأن",
        "واع"
      ],
      [
        "الكت",
        "ابة"
      ],
      [
        "فه",
        "وم"
      ],
      [
        "أ",
        "لب"
      ],
      [
        "في",
        "ا"
      ],
      [
        "اد",
        "ل"
      ],
      [
        "فر",
        "اد"
      ],
      [
        "الل",
        "عبة"
      ],
      [
        "إلي",
        "ه"
      ],
      [
        "ت",
        "نا"
      ],
      [
        "كان",
        "وا"
      ],
      [
        "التقلي",
        "دية"
      ],
      [
        "ث",
        "ناء"
      ],
      [
        "الح",
        "ساب"
      ],
      [
        "الذ",
        "ا"
      ],
      [
        "الفر",
        "نسي"
      ],
      [
        "الحر",
        "وف"
      ],
      [
        "ش",
        "ه"
      ],
      [
        "ت",
        "طبيقات"
      ],
      [
        "اد",
        "س"
      ],
      [
        "قا",
        "عدة"
      ],
      [
        "يحت",
        "وي"
      ],
      [
        "ف",
        "هي"
      ],
      [
        "الب",
        "شر"
      ],
      [
        "لدي",
        "ها"
      ],
      [
        "فاد",
        "ع"
      ],
      [
        "ت",
        "طبيق"
      ],
      [
        "الم",
        "خ"
      ],
      [
        "تع",
        "ريف"
      ],
      [
        "الت",
        "طور"
      ],
      [
        "الشم",
        "الية"
      ],
      [
        "ح",
        "ن"
      ],
      [
        "ظ",
        "ة"
      ],
      [
        "الأ",
        "ق"
      ],
      [
        "c",
        "o"
      ],
      [
        "الأم",
        "ير"
      ],
      [
        "لم",
        "دة"
      ],
      [
        "لم",
        "انيا"
      ],
      [
        "أح",
        "مد"
      ],
      [
        "ش",
        "به"
      ],
      [
        "الم",
        "را"
      ],
      [
        "i",
        "g"
      ],
      [
        "ب",
        "اللغة"
      ],
      [
        "س",
        "ات"
      ],
      [
        "ص",
        "غيرة"
      ],
      [
        "للم",
        "رة"
      ],
      [
        "ز",
        "ات"
      ],
      [
        "ل",
        "عام"
      ],
      [
        "الأ",
        "رقام"
      ],
      [
        "الرق",
        "م"
      ],
      [
        "لي",
        "ون"
      ],
      [
        "وب",
        "د"
      ],
      [
        "العمل",
        "ية"
      ],
      [
        "تمث",
        "يل"
      ],
      [
        "الغ",
        "ربية"
      ],
      [
        "رس",
        "ال"
      ],
      [
        "الأمري",
        "كي"
      ],
      [
        "بروت",
        "وكول"
      ],
      [
        "ع",
        "ط"
      ],
      [
        "موسي",
        "قى"
      ],
      [
        "تق",
        "ع"
      ],
      [
        "ر",
        "وا"
      ],
      [
        "ف",
        "تح"
      ],
      [
        "ل",
        "ط"
      ],
      [
        "وي",
        "ق"
      ],
      [
        "تح",
        "ويل"
      ],
      [
        "وظ",
        "ائف"
      ],
      [
        "ب",
        "ب"
      ],
      [
        "ل",
        "قة"
      ],
      [
        "تح",
        "كم"
      ],
      [
        "دم",
        "ج"
      ],
      [
        "نها",
        "يت"
      ],
      [
        "تح",
        "سين"
      ],
      [
        "واس",
        "عة"
      ],
      [
        "لس",
        "لة"
      ],
      [
        "إ",
        "طلاق"
      ],
      [
        "الم",
        "مكن"
      ],
      [
        "ث",
        "ار"
      ],
      [
        "ما",
        "ية"
      ],
      [
        "ج",
        "وائز"
      ],
      [
        "ف",
        "اء"
      ],
      [
        "وب",
        "عض"
      ],
      [
        "وان",
        "ين"
      ],
      [
        "in",
        "g"
      ],
      [
        "من",
        "تج"
      ],
      [
        "عم",
        "ليات"
      ],
      [
        "صنا",
        "عة"
      ],
      [
        "3",
        "2"
      ],
      [
        "الم",
        "خت"
      ],
      [
        "ت",
        "وفي"
      ],
      [
        "د",
        "ائ"
      ],
      [
        "الأخ",
        "ير"
      ],
      [
        "كثير",
        "ا"
      ],
      [
        "الذا",
        "كرة"
      ],
      [
        "ف",
        "ذ"
      ],
      [
        "الح",
        "ا"
      ],
      [
        "و",
        "إن"
      ],
      [
        "هي",
        "ل"
      ],
      [
        "نمو",
        "ذج"
      ],
      [
        "ر",
        "أس"
      ],
      [
        "ط",
        "ية"
      ],
      [
        "الع",
        "رض"
      ],
      [
        "ال",
        "وز"
      ],
      [
        "شا",
        "ط"
      ],
      [
        "مص",
        "طلح"
      ],
      [
        "ك",
        "بة"
      ],
      [
        "ل",
        "هذه"
      ],
      [
        "لل",
        "ع"
      ],
      [
        "تح",
        "ول"
      ],
      [
        "ف",
        "تر"
      ],
      [
        "ال",
        "ري"
      ],
      [
        "لل",
        "ق"
      ],
      [
        "غ",
        "رب"
      ],
      [
        "تم",
        "ثل"
      ],
      [
        "الج",
        "سم"
      ],
      [
        "خ",
        "ال"
      ],
      [
        "تع",
        "لي"
      ],
      [
        "كام",
        "لة"
      ],
      [
        "مسا",
        "حة"
      ],
      [
        "ض",
        "يف"
      ],
      [
        "ن",
        "غ"
      ],
      [
        "الح",
        "ض"
      ],
      [
        "نفس",
        "ها"
      ],
      [
        "من",
        "ظمة"
      ],
      [
        "نظ",
        "را"
      ],
      [
        "وك",
        "س"
      ],
      [
        "أ",
        "وائل"
      ],
      [
        "ؤ",
        "ية"
      ],
      [
        "وال",
        "ص"
      ],
      [
        "مع",
        "روف"
      ],
      [
        "أس",
        "س"
      ],
      [
        "تن",
        "فيذ"
      ],
      [
        "\"",
        "،"
      ],
      [
        "م",
        "خ"
      ],
      [
        "وت",
        "ي"
      ],
      [
        "ج",
        "يش"
      ],
      [
        "نا",
        "ئ"
      ],
      [
        "الن",
        "مو"
      ],
      [
        "وي",
        "د"
      ],
      [
        "الق",
        "ص"
      ],
      [
        "هي",
        "ئة"
      ],
      [
        "تع",
        "تمد"
      ],
      [
        "الرس",
        "وم"
      ],
      [
        "المر",
        "تبة"
      ],
      [
        "تع",
        "رض"
      ],
      [
        "جا",
        "وز"
      ],
      [
        "عا",
        "ون"
      ],
      [
        "المد",
        "ن"
      ],
      [
        "ك",
        "ول"
      ],
      [
        "م",
        "الي"
      ],
      [
        "سكر",
        "ية"
      ],
      [
        "ش",
        "هد"
      ],
      [
        "ن",
        "يا"
      ],
      [
        "أغ",
        "لب"
      ],
      [
        "شي",
        "ء"
      ],
      [
        "ند",
        "ية"
      ],
      [
        "ملي",
        "ار"
      ],
      [
        "ج",
        "وم"
      ],
      [
        "لك",
        "ية"
      ],
      [
        "محد",
        "دة"
      ],
      [
        "ب",
        "سي"
      ],
      [
        "ل",
        "ون"
      ],
      [
        "عت",
        "بار"
      ],
      [
        "في",
        "د"
      ],
      [
        "الع",
        "رب"
      ],
      [
        "الم",
        "ق"
      ],
      [
        "لا",
        "ك"
      ],
      [
        "الع",
        "ب"
      ],
      [
        "الخ",
        "لايا"
      ],
      [
        "أش",
        "كال"
      ],
      [
        "ب",
        "أنه"
      ],
      [
        "ق",
        "واعد"
      ],
      [
        "الت",
        "أ"
      ],
      [
        "الح",
        "صول"
      ],
      [
        "وت",
        "ار"
      ],
      [
        "الب",
        "داية"
      ],
      [
        "قر",
        "ار"
      ],
      [
        "أ",
        "صل"
      ],
      [
        "من",
        "ع"
      ],
      [
        "ست",
        "ة"
      ],
      [
        "حي",
        "ان"
      ],
      [
        "الط",
        "ب"
      ],
      [
        "اعت",
        "بار"
      ],
      [
        "ل",
        "ما"
      ],
      [
        "تو",
        "فر"
      ],
      [
        "ل",
        "هذا"
      ],
      [
        "بد",
        "ء"
      ],
      [
        "صف",
        "ح"
      ],
      [
        "الأك",
        "بر"
      ],
      [
        "الس",
        "ما"
      ],
      [
        "الاجتما",
        "عية"
      ],
      [
        "د",
        "ير"
      ],
      [
        "ام",
        "ر"
      ],
      [
        "ني",
        "ف"
      ],
      [
        "خ",
        "ول"
      ],
      [
        "ل",
        "ج"
      ],
      [
        "هر",
        "نهايت"
      ],
      [
        "الإنس",
        "ان"
      ],
      [
        "ت",
        "كن"
      ],
      [
        "ش",
        "ئ"
      ],
      [
        "ن",
        "هر"
      ],
      [
        "و",
        "كل"
      ],
      [
        "ام",
        "ية"
      ],
      [
        "اني",
        "ين"
      ],
      [
        "يم",
        "ثل"
      ],
      [
        "الد",
        "وال"
      ],
      [
        "أ",
        "جزاء"
      ],
      [
        "م",
        "ب"
      ],
      [
        "ور",
        "ا"
      ],
      [
        "طوي",
        "لة"
      ],
      [
        "غ",
        "ان"
      ],
      [
        "الم",
        "اء"
      ],
      [
        "أب",
        "و"
      ],
      [
        "ؤ",
        "ول"
      ],
      [
        "س",
        "ار"
      ],
      [
        "الحر",
        "كة"
      ],
      [
        "ي",
        "عني"
      ],
      [
        "وال",
        "خ"
      ],
      [
        "مجم",
        "وع"
      ],
      [
        "الدا",
        "خلية"
      ],
      [
        "سا",
        "وي"
      ],
      [
        "الحدي",
        "ث"
      ],
      [
        "l",
        "o"
      ],
      [
        "وج",
        "ة"
      ],
      [
        "عل",
        "ان"
      ],
      [
        "ني",
        "وي"
      ],
      [
        "ذا",
        "كرة"
      ],
      [
        "ب",
        "ذلك"
      ],
      [
        "مل",
        "عب"
      ],
      [
        "بد",
        "و"
      ],
      [
        "فر",
        "د"
      ],
      [
        "مر",
        "ات"
      ],
      [
        "الثلا",
        "ث"
      ],
      [
        "بقي",
        "ادة"
      ],
      [
        "الم",
        "تع"
      ],
      [
        "الف",
        "ض"
      ],
      [
        "اري",
        "س"
      ],
      [
        "مق",
        "ارنة"
      ],
      [
        "إ",
        "فريقيا"
      ],
      [
        "الت",
        "والي"
      ],
      [
        "المن",
        "ط"
      ],
      [
        "e",
        "d"
      ],
      [
        "u",
        "t"
      ],
      [
        "ت",
        "بط"
      ],
      [
        "الف",
        "ن"
      ],
      [
        "ق",
        "انون"
      ],
      [
        "لل",
        "إ"
      ],
      [
        "الإ",
        "نتاج"
      ],
      [
        "عام",
        "ة"
      ],
      [
        "الص",
        "ف"
      ],
      [
        "لق",
        "ب"
      ],
      [
        "وال",
        "ف"
      ],
      [
        "ع",
        "قد"
      ],
      [
        "ف",
        "ظ"
      ],
      [
        "الس",
        "نة"
      ],
      [
        "الش",
        "اش"
      ],
      [
        "خص",
        "وص"
      ],
      [
        "ا",
        "حة"
      ],
      [
        "م",
        "وا"
      ],
      [
        "العل",
        "وم"
      ],
      [
        "و",
        "هذه"
      ],
      [
        "مست",
        "رون"
      ],
      [
        "الش",
        "ع"
      ],
      [
        "لكن",
        "ه"
      ],
      [
        "الف",
        "ضة"
      ],
      [
        "أص",
        "در"
      ],
      [
        "اصط",
        "نا"
      ],
      [
        "9",
        "0"
      ],
      [
        "ج",
        "وجل"
      ],
      [
        "الق",
        "مر"
      ],
      [
        "الحد",
        "ود"
      ],
      [
        "ر",
        "وسيا"
      ],
      [
        "ه",
        "ول"
      ],
      [
        "الم",
        "دار"
      ],
      [
        "الأ",
        "حيان"
      ],
      [
        "ج",
        "رة"
      ],
      [
        "ن",
        "وعة"
      ],
      [
        "الأور",
        "وبية"
      ],
      [
        "رس",
        "وم"
      ],
      [
        "ص",
        "لة"
      ],
      [
        "بي",
        "ه"
      ],
      [
        "لعب",
        "ة"
      ],
      [
        "آ",
        "لات"
      ],
      [
        "ج",
        "ما"
      ],
      [
        "تت",
        "ضمن"
      ],
      [
        "إلي",
        "ها"
      ],
      [
        "ت",
        "وزيع"
      ],
      [
        "ور",
        "يا"
      ],
      [
        "م",
        "ود"
      ],
      [
        "نيوي",
        "ورك"
      ],
      [
        "مع",
        "دل"
      ],
      [
        "بد",
        "ون"
      ],
      [
        "استخدام",
        "ها"
      ],
      [
        "طا",
        "قة"
      ],
      [
        "أعل",
        "ن"
      ],
      [
        "الأ",
        "ل"
      ],
      [
        "الح",
        "وسبة"
      ],
      [
        "الق",
        "انون"
      ],
      [
        "الخ",
        "لي"
      ],
      [
        "الهند",
        "سة"
      ],
      [
        "الأر",
        "من"
      ],
      [
        "الم",
        "حيط"
      ],
      [
        "معالج",
        "ة"
      ],
      [
        "ي",
        "ور"
      ],
      [
        "كبير",
        "ا"
      ],
      [
        "6",
        "5"
      ],
      [
        "ر",
        "ح"
      ],
      [
        "را",
        "ص"
      ],
      [
        "الا",
        "ش"
      ],
      [
        "رسم",
        "يا"
      ],
      [
        "ظ",
        "ام"
      ],
      [
        "الم",
        "عد"
      ],
      [
        "ها",
        "ب"
      ],
      [
        "الات",
        "صالات"
      ],
      [
        "ج",
        "يم"
      ],
      [
        "الش",
        "مال"
      ],
      [
        "مث",
        "ال"
      ],
      [
        "المح",
        "لي"
      ],
      [
        "الإسلام",
        "ية"
      ],
      [
        "ك",
        "ائن"
      ],
      [
        "الد",
        "ور"
      ],
      [
        "الخام",
        "س"
      ],
      [
        "ي",
        "ظهر"
      ],
      [
        "الح",
        "قي"
      ],
      [
        "أد",
        "اء"
      ],
      [
        "ط",
        "ات"
      ],
      [
        "وال",
        "غ"
      ],
      [
        "الك",
        "برى"
      ],
      [
        "مق",
        "را"
      ],
      [
        "الم",
        "وجودة"
      ],
      [
        "200",
        "2"
      ],
      [
        "زي",
        "ز"
      ],
      [
        "جم",
        "وعات"
      ],
      [
        "ع",
        "هد"
      ],
      [
        "20",
        "20"
      ],
      [
        "الشخص",
        "ية"
      ],
      [
        "السا",
        "عة"
      ],
      [
        "وم",
        "يني"
      ],
      [
        "فا",
        "ق"
      ],
      [
        "ث",
        "اني"
      ],
      [
        "ص",
        "اح"
      ],
      [
        "دي",
        "ز"
      ],
      [
        "المج",
        "موعة"
      ],
      [
        "الجن",
        "وب"
      ],
      [
        "المح",
        "لية"
      ],
      [
        "الشر",
        "ق"
      ],
      [
        "ك",
        "مة"
      ],
      [
        "من",
        "تصف"
      ],
      [
        "خص",
        "ائص"
      ],
      [
        "الطبي",
        "عية"
      ],
      [
        "u",
        "s"
      ],
      [
        "ج",
        "يا"
      ],
      [
        "ط",
        "ن"
      ],
      [
        "للم",
        "ستخدم"
      ],
      [
        "م",
        "همة"
      ],
      [
        "r",
        "i"
      ],
      [
        "ف",
        "كرة"
      ],
      [
        "الم",
        "وقع"
      ],
      [
        "من",
        "ت"
      ],
      [
        "الأ",
        "بج"
      ],
      [
        "ما",
        "ذج"
      ],
      [
        "الع",
        "ود"
      ],
      [
        "ن",
        "اد"
      ],
      [
        "ال",
        "وحي"
      ],
      [
        "را",
        "غ"
      ],
      [
        "وب",
        "ين"
      ],
      [
        "ج",
        "ية"
      ],
      [
        "مع",
        "اد"
      ],
      [
        "بن",
        "فس"
      ],
      [
        "ب",
        "خ"
      ],
      [
        "ت",
        "سمح"
      ],
      [
        "و",
        "ديو"
      ],
      [
        "ي",
        "وفنتوس"
      ],
      [
        "الس",
        "ري"
      ],
      [
        "تي",
        "جة"
      ],
      [
[...]
