{"merges": {"101,32": 256, "115,32": 257, "105,110": 258, "97,110": 259, "116,104": 260, "100,32": 261, "101,114": 262, "97,116": 263, "111,110": 264, "101,110": 265, "111,114": 266, "97,108": 267, "116,32": 268, "44,32": 269, "258,103": 270, "114,101": 271, "260,256": 272, "116,111": 273, "97,114": 274, "259,261": 275, "121,32": 276, "270,32": 277, "97,32": 278, "116,105": 279, "46,10": 280, "273,32": 281, "111,102": 282, "46,32": 283, "101,115": 284, "105,99": 285, "114,111": 286, "282,32": 287, "115,116": 288, "45,45": 289, "101,261": 290, "111,117": 291, "99,104": 292, "101,257": 293, "117,115": 294, "262,32": 295, "264,32": 296, "101,108": 297, "105,257": 298, "267,32": 299, "99,111": 300, "109,112": 301, "258,32": 302, "259,32": 303, "105,116": 304, "263,105": 305, "97,115": 306, "266,32": 307, "101,99": 308, "97,99": 309, "101,109": 310, "112,286": 311, "117,114": 312, "108,111": 313, "105,115": 314, "101,116": 315, "100,263": 316, "108,101": 317, "97,98": 318, "289,45": 319, "105,108": 320, "263,32": 321, "319,10": 322, "97,257": 323, "105,260": 324, "265,116": 325, "100,105": 326, "84,104": 327, "115,117": 328, "118,256": 329, "109,32": 330, "109,97": 331, "102,307": 332, "115,269": 333, "280,322": 334, "274,256": 335, "115,105": 336, "112,108": 337, "265,268": 338, "97,103": 339, "279,264": 340, "99,303": 341, "111,108": 342, "101,120": 343, "300,301": 344, "118,105": 345, "98,256": 346, "265,32": 347, "99,264": 348, "117,116": 349, "114,97": 350, "263,256": 351, "114,105": 352, "305,264": 353, "265,99": 354, "260,321": 355, "100,101": 356, "108,105": 357, "292,32": 358, "108,256": 359, "100,117": 360, "111,32": 361, "316,278": 362, "117,110": 363, "334,280": 364, "267,108": 365, "119,104": 366, "258,116": 367, "111,112": 368, "257,275": 369, "327,256": 370, "305,296": 371, "110,111": 372, "115,121": 373, "119,266": 374, "288,310": 375, "119,324": 376, "99,284": 377, "109,111": 378, "113,117": 379, "102,266": 380, "117,108": 381, "269,275": 382, "373,375": 383, "271,115": 384, "109,101": 385, "102,285": 386, "257,281": 387, "112,111": 388, "110,32": 389, "119,32": 390, "112,32": 391, "105,114": 392, "115,283": 393, "116,101": 394, "376,32": 395, "97,112": 396, "108,261": 397, "110,101": 398, "118,262": 399, "112,262": 400, "290,281": 401, "97,100": 402, "265,279": 403, "107,32": 404, "257,287": 405, "256,287": 406, "117,109": 407, "115,104": 408, "99,108": 409, "360,99": 410, "273,109": 411, "291,397": 412, "105,122": 413, "99,271": 414, "291,114": 415, "116,114": 416, "121,269": 417, "105,301": 418, "259,103": 419, "100,256": 420, "103,104": 421, "97,109": 422, "258,256": 423, "288,114": 424, "105,268": 425, "317,274": 426, "313,103": 427, "304,276": 428, "260,101": 429, "103,266": 430, "279,296": 431, "283,73": 432, "344,349": 433, "116,119": 434, "279,99": 435, "266,256": 436, "101,102": 437, "302,272": 438, "58,32": 439, "300,109": 440, "118,297": 441, "99,294": 442, "104,97": 443, "318,359": 444, "108,276": 445, "328,358": 446, "430,324": 447, "99,105": 448, "119,101": 449, "446,323": 450, "65,73": 451, "286,330": 452, "98,276": 453, "267,447": 454, "115,101": 455, "44,10": 456, "102,452": 457, "380,109": 458, "115,112": 459, "308,116": 460, "98,101": 461, "386,105": 462, "426,110": 463, "115,361": 464, "101,269": 465, "101,100": 466, "108,32": 467, "116,262": 468, "291,110": 469, "312,256": 470, "313,119": 471, "311,377": 472, "259,99": 473, "394,292": 474, "112,271": 475, "107,256": 476, "285,299": 477, "111,260": 478, "354,256": 479, "268,287": 480, "442,411": 481, "104,32": 482, "109,436": 483, "100,277": 484, "100,297": 485, "103,350": 486, "266,116": 487, "339,256": 488, "265,262": 489, "392,32": 490, "101,274": 491, "115,280": 492, "45,32": 493, "116,97": 494, "285,32": 495, "316,97": 496, "102,262": 497, "267,464": 498, "111,109": 499, "367,262": 500, "341,346": 501, "284,269": 502, "117,271": 503, "115,262": 504, "372,427": 505, "100,262": 506, "103,110": 507, "109,325": 508, "294,401": 509, "441,368": 510, "277,272": 511, "334,456": 512, "451,32": 513, "283,65": 514, "105,100": 515, "311,345": 516, "374,107": 517, "267,121": 518, "298,278": 519, "109,259": 520, "118,285": 521, "429,490": 522, "383,32": 523, "256,272": 524, "118,347": 525, "97,121": 526, "463,277": 527, "378,485": 528, "285,482": 529, "99,312": 530, "109,274": 531, "293,275": 532, "104,323": 533, "474,505": 534, "99,352": 535, "282,434": 536, "443,329": 537, "408,412": 538, "103,105": 539, "283,370": 540, "291,268": 541, "97,117": 542, "110,315": 543, "97,271": 544, "115,268": 545, "415,32": 546, "121,112": 547, "366,529": 548, "63,10": 549, "102,101": 550, "326,340": 551, "292,423": 552, "287,272": 553, "283,327": 554, "262,257": 555, "112,104": 556, "284,115": 557, "308,268": 558, "104,297": 559, "104,101": 560, "409,117": 561, "312,299": 562, "98,315": 563, "333,275": 564, "32,32": 565, "259,116": 566, "98,108": 567, "259,518": 568, "356,510": 569, "98,111": 570, "111,390": 571, "481,295": 572, "326,102": 573, "112,114": 574, "284,268": 575, "306,290": 576, "100,284": 577, "109,338": 578, "432,268": 579, "365,417": 580, "115,536": 581, "259,268": 582, "348,116": 583, "279,109": 584, "100,314": 585, "115,308": 586, "419,117": 587, "294,256": 588, "226,128": 589, "117,99": 590, "274,103": 591, "257,355": 592, "284,116": 593, "97,276": 594, "107,277": 595, "258,561": 596, "314,105": 597, "100,285": 598, "263,290": 599}, "vocab": {"0": "\u0000", "1": "\u0001", "2": "\u0002", "3": "\u0003", "4": "\u0004", "5": "\u0005", "6": "\u0006", "7": "\u0007", "8": "\b", "9": "\t", "10": "\n", "11": "\u000b", "12": "\f", "13": "\r", "14": "\u000e", "15": "\u000f", "16": "\u0010", "17": "\u0011", "18": "\u0012", "19": "\u0013", "20": "\u0014", "21": "\u0015", "22": "\u0016", "23": "\u0017", "24": "\u0018", "25": "\u0019", "26": "\u001a", "27": "\u001b", "28": "\u001c", "29": "\u001d", "30": "\u001e", "31": "\u001f", "32": " ", "33": "!", "34": "\"", "35": "#", "36": "$", "37": "%", "38": "&", "39": "'", "40": "(", "41": ")", "42": "*", "43": "+", "44": ",", "45": "-", "46": ".", "47": "/", "48": "0", "49": "1", "50": "2", "51": "3", "52": "4", "53": "5", "54": "6", "55": "7", "56": "8", "57": "9", "58": ":", "59": ";", "60": "<", "61": "=", "62": ">", "63": "?", "64": "@", "65": "A", "66": "B", "67": "C", "68": "D", "69": "E", "70": "F", "71": "G", "72": "H", "73": "I", "74": "J", "75": "K", "76": "L", "77": "M", "78": "N", "79": "O", "80": "P", "81": "Q", "82": "R", "83": "S", "84": "T", "85": "U", "86": "V", "87": "W", "88": "X", "89": "Y", "90": "Z", "91": "[", "92": "\\", "93": "]", "94": "^", "95": "_", "96": "`", "97": "a", "98": "b", "99": "c", "100": "d", "101": "e", "102": "f", "103": "g", "104": "h", "105": "i", "106": "j", "107": "k", "108": "l", "109": "m", "110": "n", "111": "o", "112": "p", "113": "q", "114": "r", "115": "s", "116": "t", "117": "u", "118": "v", "119": "w", "120": "x", "121": "y", "122": "z", "123": "{", "124": "|", "125": "}", "126": "~", "127": "\u007f", "128": "\u0080", "129": "\u0081", "130": "\u0082", "131": "\u0083", "132": "\u0084", "133": "\u0085", "134": "\u0086", "135": "\u0087", "136": "\u0088", "137": "\u0089", "138": "\u008a", "139": "\u008b", "140": "\u008c", "141": "\u008d", "142": "\u008e", "143": "\u008f", "144": "\u0090", "145": "\u0091", "146": "\u0092", "147": "\u0093", "148": "\u0094", "149": "\u0095", "150": "\u0096", "151": "\u0097", "152": "\u0098", "153": "\u0099", "154": "\u009a", "155": "\u009b", "156": "\u009c", "157": "\u009d", "158": "\u009e", "159": "\u009f", "160": "\u00a0", "161": "\u00a1", "162": "\u00a2", "163": "\u00a3", "164": "\u00a4", "165": "\u00a5", "166": "\u00a6", "167": "\u00a7", "168": "\u00a8", "169": "\u00a9", "170": "\u00aa", "171": "\u00ab", "172": "\u00ac", "173": "\u00ad", "174": "\u00ae", "175": "\u00af", "176": "\u00b0", "177": "\u00b1", "178": "\u00b2", "179": "\u00b3", "180": "\u00b4", "181": "\u00b5", "182": "\u00b6", "183": "\u00b7", "184": "\u00b8", "185": "\u00b9", "186": "\u00ba", "187": "\u00bb", "188": "\u00bc", "189": "\u00bd", "190": "\u00be", "191": "\u00bf", "192": "\u00c0", "193": "\u00c1", "194": "\u00c2", "195": "\u00c3", "196": "\u00c4", "197": "\u00c5", "198": "\u00c6", "199": "\u00c7", "200": "\u00c8", "201": "\u00c9", "202": "\u00ca", "203": "\u00cb", "204": "\u00cc", "205": "\u00cd", "206": "\u00ce", "207": "\u00cf", "208": "\u00d0", "209": "\u00d1", "210": "\u00d2", "211": "\u00d3", "212": "\u00d4", "213": "\u00d5", "214": "\u00d6", "215": "\u00d7", "216": "\u00d8", "217": "\u00d9", "218": "\u00da", "219": "\u00db", "220": "\u00dc", "221": "\u00dd", "222": "\u00de", "223": "\u00df", "224": "\u00e0", "225": "\u00e1", "226": "\u00e2", "227": "\u00e3", "228": "\u00e4", "229": "\u00e5", "230": "\u00e6", "231": "\u00e7", "232": "\u00e8", "233": "\u00e9", "234": "\u00ea", "235": "\u00eb", "236": "\u00ec", "237": "\u00ed", "238": "\u00ee", "239": "\u00ef", "240": "\u00f0", "241": "\u00f1", "242": "\u00f2", "243": "\u00f3", "244": "\u00f4", "245": "\u00f5", "246": "\u00f6", "247": "\u00f7", "248": "\u00f8", "249": "\u00f9", "250": "\u00fa", "251": "\u00fb", "252": "\u00fc", "253": "\u00fd", "254": "\u00fe", "255": "\u00ff", "256": "e ", "257": "s ", "258": "in", "259": "an", "260": "th", "261": "d ", "262": "er", "263": "at", "264": "on", "265": "en", "266": "or", "267": "al", "268": "t ", "269": ", ", "270": "ing", "271": "re", "272": "the ", "273": "to", "274": "ar", "275": "and ", "276": "y ", "277": "ing ", "278": "a ", "279": "ti", "280": ".\n", "281": "to ", "282": "of", "283": ". ", "284": "es", "285": "ic", "286": "ro", "287": "of ", "288": "st", "289": "--", "290": "ed ", "291": "ou", "292": "ch", "293": "es ", "294": "us", "295": "er ", "296": "on ", "297": "el", "298": "is ", "299": "al ", "300": "co", "301": "mp", "302": "in ", "303": "an ", "304": "it", "305": "ati", "306": "as", "307": "or ", "308": "ec", "309": "ac", "310": "em", "311": "pro", "312": "ur", "313": "lo", "314": "is", "315": "et", "316": "dat", "317": "le", "318": "ab", "319": "---", "320": "il", "321": "at ", "322": "---\n", "323": "as ", "324": "ith", "325": "ent", "326": "di", "327": "Th", "328": "su", "329": "ve ", "330": "m ", "331": "ma", "332": "for ", "333": "s, ", "334": ".\n---\n", "335": "are ", "336": "si", "337": "pl", "338": "ent ", "339": "ag", "340": "tion", "341": "can ", "342": "ol", "343": "ex", "344": "comp", "345": "vi", "346": "be ", "347": "en ", "348": "con", "349": "ut", "350": "ra", "351": "ate ", "352": "ri", "353": "ation", "354": "enc", "355": "that ", "356": "de", "357": "li", "358": "ch ", "359": "le ", "360": "du", "361": "o ", "362": "data ", "363": "un", "364": ".\n---\n.\n", "365": "all", "366": "wh", "367": "int", "368": "op", "369": "s and ", "370": "The ", "371": "ation ", "372": "no", "373": "sy", "374": "wor", "375": "stem", "376": "with", "377": "ces", "378": "mo", "379": "qu", "380": "for", "381": "ul", "382": ", and ", "383": "system", "384": "res", "385": "me", "386": "fic", "387": "s to ", "388": "po", "389": "n ", "390": "w ", "391": "p ", "392": "ir", "393": "s. ", "394": "te", "395": "with ", "396": "ap", "397": "ld ", "398": "ne", "399": "ver", "400": "per", "401": "ed to ", "402": "ad", "403": "enti", "404": "k ", "405": "s of ", "406": "e of ", "407": "um", "408": "sh", "409": "cl", "410": "duc", "411": "tom", "412": "ould ", "413": "iz", "414": "cre", "415": "our", "416": "tr", "417": "y, ", "418": "imp", "419": "ang", "420": "de ", "421": "gh", "422": "am", "423": "ine ", "424": "str", "425": "it ", "426": "lear", "427": "log", "428": "ity ", "429": "the", "430": "gor", "431": "tion ", "432": ". I", "433": "comput", "434": "tw", "435": "tic", "436": "ore ", "437": "ef", "438": "in the ", "439": ": ", "440": "com", "441": "vel", "442": "cus", "443": "ha", "444": "able ", "445": "ly ", "446": "such ", "447": "gorith", "448": "ci", "449": "we", "450": "such as ", "451": "AI", "452": "rom ", "453": "by ", "454": "algorith", "455": "se", "456": ",\n", "457": "from ", "458": "form", "459": "sp", "460": "ect", "461": "be", "462": "fici", "463": "learn", "464": "so ", "465": "e, ", "466": "ed", "467": "l ", "468": "ter", "469": "oun", "470": "ure ", "471": "low", "472": "proces", "473": "anc", "474": "tech", "475": "pre", "476": "ke ", "477": "ical ", "478": "oth", "479": "ence ", "480": "t of ", "481": "custom", "482": "h ", "483": "more ", "484": "ding ", "485": "del", "486": "gra", "487": "ort", "488": "age ", "489": "ener", "490": "ir ", "491": "ear", "492": "s.\n", "493": "- ", "494": "ta", "495": "ic ", "496": "data", "497": "fer", "498": "also ", "499": "om", "500": "inter", "501": "can be ", "502": "es, ", "503": "ure", "504": "ser", "505": "nolog", "506": "der", "507": "gn", "508": "ment", "509": "used to ", "510": "velop", "511": "ing the ", "512": ".\n---\n,\n", "513": "AI ", "514": ". A", "515": "id", "516": "provi", "517": "work", "518": "aly", "519": "is a ", "520": "man", "521": "vic", "522": "their ", "523": "system ", "524": "e the ", "525": "ven ", "526": "ay", "527": "learning ", "528": "model", "529": "ich ", "530": "cur", "531": "mar", "532": "es and ", "533": "has ", "534": "technolog", "535": "cri", "536": "oftw", "537": "have ", "538": "should ", "539": "gi", "540": ". The ", "541": "out ", "542": "au", "543": "net", "544": "are", "545": "st ", "546": "our ", "547": "yp", "548": "which ", "549": "?\n", "550": "fe", "551": "dition", "552": "chine ", "553": "of the ", "554": ". Th", "555": "ers ", "556": "ph", "557": "ess", "558": "ect ", "559": "hel", "560": "he", "561": "clu", "562": "ural ", "563": "bet", "564": "s, and ", "565": "  ", "566": "ant", "567": "bl", "568": "analy", "569": "develop", "570": "bo", "571": "ow ", "572": "customer ", "573": "dif", "574": "pr", "575": "est ", "576": "ased ", "577": "des", "578": "ment ", "579": ". It ", "580": "ally, ", "581": "softw", "582": "ant ", "583": "cont", "584": "tim", "585": "dis", "586": "sec", "587": "angu", "588": "use ", "589": "\u00e2\u0080", "590": "uc", "591": "arg", "592": "s that ", "593": "est", "594": "ay ", "595": "king ", "596": "inclu", "597": "isi", "598": "dic", "599": "ated "}}