<pad>	0
<unk>	0
<s>	0
</s>	0
▁في	-3.39401
▁	-3.65421
.	-3.6577
،	-3.76615
▁من	-4.14168
ة	-4.37569
▁و	-4.44948
▁ال	-4.7501
▁علي	-4.82689
ه	-4.93002
ا	-4.93916
▁السعودية	-4.99799
ات	-5.01295
▁لاعبو	-5.06988
ي	-5.08207
▁(	-5.08579
▁ب	-5.14585
)	-5.23792
▁الي	-5.25345
ت	-5.30077
ها	-5.34259
▁عام	-5.35084
▁ل	-5.38425
ية	-5.42835
ون	-5.62776
▁كرة	-5.63168
م	-5.63399
▁العربية	-5.64587
▁وال	-5.67776
▁قدم	-5.69918
▁بن	-5.72149
:	-5.75127
ين	-5.77027
▁نادي	-5.81802
▁ان	-5.95404
▁مع	-5.98766
▁لل	-5.99159
▁المملكة	-6.02374
▁عن	-6.05554
▁ت	-6.0761
▁او	-6.0772
▁هو	-6.11446
▁عبد	-6.11887
▁م	-6.17614
▁مغتربون	-6.21753
▁التي	-6.22578
▁مواليد	-6.24524
▁مراجع	-6.28354
▁ايضا	-6.32341
▁جامعة	-6.33569
▁منطقة	-6.35036
▁هي	-6.37008
▁السعودي	-6.37528
▁بال	-6.40085
▁ي	-6.40854
▁الم	-6.42682
▁-	-6.45228
▁«	-6.526
▁بين	-6.52936
ان	-6.53248
ال	-6.53971
▁بعد	-6.56131
ن	-6.62787
و	-6.63252
▁خارجية	-6.63779
▁حيث	-6.64825
▁تم	-6.6532
▁المراجع	-6.65514
▁ه	-6.65831
▁ما	-6.67232
▁اشخاص	-6.69453
▁سنة	-6.71566
▁محمد	-6.74553
▁المتحدة	-6.75115
▁الذي	-6.76175
▁كان	-6.76966
▁مدينة	-6.772
▁الملك	-6.77671
▁انظر	-6.79688
▁رجالية	-6.8114
▁كما	-6.82257
▁سعوديون	-6.83005
»	-6.84224
▁دوري	-6.84381
▁ثم	-6.8646
▁الرياض	-6.86957
▁ا	-6.87263
▁القرن	-6.87549
-	-6.90094
▁القدم	-6.90537
▁محافظة	-6.91873
ز	-6.92639
▁الحياة	-6.93333
▁شركة	-6.95196
▁وهي	-6.96736
▁قبل	-6.97036
▁هذه	-6.97811
▁الاولي	-6.9826
▁العزيز	-6.98422
ب	-6.99336
▁سعود	-7.0057
▁خلال	-7.04108
▁احد	-7.05647
لكرة	-7.06105
د	-7.06158
وا	-7.0667
ما	-7.06848
▁وت	-7.07487
▁الله	-7.07522
).	-7.0778
هم	-7.08225
▁وهو	-7.09171
▁وقد	-7.09785
▁هذا	-7.10888
▁مركز	-7.12111
▁ك	-7.13211
ل	-7.13879
حتي	-7.14565
▁ذلك	-7.14755
▁عدد	-7.14988
▁،	-7.15137
▁اي	-7.17225
▁قيد	-7.17553
▁لا	-7.17594
▁وصلات	-7.17853
▁وفي	-7.18105
▁الدرجة	-7.18986
السعودية	-7.19165
▁البيانات	-7.19268
▁كل	-7.19807
▁وا	-7.20573
▁مجلس	-7.21733
▁تاريخ	-7.21982
▁رياضيون	-7.23826
▁مثل	-7.24892
▁شركات	-7.26333
▁قايمة	-7.28016
▁كاس	-7.28192
▁وي	-7.3034
س	-7.30833
▁الا	-7.33604
▁غير	-7.33641
▁كانت	-7.34926
▁كلية	-7.3559
ق	-7.35702
▁قرية	-7.3663
▁العالم	-7.37245
▁20	-7.37528
▁تقع	-7.37565
▁سعودي	-7.37817
▁وم	-7.37893
▁الدوري	-7.39067
▁اول	-7.39466
▁عمل	-7.3993
▁المنطقة	-7.40859
▁سعودية	-7.42456
▁ومن	-7.43013
▁وادي	-7.43228
اء	-7.43821
)،	-7.4514
▁رييس	-7.45197
ك	-7.45579
▁مجموعة	-7.45639
▁ادارة	-7.45774
▁العام	-7.45813
/	-7.45878
▁الموقع	-7.46469
▁المدينة	-7.46483
▁العامة	-7.47157
▁العلوم	-7.47273
▁لاعب	-7.47483
▁اكثر	-7.49135
ف	-7.49503
ر	-7.50552
يا	-7.50737
▁لم	-7.50867
ته	-7.50899
▁تاسيس	-7.5181
▁موقع	-7.52125
▁العديد	-7.53089
▁منتخب	-7.53213
ع	-7.54082
▁العربي	-7.54099
▁جنوب	-7.54589
▁والم	-7.55401
▁جدة	-7.55628
,	-7.55767
▁الولايات	-7.56026
▁كم	-7.56045
▁جازان	-7.56814
ح	-7.56951
▁يتم	-7.57105
▁الثانية	-7.57238
▁الاتحاد	-7.5751
▁كتاب	-7.58629
▁21	-7.58734
▁وزارة	-7.58834
▁الاول	-7.58999
▁روابط	-7.59708
▁ف	-7.59982
s	-7.60017
▁التقنية	-7.60385
▁بعض	-7.61166
▁منذ	-7.63098
▁"	-7.64548
ش	-7.64959
▁العاب	-7.65007
▁العمل	-7.65829
▁مكة	-7.67054
▁سي	-7.67322
▁الف	-7.67754
▁خريجو	-7.67995
▁الشركة	-7.68277
▁يمكن	-7.68296
▁المعلومات	-7.68746
▁اسست	-7.69976
يات	-7.70399
▁ام	-7.70408
▁طريق	-7.707
▁الامير	-7.70705
▁يقع	-7.7088
▁بها	-7.71563
نا	-7.72143
▁جميع	-7.72598
تها	-7.72759
▁متر	-7.72876
▁له	-7.72881
▁مصر	-7.73388
▁ن	-7.74114
▁التعليم	-7.75122
▁عضو	-7.75736
▁تحت	-7.76199
▁ولد	-7.77395
ص	-7.77537
▁وكان	-7.7928
▁منها	-7.79538
▁مجال	-7.79946
▁18	-7.80009
▁الشرقية	-7.80053
▁انه	-7.80482
▁المركز	-7.81347
▁والتي	-7.81715
▁الامريكية	-7.81726
نادي	-7.81891
▁احمد	-7.82268
▁بشكل	-7.82453
▁الشيخ	-7.82503
▁المنورة	-7.82541
▁ابو	-7.82566
▁علم	-7.82567
▁اعضاء	-7.83249
▁وفيات	-7.83596
▁لدي	-7.83838
ط	-7.84259
▁ذات	-7.84303
▁درجة	-7.84829
▁غرب	-7.85282
▁الع	-7.85732
▁لعب	-7.85784
▁الوطني	-7.8656
▁3	-7.86668
▁الخليج	-7.86689
▁الدولي	-7.8698
▁الكويت	-7.87056
▁1	-7.87375
ار	-7.87906
▁قسم	-7.88177
٬	-7.88418
اب	-7.88748
▁الاسلامية	-7.8876
يل	-7.89212
▁اخري	-7.89412
غ	-7.89502
خ	-7.89719
"	-7.90131
▁مدربو	-7.9103
▁قري	-7.91346
▁قد	-7.9153
▁:	-7.91629
▁مصادر	-7.92071
▁–	-7.92108
▁با	-7.92152
▁حصل	-7.92357
▁برنامج	-7.92913
▁الجامعة	-7.92919
▁هيية	-7.93439
ج	-7.94276
▁شمال	-7.94531
▁عدة	-7.94629
▁عين	-7.94792
ور	-7.95162
▁اعمال	-7.95276
▁الالعاب	-7.95306
▁الت	-7.96758
بي	-7.96914
▁يوم	-7.96995
▁نظام	-7.97365
؛	-7.97656
▁حوالي	-7.97786
▁2016	-7.97941
▁المحترفين	-7.98401
منطقة	-7.98773
▁حول	-7.98892
▁الدولية	-7.9914
▁اسيا	-7.99235
▁الشرق	-7.99324
e	-7.99378
▁4	-7.99608
▁لها	-7.99619
▁الوطنية	-8.00564
▁حسب	-8.00746
▁افلام	-8.01432
تين	-8.01951
▁بالاضاف	-8.02069
▁الاحساء	-8.02105
ذلك	-8.02388
▁امريكيون	-8.02549
▁2019	-8.02674
▁المكرمة	-8.02928
▁بي	-8.02938
▁ع	-8.02965
▁5	-8.0312
في	-8.03286
▁2018	-8.03589
▁اكبر	-8.03804
▁2015	-8.03826
▁حاليا	-8.04032
▁مواقع	-8.04886
▁التاريخ	-8.051
▁2020	-8.05759
▁ضمن	-8.05821
▁مليون	-8.05907
▁يناير	-8.06326
▁فهد	-8.06843
▁2017	-8.06865
▁الامارات	-8.07028
▁الاعمال	-8.07112
».	-8.07422
ام	-8.07571
▁باسم	-8.08343
▁2011	-8.08664
▁وسط	-8.08892
▁6	-8.09197
▁الان	-8.09866
▁10	-8.09969
▁2	-8.10268
▁عشر	-8.10303
▁بيانات	-8.10393
▁جايزة	-8.10503
▁2010	-8.10609
▁فيها	-8.1063
▁يلعب	-8.10874
▁العالمية	-8.10968
▁دي	-8.11121
▁بدا	-8.11143
▁عبر	-8.11198
▁انتقل	-8.11512
جامعة	-8.11783
▁عند	-8.11835
▁شارك	-8.12447
▁التابعة	-8.12515
▁12	-8.12728
▁جبل	-8.1275
دي	-8.13237
▁الخارجية	-8.13286
▁13	-8.1331
▁خالد	-8.14111
▁معهد	-8.14251
لي	-8.14318
▁فيصل	-8.15049
▁2014	-8.15205
▁الخدمات	-8.15457
▁النادي	-8.15647
▁اس	-8.15681
▁اكتوبر	-8.15737
▁منصب	-8.15931
▁تطوير	-8.16512
▁مارس	-8.16623
▁واحد	-8.17011
بر	-8.1771
▁والتكنولوجيا	-8.17759
▁الدول	-8.18349
▁اماكن	-8.18523
مقرها	-8.18616
▁الثاني	-8.18907
▁عسير	-8.19027
ود	-8.19089
تي	-8.19767
▁التكنولوجيا	-8.19768
▁بني	-8.19831
▁العلمية	-8.20002
▁قطر	-8.20362
▁وزير	-8.20362
▁2008	-8.20535
يس	-8.20583
من	-8.20637
▁للعلوم	-8.20751
▁سبتمبر	-8.20774
▁2021	-8.2109
▁س	-8.21547
▁2013	-8.21864
▁2012	-8.21889
▁الجزيرة	-8.2201
▁اما	-8.22483
ير	-8.22787
▁ديسمبر	-8.22959
وي	-8.23143
▁الشمالية	-8.23299
▁خط	-8.2338
▁دار	-8.23402
▁بطولة	-8.23435
▁مايو	-8.2344
▁يكون	-8.23452
▁للم	-8.23712
▁2009	-8.23943
▁الانترنت	-8.24275
▁وب	-8.24297
▁لي	-8.24309
▁المصادر	-8.24413
اد	-8.24949
▁7	-8.25214
▁هناك	-8.25428
▁الحدود	-8.25523
مجلة	-8.25624
▁العراق	-8.25698
يون	-8.25837
▁اسم	-8.25956
▁اليمن	-8.2603
▁اثار	-8.26109
▁العلمي	-8.26659
ول	-8.2716
ض	-8.27504
▁داخل	-8.28034
▁الشباب	-8.28121
▁الهندسة	-8.28153
▁شرق	-8.28164
▁احداث	-8.28365
a	-8.28369
سي	-8.29051
يد	-8.29085
▁15	-8.29092
▁استخدام	-8.29275
جمهورية	-8.29329
▁الاخري	-8.29333
▁مشروع	-8.29341
▁سابقا	-8.29464
▁تاسست	-8.2964
اق	-8.30034
▁به	-8.30225
▁يونيو	-8.30764
▁ج	-8.30806
▁اللغة	-8.30877
▁الخاصة	-8.3103
▁اللاعب	-8.31289
▁والذي	-8.31292
اس	-8.31675
▁الرحمن	-8.31679
بة	-8.31842
▁2007	-8.32019
▁يوليو	-8.32112
▁عليه	-8.32478
▁ولكن	-8.32781
▁/	-8.32943
اني	-8.33398
▁ابن	-8.33442
▁الش	-8.33638
▁حي	-8.3373
يب	-8.33889
▁بما	-8.34771
▁قام	-8.34917
▁11	-8.35027
▁فان	-8.35062
▁انها	-8.3539
▁عقد	-8.35464
▁بناء	-8.35726
ني	-8.35776
اف	-8.36023
▁البحر	-8.36051
▁الرسمي	-8.361
▁عندما	-8.36125
▁الن	-8.36182
مدينة	-8.36279
جي	-8.36453
▁بسبب	-8.36695
▁17	-8.36788
▁اصل	-8.36802
▁د	-8.36809
▁منظمات	-8.37041
وس	-8.3712
▁التعاون	-8.37377
▁الطاقة	-8.37442
▁الدولة	-8.37446
▁البحرين	-8.37462
▁القصيم	-8.37595
▁المسجد	-8.37702
▁مدرسة	-8.38072
ذ	-8.38097
▁نوفمبر	-8.38566
▁تكون	-8.38672
▁علوم	-8.38726
▁دولة	-8.38751
▁16	-8.38765
▁المجلس	-8.39098
شوون	-8.39199
▁سنوات	-8.3929
▁تراث	-8.39471
▁مدير	-8.39498
▁2005	-8.39516
▁العرب	-8.3958
▁الاوسط	-8.39601
▁ش	-8.39662
بلغ	-8.40018
2	-8.40116
ث	-8.40165
▁2004	-8.40185
وف	-8.40232
▁انشاء	-8.40244
▁الجمعية	-8.40303
▁الرييس	-8.40454
▁اغسطس	-8.40475
▁بالمملكة	-8.40584
▁ماهولة	-8.41002
▁فبراير	-8.41233
▁اخر	-8.41463
▁8	-8.41502
▁نحو	-8.41535
اج	-8.41542
▁ابراهيم	-8.41629
▁المجموعة	-8.41635
▁علماء	-8.41698
لا	-8.41956
▁2006	-8.41983
▁العالمي	-8.41992
▁مسجد	-8.42287
▁شهر	-8.42445
▁سلمان	-8.42445
▁الجنوبية	-8.42518
▁الاردن	-8.42601
▁عمان	-8.42607
▁يوجد	-8.42675
▁العلاقات	-8.42921
▁ابريل	-8.43031
▁عرض	-8.43179
»،	-8.43677
▁البحث	-8.4421
▁واحدة	-8.44714
جمعية	-8.44997
▁كتب	-8.45259
▁موسم	-8.4536
▁افريقيا	-8.45625
▁عليها	-8.45848
▁الهلال	-8.46012
▁سكان	-8.46027
▁1990	-8.46181
▁وكذلك	-8.46352
▁الاسلامي	-8.46853
▁2022	-8.46937
يف	-8.47362
1	-8.47372
▁كبير	-8.4746
▁برامج	-8.47513
▁عالم	-8.47764
▁9	-8.47976
▁مستوي	-8.48033
▁يبلغ	-8.48036
لمدة	-8.48139
اح	-8.48186
▁انواع	-8.48869
▁2000	-8.48884
وب	-8.48912
▁فريق	-8.49031
▁جبال	-8.49235
▁خاصة	-8.49279
p	-8.49502
▁مرة	-8.49926
▁النصر	-8.50374
y	-8.50831
▁الج	-8.51096
▁المعهد	-8.51719
▁نشر	-8.51759
3	-8.51938
▁الفترة	-8.51996
▁الارض	-8.52356
شي	-8.52689
▁الامام	-8.52923
▁الجنوب	-8.52924
▁والا	-8.52929
▁عملية	-8.52983
▁حياته	-8.53459
▁انتاج	-8.53642
▁مما	-8.54137
▁الحرب	-8.5457
▁المانيا	-8.54595
▁الب	-8.54958
▁المياه	-8.55025
▁والتقنية	-8.55151
▁الممتاز	-8.55618
▁تقنية	-8.5563
يه	-8.55771
▁خدمات	-8.55924
▁المالية	-8.56367
▁برازيليون	-8.56369
▁لعبة	-8.56826
▁اضاف	-8.56834
▁2001	-8.569
▁الس	-8.56904
▁الوقت	-8.56943
▁تلك	-8.57024
▁السكان	-8.57089
▁العاصمة	-8.57324
▁تستخدم	-8.57439
▁وتم	-8.57457
▁الحاسوب	-8.5762
▁موسسة	-8.57916
▁الهيية	-8.583
▁الادارة	-8.58371
▁دورة	-8.58419
▁فقط	-8.58552
▁بم	-8.58634
▁الرييسي	-8.58817
يم	-8.59045
▁عمر	-8.59244
▁1994	-8.59273
▁ار	-8.59425
▁صدر	-8.59436
كو	-8.59607
▁افضل	-8.59678
▁العليا	-8.59725
▁بعدها	-8.59738
▁التراث	-8.59793
▁1999	-8.5992
▁1992	-8.60029
تر	-8.60197
▁صالح	-8.60204
▁القديمة	-8.60244
▁نفس	-8.60255
▁الدفاع	-8.604
▁قاعدة	-8.60478
▁نباتات	-8.6053
▁ح	-8.60561
▁سد	-8.60714
▁الموافق	-8.60899
▁تعتبر	-8.61216
▁الاجتماعي	-8.61282
▁(19	-8.61661
مواليد	-8.6172
▁الرياضية	-8.61829
▁الاسيوية	-8.61836
▁رقم	-8.61849
▁طول	-8.61853
▁وكانت	-8.62155
وم	-8.62291
▁مهندس	-8.62322
▁يعد	-8.62386
▁الاهلي	-8.62472
(	-8.62709
▁وجود	-8.62802
نسبة	-8.62811
▁30	-8.63045
▁نقل	-8.63233
▁1997	-8.63353
▁2003	-8.63445
با	-8.63508
▁مربع	-8.63566
▁دول	-8.63721
▁ممثل	-8.63736
▁دور	-8.63932
▁ق	-8.64067
بل	-8.64083
▁ريال	-8.64395
وت	-8.64492
▁14	-8.64684
▁قصر	-8.64988
▁المدرسة	-8.65001
▁القرية	-8.65383
▁كبيرة	-8.65421
▁يعمل	-8.65546
▁الجوية	-8.65551
▁القاهرة	-8.65637
▁دولار	-8.65784
▁S	-8.65915
جر	-8.65979
▁ثلاثة	-8.66008
او	-8.66246
اك	-8.66259
▁19	-8.66375
▁منظمة	-8.66444
▁شهادة	-8.66465
▁ولاية	-8.66527
▁الاسلام	-8.66547
▁نوع	-8.66569
مة	-8.6657
▁الحكومية	-8.66764
▁خ	-8.66947
▁شعراء	-8.6709
▁الاصطناعي	-8.67152
▁راس	-8.67172
▁النظام	-8.6728
▁25	-8.67339
▁ضد	-8.67389
ست	-8.67526
▁of	-8.67768
▁دولية	-8.67771
▁جي	-8.67774
▁تاريخية	-8.67888
▁توفي	-8.67941
▁الق	-8.67971
▁يعتبر	-8.67994
▁الشمال	-8.68053
▁الطريق	-8.68097
▁نسمة	-8.68181
يين	-8.68305
4	-8.68409
t	-8.68651
▁الاحمر	-8.68678
▁شعبية	-8.68707
C	-8.68769
▁ست	-8.68866
حصول	-8.68925
▁الطبية	-8.68987
▁الصين	-8.69788
▁للشباب	-8.69849
▁الكلية	-8.6989
▁قناة	-8.7026
رك	-8.70279
▁1995	-8.70294
▁جامعات	-8.70371
▁وقت	-8.70378
▁الخ	-8.70427
▁المناطق	-8.70498
▁بواسطة	-8.70695
▁A	-8.70703
▁الامن	-8.70766
o	-8.70828
▁مختلفة	-8.70946
▁مت	-8.71105
اعادة	-8.71271
▁تعمل	-8.71408
▁البحرية	-8.71859
سلسلة	-8.71896
▁1993	-8.71994
▁غ	-8.72094
▁الدراسات	-8.72294
▁1988	-8.72365
▁شبكة	-8.72488
▁ايران	-8.7255
P	-8.72567
لو	-8.72572
▁الطايف	-8.72655
▁فرنسا	-8.72795
▁الصناعية	-8.72811
▁باستخدام	-8.72926
▁عربية	-8.72929
▁عاما	-8.72962
▁القوات	-8.73135
▁القران	-8.73141
▁اجل	-8.73197
▁تنظيم	-8.73272
▁اهم	-8.73545
▁فقد	-8.73631
▁سوق	-8.73646
▁نجران	-8.73708
▁تدريس	-8.73718
▁ولا	-8.73757
▁مساحة	-8.73806
▁اهداف	-8.73816
▁العسكرية	-8.74003
b	-8.74323
▁الامم	-8.74336
▁الامريكي	-8.7437
l	-8.74394
▁الثالث	-8.74653
A	-8.74767
▁الشركات	-8.75041
جا	-8.75182
ظ	-8.75372
▁التجارية	-8.75498
سل	-8.7575
▁المشروع	-8.75808
er	-8.76009
▁حسن	-8.7602
يك	-8.76159
▁لجنة	-8.76313
▁وعلي	-8.7636
▁اليوم	-8.76543
▁1996	-8.76769
▁ر	-8.76946
يت	-8.77019
▁مبني	-8.7705
▁الحكومة	-8.77154
▁تقديم	-8.77333
▁اللجنة	-8.77348
▁C	-8.7739
▁شكل	-8.77474
▁هندسة	-8.77498
صناعة	-8.77506
▁وبعد	-8.77735
▁لعام	-8.77765
▁الاكاديمية	-8.78177
▁وغيرها	-8.78358
قر	-8.78369
▁عهد	-8.78428
▁وزراء	-8.78637
كس	-8.78751
▁عبارة	-8.79068
▁مدارس	-8.79125
مان	-8.7918
▁2002	-8.79333
▁يقوم	-8.79372
▁الاتصالات	-8.79497
▁اثناء	-8.79501
▁شبه	-8.79523
S	-8.79586
▁مسيرة	-8.79606
M	-8.79618
▁البرنامج	-8.79651
اع	-8.7971
▁الكتاب	-8.79758
▁الاجتماعية	-8.79828
▁سن	-8.79856
i	-8.79945
▁شغل	-8.80063
▁المت	-8.80072
▁اجهزة	-8.80129
▁الرياضي	-8.80151
▁ثلاث	-8.80245
▁لبنان	-8.80294
▁جانب	-8.80389
▁الصحية	-8.80634
▁اصبح	-8.80718
▁التاريخية	-8.80792
▁1998	-8.80797
▁حاصل	-8.80962
c	-8.81299
▁الثالثة	-8.81358
▁الدين	-8.81523
▁بنت	-8.81601
الي	-8.8166
▁فترة	-8.8168
▁مدن	-8.81718
▁لت	-8.81754
▁معرض	-8.81833
▁تونس	-8.82031
▁حايل	-8.82061
▁بدات	-8.82116
كي	-8.82196
▁الجزء	-8.82241
▁نجد	-8.82383
▁المن	-8.82594
▁الاعلام	-8.82748
▁والت	-8.82808
▁مناطق	-8.82882
فا	-8.82979
▁لكن	-8.83046
▁بان	-8.83064
▁النهايي	-8.83141
كل	-8.8319
▁المجتمع	-8.83224
تس	-8.83248
▁السابق	-8.83282
▁الغربي	-8.83409
▁السوق	-8.83623
▁عمليات	-8.83786
بت	-8.83923
▁الد	-8.84154
▁الغ	-8.84401
▁المتحف	-8.84478
▁الكثير	-8.84501
▁الاولمبية	-8.84532
▁مختلف	-8.8455
▁ص	-8.8465
▁مراكز	-8.84792
▁الحيوية	-8.85036
▁امريكي	-8.85066
الم	-8.85206
▁الشرقي	-8.85223
يو	-8.85255
▁يستخدم	-8.85315
▁متاحف	-8.85531
▁البطولة	-8.85546
▁اتحاد	-8.8563
فر	-8.85758
▁الانسان	-8.85882
▁دبي	-8.85924
▁الاسم	-8.85978
▁كيلو	-8.85997
▁الح	-8.8605
▁الفريق	-8.86361
▁B	-8.86364
▁ومع	-8.86457
▁المغرب	-8.86494
▁نايب	-8.86597
▁وان	-8.86733
▁حكومية	-8.86761
قي	-8.86999
▁بتاريخ	-8.87122
▁باللغة	-8.87155
▁الملكية	-8.87278
▁برمجيات	-8.87299
L	-8.87339
▁لندن	-8.8738
▁الواقعة	-8.87466
▁حدود	-8.87486
وز	-8.87495
كر	-8.87541
▁تعد	-8.87581
▁1991	-8.87607
نهاية	-8.87662
5	-8.87728
▁تابعة	-8.87912
▁1984	-8.87998
▁العالي	-8.88067
▁لكل	-8.88352
ی	-8.88674
▁تصميم	-8.88784
▁تقوم	-8.88855
▁ابحاث	-8.89032
▁22	-8.89083
▁100	-8.89119
▁الانجليزية	-8.89481
T	-8.8951
▁متحف	-8.89592
▁فاز	-8.89596
▁حسين	-8.89762
▁الكريم	-8.89804
▁حرب	-8.89809
▁الك	-8.89912
يق	-8.89997
▁عاد	-8.90007
▁الثقافي	-8.90086
▁المنتخب	-8.90158
u	-8.90271
▁تي	-8.90352
▁تبوك	-8.90358
▁اثرية	-8.90387
▁جوايز	-8.9043
▁بالم	-8.90476
وج	-8.90507
▁الوصول	-8.90523
▁بير	-8.90624
مي	-8.90814
▁دون	-8.9094
▁دراسة	-8.9097
سفراء	-8.90992
▁تقدم	-8.91012
▁المع	-8.91094
▁خدمة	-8.91154
▁الالكترونية	-8.9143
ء	-8.91542
▁وله	-8.91549
▁24	-8.91562
▁تركيا	-8.918
▁2023	-8.91887
▁23	-8.92048
▁تقريبا	-8.9214
6	-8.92163
▁المان	-8.92229
▁امام	-8.92301
▁امريكية	-8.92436
▁)	-8.92515
▁تشمل	-8.9276
▁الكمبيوتر	-8.92928
▁مسلسل	-8.9294
▁عادة	-8.92981
n	-8.93036
تميز	-8.93094
▁الغربية	-8.93094
ولد	-8.93126
▁تكنولوجيا	-8.93192
▁الطب	-8.93233
اري	-8.93282
▁است	-8.93441
تان	-8.93664
▁وسام	-8.93757
▁الادارية	-8.93759
▁ابها	-8.93813
▁قبيلة	-8.93971
▁مر	-8.94035
▁تضم	-8.94191
دا	-8.94233
▁الص	-8.94287
▁الفنية	-8.94291
▁الدكتور	-8.94313
«	-8.94374
▁المحلية	-8.94491
▁سجل	-8.94499
▁الثانوية	-8.94631
▁1986	-8.94666
▁القري	-8.94896
▁الرييسية	-8.94925
▁اشهر	-8.95099
▁1980	-8.95278
▁مكتب	-8.95439
▁قال	-8.95479
رس	-8.95517
▁اذا	-8.95751
▁الجزاير	-8.95806
▁سعد	-8.95856
لة	-8.95911
▁اف	-8.95982
▁وفقا	-8.96022
▁القصر	-8.96201
فل	-8.96307
جل	-8.96324
▁يحتوي	-8.96354
زي	-8.96427
▁الوزراء	-8.96438
▁الجيش	-8.96453
▁تبعد	-8.96517
▁وضع	-8.96517
G	-8.96722
ري	-8.96791
▁الحرمين	-8.96831
▁العين	-8.96955
▁الاقتصادية	-8.972
▁سوريا	-8.97495
▁27	-8.97495
▁الدكتوراه	-8.97542
▁الحج	-8.97713
▁1982	-8.98098
▁الجهاز	-8.98246
▁خارج	-8.98319
▁مباراة	-8.98372
▁فيديو	-8.98493
▁1989	-8.98605
رو	-8.98705
غا	-8.98801
دو	-8.98814
▁اليابان	-8.98931
احدي	-8.98934
▁فرع	-8.99076
ادارة	-8.99208
سمح	-8.99259
▁اقيم	-8.99261
▁تحديد	-8.99288
▁سلطان	-8.99498
را	-8.99615
هر	-9.00043
▁ول	-9.00065
▁تركي	-9.00095
حي	-9.00145
▁تعليمية	-9.00156
هما	-9.00173
7	-9.00183
I	-9.00185
دل	-9.00388
r	-9.00419
▁معلومات	-9.00714
▁خادم	-9.00858
كت	-9.00926
▁العلم	-9.01268
يش	-9.01296
▁الماجستير	-9.01497
▁المختلفة	-9.015
▁القايمة	-9.01616
▁متعددة	-9.01645
B	-9.01768
▁البكالوريوس	-9.01888
–	-9.0189
رغم	-9.01896
▁الاتفاق	-9.01922
ران	-9.01978
▁الخاص	-9.01997
▁الذكاء	-9.02061
▁والتعليم	-9.02076
▁1985	-9.02084
▁وتبعد	-9.02101
▁السلة	-9.0211
▁كاتب	-9.02112
▁التربية	-9.02229
▁امير	-9.02274
g	-9.02284
▁الداخلية	-9.0234
بو	-9.02345
▁السد	-9.02594
▁حين	-9.0274
لشركة	-9.02795
▁الصيفية	-9.0283
h	-9.02868
▁بداية	-9.02886
حاء	-9.03087
▁حكومة	-9.03093
▁مترا	-9.03109
▁عربي	-9.03132
زا	-9.03143
▁اسبانيا	-9.03243
مر	-9.03266
نت	-9.0345
al	-9.03476
▁جمع	-9.03481
سون	-9.03495
▁السنة	-9.03517
▁امن	-9.03604
▁عمارة	-9.03684
▁الجبل	-9.03692
m	-9.03716
▁يد	-9.03776
▁البرامج	-9.03847
وان	-9.0388
▁امارة	-9.03886
▁درس	-9.03916
▁مكان	-9.03918
▁فلسطين	-9.03999
اط	-9.04079
قوايم	-9.04431
▁الطيران	-9.04431
▁مصريون	-9.04444
لمحافظة	-9.04497
اش	-9.04591
▁الادب	-9.0474
▁اعلي	-9.04827
▁سابق	-9.04845
▁مسيرته	-9.04897
نف	-9.0507
▁مياه	-9.05195
▁26	-9.05255
▁سطح	-9.05511
كم	-9.05585
E	-9.05748
حد	-9.0589
▁صحيفة	-9.05908
▁حمد	-9.06106
▁الشخصية	-9.06211
جو	-9.0625
قامت	-9.06251
▁عضوا	-9.06259
▁رياضية	-9.06578
▁المراة	-9.06654
▁النفط	-9.06697
▁الاميرة	-9.06866
▁التنفيذي	-9.06881
▁الشريفين	-9.07014
▁البلاد	-9.07051
▁تولي	-9.07086
▁الوحدة	-9.07136
▁لاول	-9.07236
▁اذ	-9.07268
▁معظم	-9.07281
▁تصنيف	-9.07417
▁جو	-9.07433
▁تحتوي	-9.07521
▁مطار	-9.07596
▁قواعد	-9.07779
▁محطة	-9.07814
لف	-9.07826
▁الثقافة	-9.07908
▁بل	-9.07943
فو	-9.07978
▁M	-9.08002
▁بيشة	-9.08015
▁العملية	-9.08031
▁50	-9.08094
▁باكستان	-9.08217
رة	-9.08293
▁تحقيق	-9.08302
▁الوادي	-9.08333
▁القديم	-9.08345
روساء	-9.08411
▁28	-9.08433
▁اللعبة	-9.08443
يوم	-9.08553
▁نطاق	-9.08575
▁P	-9.086
▁المواد	-9.08627
▁ارتفاع	-9.08632
رد	-9.08784
▁سم	-9.0896
▁المصري	-9.08979
بير	-9.09007
در	-9.09055
▁H	-9.09129
▁جديدة	-9.09133
▁الحجاز	-9.09354
▁وحصل	-9.09356
▁العهد	-9.09412
D	-9.09534
▁الغرب	-9.09613
▁حقوق	-9.09617
▁يصل	-9.09703
▁عالية	-9.09825
▁فيلم	-9.09931
▁للا	-9.09937
▁خاص	-9.09942
▁الصحة	-9.10062
▁الدمام	-9.10192
فت	-9.10207
وري	-9.10378
▁وقع	-9.10535
▁كاليفورنيا	-9.10588
▁ابي	-9.1059
▁الشعر	-9.10787
▁ناصر	-9.10789
▁الدبلوماسية	-9.10793
▁الاثار	-9.10904
▁مجالات	-9.10993
▁اليمنية	-9.11051
▁وما	-9.11127
▁انظمة	-9.11163
▁سعيد	-9.11204
▁الاقتصاد	-9.11421
d	-9.11527
▁الوصف	-9.11678
▁يو	-9.11678
▁بلغ	-9.11728
كلية	-9.11825
دين	-9.11854
▁فوق	-9.11871
▁الطبيعية	-9.11886
بار	-9.11992
▁الرابعة	-9.12125
▁مهرجان	-9.12334
▁1987	-9.12396
▁الشكل	-9.12442
▁التجارة	-9.12477
▁النوع	-9.12506
▁الملكي	-9.12602
▁الالي	-9.12685
▁1979	-9.12797
O	-9.12921
▁حل	-9.12929
▁النقل	-9.1295
هدف	-9.13008
▁السياسية	-9.13077
▁الفضاء	-9.1312
▁صور	-9.13234
▁اربعة	-9.13261
طر	-9.13261
اث	-9.1333
▁عسكرية	-9.134
▁سفارة	-9.13422
▁الاثرية	-9.1347
▁حاسوب	-9.1349
▁والعلوم	-9.13525
▁الحديثة	-9.13691
اوي	-9.13758
▁اصحاب	-9.13764
▁حالة	-9.1391
▁علمية	-9.13952
القرب	-9.1403
▁مقر	-9.14077
دار	-9.14081
امي	-9.1423
▁الاف	-9.14316
▁الخدمة	-9.1436
▁تطبيق	-9.14402
▁البناء	-9.1444
▁صغيرة	-9.14584
▁وس	-9.14668
▁تسمي	-9.14805
▁التالية	-9.14829
رعاية	-9.14877
▁تعليم	-9.14966
▁T	-9.15239
▁الهند	-9.15245
▁المرحلة	-9.15278
يقع	-9.15354
▁اسراييل	-9.15388
ايل	-9.15487
▁الجهة	-9.15554
▁الامر	-9.15574
▁الانتاج	-9.15645
نة	-9.15658
k	-9.15673
▁العرض	-9.15678
▁بيت	-9.15679
re	-9.15708
▁وفاته	-9.15785
▁وعمل	-9.15931
▁المهنية	-9.15942
▁الحديث	-9.15964
جايزة	-9.15971
▁الدراسة	-9.16055
وية	-9.16119
اض	-9.16171
▁E	-9.16174
بع	-9.16325
رابطة	-9.1633
رت	-9.16418
▁سفير	-9.16449
اص	-9.16734
جن	-9.16801
▁1976	-9.1694
▁الجديدة	-9.16954
▁سو	-9.16983
▁دو	-9.1699
▁بو	-9.17165
▁توجد	-9.17264
▁مسافة	-9.17298
هل	-9.17411
▁تتبع	-9.17455
▁روسيا	-9.17547
ند	-9.17556
▁المحافظة	-9.17655
an	-9.17916
▁اعلام	-9.17954
▁تحليل	-9.18067
▁احياء	-9.18103
R	-9.1817
▁الرقمية	-9.18204
معالجة	-9.18238
▁الاساسية	-9.18277
رف	-9.18397
N	-9.18416
en	-9.18443
▁الباحة	-9.18457
▁وتقع	-9.18495
▁مساعد	-9.18679
▁المثال	-9.18961
▁الاطفال	-9.19125
عة	-9.1915
▁البرازيلي	-9.19161
▁لان	-9.19171
يوجد	-9.19209
▁الجوايز	-9.19292
اي	-9.19353
▁سبيل	-9.19494
▁كوريا	-9.19616
▁حركة	-9.19642
▁تنفيذ	-9.19691
▁الشبكة	-9.1986
▁,	-9.19884
▁ورييس	-9.20048
▁المشاركة	-9.2005
▁رييسا	-9.20055
▁الجديد	-9.20093
شن	-9.20248
تا	-9.20317
▁المتعلق	-9.20328
▁الخط	-9.20354
▁ذو	-9.20479
▁استراليا	-9.20496
▁امريكا	-9.20518
▁بت	-9.20547
▁اصبحت	-9.20556
▁موسس	-9.20667
▁رجل	-9.20701
▁المواقع	-9.20767
▁الحالي	-9.20786
▁المنظمة	-9.20893
▁دعم	-9.21007
▁اوروبا	-9.21213
▁F	-9.21331
▁الحكم	-9.21367
▁ابرز	-9.21381
▁ثاني	-9.21387
حل	-9.21399
تعلق	-9.21516
▁جدا	-9.21538
▁السعوديين	-9.21578
▁البحوث	-9.21582
▁سلة	-9.21655
▁حايز	-9.21678
كان	-9.21697
▁تلفزيونية	-9.21729
▁سياسي	-9.21809
▁1983	-9.2185
▁عنها	-9.21897
8	-9.21955
▁يسمي	-9.2199
▁اكاديمية	-9.22169
▁اهل	-9.22223
▁دليل	-9.22284
▁التحق	-9.22318
▁حكم	-9.22372
▁المجلة	-9.22407
رياسة	-9.2249
▁وصف	-9.22518
نس	-9.22609
▁انشي	-9.22649
▁والح	-9.22658
▁للتكنولوجيا	-9.22666
▁اكس	-9.22702
▁نصف	-9.22746
▁هييات	-9.22768
شر	-9.22778
▁مو	-9.22785
قب	-9.22852
▁تحرير	-9.22979
جد	-9.23007
▁لنادي	-9.23089
▁البيية	-9.23144
▁الزراعية	-9.23267
▁الزراعة	-9.23283
▁بيروت	-9.23466
▁هدف	-9.23627
▁الجوف	-9.23649
دة	-9.23684
يح	-9.23771
▁ولم	-9.23799
وق	-9.23807
▁جديد	-9.23901
▁والده	-9.23935
▁الكبري	-9.24073
▁المجال	-9.24116
▁بلدة	-9.24379
▁المصرية	-9.24446
▁بالرياض	-9.24456
▁السودان	-9.24482
▁وكالة	-9.24548
▁اربع	-9.2472
سب	-9.24721
▁البر	-9.24723
▁نيويورك	-9.24837
▁استاذ	-9.24842
▁وعضو	-9.2493
▁جزء	-9.2501
▁مجموعات	-9.25023
▁القادسية	-9.25155
سلطنة	-9.25158
▁قطاع	-9.25203
▁انضم	-9.25353
نو	-9.25407
▁الفتح	-9.25505
▁بحث	-9.25597
▁شخص	-9.25704
▁1975	-9.2581
▁كيلومتر	-9.25829
▁التسمية	-9.25893
وث	-9.25898
▁فصل	-9.26043
▁لو	-9.26137
▁البرازيل	-9.26151
▁اقل	-9.26187
▁ث	-9.26187
ميداليات	-9.26259
▁البرتغال	-9.26508
▁كال	-9.26559
▁مليار	-9.26653
▁والمملكة	-9.26888
▁يت	-9.26897
▁القاعدة	-9.26912
9	-9.26999
٪	-9.27
قرب	-9.27054
▁ابناء	-9.27154
or	-9.27234
H	-9.27318
ar	-9.27423
▁تن	-9.2744
▁ملك	-9.27609
▁العسكري	-9.27618
طي	-9.27619
تن	-9.27653
▁مرحلة	-9.27673
يان	-9.27705
▁والع	-9.27752
▁تجارية	-9.27846
▁29	-9.27899
رز	-9.27916
▁جزيرة	-9.27938
▁العمليات	-9.27995
▁ط	-9.28037
يري	-9.28059
▁التنمية	-9.28124
هام	-9.28227
▁مستشار	-9.28251
▁المشاريع	-9.28281
▁الجامعات	-9.28333
▁اعداد	-9.28353
▁سليمان	-9.28439
▁الثقافية	-9.28457
علم	-9.28658
▁=	-9.2874
▁عنه	-9.28741
▁رجال	-9.28826
▁وبعض	-9.29039
تون	-9.29165
قة	-9.29203
▁الالكتروني	-9.2924
▁طرق	-9.29273
يز	-9.29485
▁1981	-9.29551
▁G	-9.29572
14	-9.29688
غير	-9.29837
رق	-9.29868
▁اطلاق	-9.2992
▁الصور	-9.29985
▁التابع	-9.30073
▁المدارس	-9.30113
▁ولي	-9.3033
▁عدم	-9.30347
كن	-9.30374
▁بكالوريوس	-9.30432
▁مستشفي	-9.30441
▁نظم	-9.30616
▁الماء	-9.30705
▁التطبيقية	-9.3072
20	-9.30753
▁قلعة	-9.30759
▁يعرف	-9.30877
قط	-9.30983
ing	-9.31092
▁عرب	-9.31129
رن	-9.31134
▁منهم	-9.31203
▁الز	-9.31288
تهم	-9.31428
▁اعلن	-9.31459
يتكون	-9.31471
وش	-9.31488
▁نبذ	-9.31564
▁بموجب	-9.31573
▁البلد	-9.31581
▁يضم	-9.31614
▁صحفي	-9.31678
جم	-9.31689
▁البلدان	-9.31723
▁الموسسة	-9.31777
ذر	-9.31822
▁العلا	-9.3185
▁البريطانية	-9.31902
▁اندية	-9.32034
▁ايطاليا	-9.32191
▁مالي	-9.32265
هذه	-9.32275
▁ويب	-9.3229
▁الكبير	-9.32293
▁ز	-9.32325
▁الاحياء	-9.32368
▁مساهمة	-9.32489
▁بمحافظة	-9.32608
▁الفيات	-9.32633
▁النووية	-9.32757
▁الافريقية	-9.3282
▁الحوسبة	-9.32829
▁اعماله	-9.32854
▁العصر	-9.32942
صل	-9.32973
▁كذلك	-9.33049
سو	-9.3318
▁وع	-9.33236
▁تمت	-9.33251
▁رمضان	-9.33381
حسب	-9.33471
▁وحدة	-9.33475
▁الدور	-9.33541
▁المراكز	-9.3355
حركة	-9.33603
اخ	-9.33699
▁قتل	-9.33747
▁تعلم	-9.33789
▁ذكر	-9.33831
▁افراد	-9.3395
رب	-9.33983
U	-9.3399
▁الدرعية	-9.34019
▁طايرات	-9.34028
▁مشاريع	-9.34049
فية	-9.34082
▁دراسات	-9.34124
▁جر	-9.34264
0	-9.34281
▁ايام	-9.34309
ic	-9.34377
▁مجلات	-9.34531
▁جهاز	-9.34597
▁اسلامية	-9.34772
▁بعنوان	-9.34785
▁سان	-9.34849
فن	-9.34994
▁تقنيات	-9.34998
▁الكتب	-9.35076
▁التجاري	-9.35112
x	-9.3517
▁الطريقة	-9.35184
▁40	-9.35241
le	-9.3525
▁المر	-9.3535
▁اب	-9.35426
in	-9.35511
▁وكليات	-9.35581
حصلت	-9.3566
at	-9.35671
نز	-9.35684
▁القانون	-9.35743
رج	-9.35763
▁برج	-9.35924
▁الفيصلي	-9.35954
▁والمعلومات	-9.3601
▁تخصص	-9.36064
▁الجنوبي	-9.36215
▁منتجات	-9.36279
▁علاقات	-9.36364
كار	-9.36391
▁اصدار	-9.36463
▁الفني	-9.3658
▁الاكثر	-9.3671
▁تاسس	-9.36729
▁الاوروبي	-9.36747
▁عبدالعزيز	-9.36774
علي	-9.36954
▁عريش	-9.37201
▁المح	-9.37226
▁سعوديات	-9.37239
▁اللاعبين	-9.37261
▁اثر	-9.37274
▁المصدر	-9.3735
دور	-9.37472
f	-9.37504
▁تصل	-9.37532
▁يوسف	-9.37607
▁الرياضيات	-9.37848
▁تخرج	-9.37882
▁مساجد	-9.37919
▁مبان	-9.37948
▁شاعر	-9.37954
دن	-9.37996
▁قبايل	-9.38014
شركة	-9.38017
▁السلام	-9.38041
▁دبلوماسية	-9.3809
▁الوطن	-9.38219
ولا	-9.38382
حة	-9.38405
▁بدر	-9.38443
▁قوات	-9.38445
سم	-9.38556
سا	-9.38561
▁تونسيون	-9.38609
دان	-9.38838
▁البشرية	-9.38847
▁طيران	-9.38853
▁الشمالي	-9.38904
▁ويعتبر	-9.39285
▁طريقة	-9.39317
▁خمسة	-9.3936
▁المستوي	-9.39483
▁الاردنية	-9.3951
▁القطيف	-9.39696
▁تو	-9.3974
▁كيلومترا	-9.39763
▁اعلنت	-9.39855
▁طالب	-9.3986
▁صيف	-9.39971
راك	-9.39998
ينغ	-9.4016
▁شارع	-9.40241
▁توفير	-9.40259
▁الاهلية	-9.40302
▁الشعبية	-9.40358
ستر	-9.40457
واجهة	-9.40594
▁يعود	-9.40666
▁البعثات	-9.40676
▁القمر	-9.40702
▁امر	-9.40803
▁ادوات	-9.40833
بس	-9.40906
▁الرابع	-9.40999
▁تحويل	-9.41012
▁دراسته	-9.41102
▁ومركز	-9.41113
جين	-9.41167
▁الرايد	-9.41233
▁الرقمي	-9.41242
ريك	-9.41281
▁صاحب	-9.41299
▁الفنون	-9.41321
اير	-9.41429
▁الفرنسي	-9.41429
▁D	-9.41491
▁الجمهورية	-9.41501
▁قديمة	-9.41505
▁المساجد	-9.41508
▁ويمكن	-9.4154
مثل	-9.4155
▁جزر	-9.41669
▁1974	-9.41701
ضي	-9.41742
دية	-9.41827
يع	-9.41889
▁المدن	-9.41903
مار	-9.41983
▁التحكم	-9.4211
▁اسس	-9.42132
▁للعمل	-9.42201
▁المدير	-9.4223
50	-9.42319
▁ومنها	-9.42364
اقامة	-9.42409
▁المعرفة	-9.42436
▁السياسي	-9.42463
▁الحجر	-9.42512
▁جريدة	-9.42531
▁بنك	-9.42583
رات	-9.42599
بين	-9.4267
▁صفحات	-9.42695
تكون	-9.42702
عت	-9.42705
ندي	-9.42709
▁مباشرة	-9.42784
هن	-9.42792
زر	-9.43002
▁ديوان	-9.43048
▁عاصمة	-9.43075
▁ارامكو	-9.43118
▁يجب	-9.43277
v	-9.43316
▁1972	-9.43366
▁مسلسلات	-9.43372
▁السنية	-9.43442
ed	-9.43575
▁طب	-9.43728
▁الحاسب	-9.43785
▁الاهداف	-9.4379
▁فر	-9.43825
▁مكتبة	-9.43857
▁ويتم	-9.43886
▁كون	-9.43939
▁الاجهزة	-9.44078
▁خلف	-9.44083
تهدف	-9.44145
▁سير	-9.44148
▁المحلي	-9.44244
▁مباريات	-9.44308
▁روية	-9.44442
▁الطلاب	-9.44454
▁افتتاح	-9.44454
درجة	-9.44477
'	-9.44521
▁الاعلي	-9.44543
حرس	-9.44626
▁قايد	-9.44641
ارة	-9.44674
ودي	-9.44708
▁مديرا	-9.44741
-19	-9.44745
▁مس	-9.44767
▁الفيلم	-9.44771
حيث	-9.44841
▁للسعودية	-9.44898
▁القوي	-9.44935
ادي	-9.44984
▁نظرية	-9.45051
▁امين	-9.45059
▁الاعضاء	-9.45064
▁فتح	-9.45191
وه	-9.45261
رح	-9.45329
▁مطلع	-9.45344
▁N	-9.45348
▁تشغيل	-9.45364
▁فا	-9.45382
▁الواقع	-9.45431
W	-9.45435
▁مدافعو	-9.4545
▁الناس	-9.45585
▁كندا	-9.45591
▁بلدية	-9.45609
▁التصميم	-9.45638
▁حد	-9.4564
▁طلب	-9.45642
▁فنان	-9.45649
▁الادبي	-9.45694
قار	-9.45702
سدود	-9.45722
وع	-9.45909
▁التشغيل	-9.45957
بور	-9.46198
▁مح	-9.46236
▁الحالية	-9.46238
مجموعة	-9.46243
▁تعليمه	-9.46253
▁اندونيسيا	-9.46364
▁الحزم	-9.46425
سان	-9.46439
▁1977	-9.46552
30	-9.46562
000	-9.46613
غو	-9.46665
صي	-9.46789
غر	-9.46852
F	-9.46922
▁والس	-9.46997
▁الفرنسية	-9.47116
▁صفحة	-9.47406
▁بهدف	-9.47515
▁قرار	-9.4754
▁رو	-9.47641
▁وصل	-9.47742
▁الاخر	-9.47769
▁رفع	-9.47804
19	-9.4791
▁ليس	-9.47964
▁الفن	-9.48073
▁وتطوير	-9.48116
تو	-9.48117
w	-9.48125
▁المدنية	-9.48155
▁قاد	-9.48167
▁لغة	-9.48175
▁الابحاث	-9.48183
▁والقري	-9.48238
▁1973	-9.48306
▁وسايل	-9.48311
▁الموسم	-9.4843
▁K	-9.48531
ورد	-9.48582
▁للمملكة	-9.48588
قن	-9.48727
▁جامع	-9.48843
▁اختيار	-9.48996
▁مرمي	-9.4912
▁العراقي	-9.49155
▁الفرق	-9.492
▁الام	-9.49225
▁معاهد	-9.49271
▁1978	-9.49298
▁عددا	-9.49359
▁تعرض	-9.49429
▁الباطن	-9.49459
▁مقاطعة	-9.49474
اتفاقية	-9.49541
"،	-9.49665
▁مقابل	-9.4972
▁مولفاته	-9.49834
دون	-9.4989
▁باب	-9.49976
▁عامة	-9.50026
ستان	-9.50086
V	-9.5011
▁الوسط	-9.50164
▁راي	-9.50219
ضم	-9.50281
▁الابتدايية	-9.50302
▁المجالات	-9.50321
▁شي	-9.50389
▁النخيل	-9.50399
▁كليات	-9.50414
▁القطاع	-9.50512
▁مهاجمو	-9.50532
▁السيارات	-9.50541
انية	-9.50628
▁سكنية	-9.50799
▁متنوعة	-9.50865
▁الحركة	-9.50946
▁هجر	-9.51007
سن	-9.51047
▁المبني	-9.51061
فور	-9.51072
▁اودية	-9.51128
▁المست	-9.51162
▁ري	-9.51167
قمة	-9.5119
▁النهضة	-9.51339
▁الطرق	-9.51397
شا	-9.51445
▁بينها	-9.51483
▁مال	-9.51508
ايية	-9.5154
لين	-9.51605
▁لاحقا	-9.51622
▁القرار	-9.51655
يلي	-9.51713
▁الشريعة	-9.5182
▁31	-9.51871
▁بطريق	-9.52036
▁الكهربايية	-9.52045
رين	-9.52099
غان	-9.52214
غي	-9.52265
قا	-9.52283
”	-9.52291
▁1970	-9.52303
باب	-9.52319
▁واصبح	-9.52326
تقنية	-9.52354
▁سا	-9.52379
مو	-9.52489
▁منصور	-9.52552
روس	-9.52584
and	-9.52716
▁مساحته	-9.52775
▁الموارد	-9.52776
▁نموذج	-9.52851
%	-9.52862
▁نقطة	-9.52864
▁الحمراء	-9.52896
▁عمله	-9.53088
▁الاستثمار	-9.53117
▁بدور	-9.53152
▁المستخدم	-9.53195
▁زيادة	-9.53216
▁الشام	-9.53261
▁ارض	-9.53393
▁وقال	-9.53475
▁1965	-9.53521
▁الاتصال	-9.5356
بالانجليزية	-9.5358
بال	-9.53581
▁قانون	-9.53625
بان	-9.538
▁الالمانية	-9.53877
▁جزايريون	-9.53894
تش	-9.53905
▁التدريب	-9.53952
▁البلدية	-9.53953
▁العلماء	-9.53972
▁1967	-9.53999
▁المتوسط	-9.54202
قال	-9.54208
▁فو	-9.54282
ولي	-9.54425
▁للت	-9.54505
▁تابع	-9.5454
▁حديقة	-9.54601
▁عرف	-9.54684
تم	-9.54864
▁واسعة	-9.54944
▁اكاديمي	-9.54962
▁علمي	-9.55034
▁واشنطن	-9.55091
▁اجزاء	-9.55147
▁الحر	-9.55217
▁يقدم	-9.55275
▁جون	-9.55314
▁الشاعر	-9.55518
▁الحي	-9.55593
▁مش	-9.5564
▁الاوروبية	-9.55738
▁وعدد	-9.55759
▁وهذا	-9.55887
▁بر	-9.56019
▁عشرة	-9.5612
▁دا	-9.56167
▁تسجيل	-9.56182
حق	-9.56188
▁1964	-9.5621
▁1968	-9.56214
مركز	-9.56249
▁جهة	-9.56256
▁المسلمين	-9.56281
▁والن	-9.56357
▁اردنيون	-9.56389
▁فت	-9.56392
▁القسم	-9.5644
▁اسماء	-9.56458
▁تشتهر	-9.56664
▁دمشق	-9.56706
▁حساب	-9.56717
مع	-9.56788
▁الهجوم	-9.56851
توفر	-9.56895
▁مصري	-9.56899
▁فايز	-9.56951
▁صغير	-9.56974
▁شعر	-9.57043
▁صندوق	-9.57068
us	-9.57118
راف	-9.57138
▁نفسه	-9.57204
▁وايضا	-9.57207
▁بكر	-9.57219
▁لتطوير	-9.5724
▁الامطار	-9.57265
▁تل	-9.57321
▁فل	-9.57335
▁مقالات	-9.57422
▁شخصيات	-9.57443
▁طويلة	-9.57464
▁الكيميايية	-9.57493
ميناء	-9.57605
▁يا	-9.57629
▁قياس	-9.57646
▁مصرية	-9.57693
▁الحرارة	-9.57699
سياسيون	-9.57735
▁حجم	-9.57739
▁الكويتي	-9.5779
▁توفر	-9.57836
صب	-9.57978
كا	-9.57979
ضيف	-9.58063
▁كثير	-9.58198
▁باتجاه	-9.58225
▁جوجل	-9.58241
▁تطور	-9.58398
▁الط	-9.58432
▁مسلمون	-9.58453
▁البرمجيات	-9.58551
▁1969	-9.58569
▁الجامعي	-9.58653
▁بلاد	-9.58672
▁تشكيل	-9.58699
▁بالعربية	-9.5873
on	-9.58735
▁مجمع	-9.58744
▁فرق	-9.58759
▁اقدم	-9.58773
▁تدريب	-9.58801
▁ني	-9.58815
▁وقعت	-9.58833
اشي	-9.58911
▁المستخدمة	-9.5904
▁محافظات	-9.59049
):	-9.59104
وك	-9.59204
▁كلا	-9.59224
K	-9.59236
حفاظ	-9.59243
▁ومنشات	-9.59245
▁المستقبل	-9.59376
▁بانه	-9.59478
لت	-9.59525
▁كي	-9.59571
▁الجامعية	-9.59668
▁النسخة	-9.59687
راد	-9.59753
ممارسة	-9.59818
▁اسمه	-9.59898
لمنطقة	-9.60029
جان	-9.60138
▁المركزية	-9.60198
▁تتكون	-9.6022
حلول	-9.60233
▁الموسسات	-9.60262
▁الفيحاء	-9.60277
▁1960	-9.60292
▁المعروف	-9.60328
▁المناخ	-9.60375
طل	-9.60571
▁تعرف	-9.60611
▁الخيرية	-9.60645
▁بهذا	-9.60646
▁الشريف	-9.60679
80	-9.60685
▁الاقتصادي	-9.60691
يج	-9.60714
▁حقل	-9.60722
st	-9.60753
▁روايي	-9.60817
▁والد	-9.6082
▁سالم	-9.60831
▁الحد	-9.60869
فة	-9.60884
▁العشرين	-9.60896
فان	-9.60981
لح	-9.61
▁منتصف	-9.61275
▁قصة	-9.61388
▁الشوري	-9.6151
ورة	-9.61522
▁حزب	-9.61579
بن	-9.61602
▁السريع	-9.61647
زم	-9.61685
سير	-9.61688
▁الرسمية	-9.61699
لاند	-9.61759
▁السوبر	-9.61854
وار	-9.6188
وح	-9.61988
▁الهجري	-9.61995
▁المسلحة	-9.62025
▁قصيرة	-9.62152
▁الجو	-9.62154
ولاية	-9.62175
▁غالبا	-9.62191
▁مسوول	-9.62245
جري	-9.62248
▁الصناعة	-9.62257
▁غو	-9.62274
ايي	-9.6229
▁وبدا	-9.62324
راء	-9.62499
▁الفيزياء	-9.62531
▁نور	-9.62546
بيع	-9.62548
▁مول	-9.62565
عي	-9.62598
يبلغ	-9.62695
▁العدد	-9.62697
▁الماضي	-9.62711
▁فن	-9.62925
احة	-9.6301
▁المس	-9.63016
حت	-9.63044
لم	-9.63116
▁وشارك	-9.63118
▁محمود	-9.63169
▁رياضة	-9.63178
▁تعيينه	-9.63344
▁انذاك	-9.63443
▁وتعتبر	-9.63468
▁الطبعة	-9.63473
▁دين	-9.63483
▁بدون	-9.63492
▁تحمل	-9.63521
▁لقب	-9.63556
▁موتمر	-9.63687
سك	-9.63755
▁واسع	-9.6382
ri	-9.63822
▁60	-9.63921
▁التعليمية	-9.63966
▁فهي	-9.63985
▁حصر	-9.64008
▁تعزيز	-9.64018
نج	-9.64193
▁معاهدات	-9.64217
روم	-9.64242
▁البرية	-9.64277
قع	-9.64331
ايد	-9.64354
▁منزل	-9.64366
▁اختبار	-9.64394
▁تمثل	-9.64395
▁لهم	-9.64445
▁تغيير	-9.64459
▁البنك	-9.64476
▁فرسان	-9.64531
مور	-9.64563
▁تعود	-9.64623
قل	-9.64636
▁عايلة	-9.64662
▁لذلك	-9.64689
▁الذ	-9.64695
▁يشغل	-9.64701
▁كافة	-9.64799
▁والق	-9.64861
رش	-9.64988
حص	-9.64996
▁الصغيرة	-9.65009
معركة	-9.65034
بعثة	-9.65046
10	-9.65053
▁مدي	-9.65057
▁بغداد	-9.65064
▁2030	-9.65139
▁تلقي	-9.65222
▁بجدة	-9.65233
▁المجر	-9.65239
▁L	-9.65297
▁انجلترا	-9.65332
▁اعتبارا	-9.65342
راس	-9.65352
▁اجراء	-9.65363
▁عامي	-9.65394
".	-9.65398
▁مدار	-9.65472
▁فروع	-9.65502
▁مهمة	-9.65538
▁المرافق	-9.65615
شت	-9.65616
▁الدار	-9.65623
▁مرات	-9.65658
▁ينبع	-9.65726
شير	-9.65878
▁نتيجة	-9.6588
▁لون	-9.66047
60	-9.66068
▁*	-9.66099
▁وبين	-9.66134
▁الاحداث	-9.66142
▁ابطال	-9.66163
▁معينة	-9.66193
▁اهمية	-9.6623
تولي	-9.66278
▁قيمة	-9.66325
امين	-9.66391
▁وحدات	-9.66404
▁بلجيكا	-9.66416
▁اكتشاف	-9.6642
is	-9.66455
▁اولمبي	-9.66565
▁ميل	-9.66592
عقد	-9.66604
▁حر	-9.66659
▁توزيع	-9.66712
▁نوكيا	-9.66713
it	-9.66766
▁200	-9.66776
▁اطلق	-9.66793
▁نظرا	-9.66887
▁الموتمر	-9.66915
خر	-9.66953
▁الجايزة	-9.67034
خل	-9.67074
▁الاخيرة	-9.67112
▁بلا	-9.67159
▁كر	-9.67183
▁اع	-9.67214
]	-9.67268
▁السورية	-9.67271
▁مورخ	-9.67313
قد	-9.67362
▁السابقة	-9.67395
▁يطلق	-9.67422
▁القلعة	-9.67439
▁ولدت	-9.6748
▁الساحل	-9.67482
▁هم	-9.67517
▁اليها	-9.67669
▁قديما	-9.6767
▁متخصصة	-9.67752
00	-9.67756
مقبرة	-9.67844
▁السوفيتي	-9.6786
▁فال	-9.67895
▁باريس	-9.67915
▁؛	-9.67976
▁اللعب	-9.68127
▁المنتجات	-9.68162
▁ويعد	-9.68187
▁موسيقي	-9.68223
▁الموجودة	-9.68224
دير	-9.68264
▁المباراة	-9.68389
▁الاداب	-9.6839
▁خلالها	-9.68391
▁الانظمة	-9.68397
▁تتضمن	-9.68418
▁الو	-9.68493
▁مكون	-9.68498
▁الحزب	-9.68502
▁طوله	-9.68511
▁الطايرات	-9.68548
روا	-9.68652
وال	-9.68777
▁محل	-9.68797
هي	-9.68936
عين	-9.6895
عد	-9.6897
فيل	-9.69036
▁مجتمع	-9.69067
▁الجيل	-9.6907
نتشر	-9.69081
▁خمس	-9.691
▁عنوان	-9.69134
ثقافة	-9.69201
▁التالي	-9.69205
▁التواصل	-9.69267
▁الانسانية	-9.69321
25	-9.69333
▁وصفت	-9.69427
▁تعتمد	-9.69446
▁الرابطة	-9.69516
▁طايرة	-9.69526
▁الوسطي	-9.6955
ra	-9.69581
▁المق	-9.69598
▁مسابقة	-9.69737
نغ	-9.6974
▁الطبي	-9.69756
بد	-9.69756
▁الفايز	-9.69811
▁مالك	-9.69867
به	-9.69875
▁الجهات	-9.70027
الا	-9.7005
يض	-9.70095
كور	-9.70097
امر	-9.70182
▁اليونان	-9.7019
▁طن	-9.70241
▁الجوي	-9.70256
دام	-9.70273
▁“	-9.70314
z	-9.7034
كون	-9.7042
▁بار	-9.70465
▁الطبيعي	-9.70569
▁دبلوماسي	-9.70574
▁الل	-9.70589
▁الخامس	-9.70616
حكم	-9.70638
▁الاراضي	-9.70668
ch	-9.70695
▁مست	-9.70697
رية	-9.70716
▁باي	-9.70751
▁ملعب	-9.70779
نك	-9.708
▁سنويا	-9.7089
▁R	-9.71
▁ليبيا	-9.71052
▁كا	-9.7107
▁رسميا	-9.71117
▁مصدر	-9.71184
▁ظهر	-9.71254
▁ظل	-9.71257
▁اصول	-9.7128
فار	-9.71289
▁والخدمات	-9.71335
▁مصطلح	-9.7134
▁وجه	-9.71423
لوزارة	-9.71484
▁الحب	-9.71507
es	-9.71512
▁رسوم	-9.71584
يته	-9.71711
▁الرياضة	-9.71779
▁تصنيع	-9.71827
مكافحة	-9.71827
▁1958	-9.71838
▁مايكروسوفت	-9.71845
▁الالماني	-9.71848
يتي	-9.71852
▁التعلم	-9.71909
شاشة	-9.71928
يرة	-9.72001
▁الث	-9.7204
▁عثمان	-9.72318
▁المدني	-9.7232
▁قيادة	-9.72424
▁يتبع	-9.72429
▁التدريس	-9.72449
▁I	-9.7255
▁بالنسب	-9.7255
لك	-9.72631
▁2022.	-9.72714
▁مصنع	-9.72855
▁صورة	-9.7287
▁كامل	-9.72882
ارد	-9.72919
▁مسار	-9.72959
▁اقليم	-9.72984
▁البداية	-9.73003
▁الطايي	-9.73011
▁للفنون	-9.7311
▁الكبيرة	-9.73121
▁مي	-9.73133
▁تخزين	-9.7315
▁وتخرج	-9.73174
▁الجبال	-9.73241
▁لكنه	-9.73299
▁V	-9.73312
▁الهدف	-9.73381
▁كلمة	-9.73395
يخ	-9.73447
روب	-9.73481
▁خطوط	-9.73518
▁الاداري	-9.73523
▁ماجستير	-9.73592
▁طاقة	-9.73601
▁العدالة	-9.73606
▁بريدة	-9.73619
هو	-9.73635
▁يزيد	-9.73679
صار	-9.73681
▁الدورة	-9.73725
▁500	-9.73777
▁1961	-9.73796
▁تشير	-9.73843
▁البلدي	-9.7385
ثر	-9.73887
▁الخطوط	-9.73965
▁O	-9.74002
▁يتميز	-9.74085
▁الاساسي	-9.74099
امراء	-9.74173
▁1971	-9.74198
▁1963	-9.74198
90	-9.74227
▁واستمر	-9.74243
▁ماليزيا	-9.74321
▁الادبية	-9.7435
▁بدلا	-9.74352
▁تلفزيون	-9.74397
▁سوريون	-9.74413
صنع	-9.74524
عل	-9.74555
قاعة	-9.74586
سر	-9.74677
اكس	-9.74716
▁تجمع	-9.7472
داد	-9.74734
▁الخبر	-9.74748
▁وهناك	-9.74786
▁الافلام	-9.74786
▁تهامة	-9.74802
▁الحقوق	-9.74853
▁محطات	-9.74885
▁والدراسات	-9.74903
عيد	-9.74953
▁تت	-9.7496
▁الشمس	-9.74986
▁النتايج	-9.75014
▁المعروفة	-9.75065
▁حجر	-9.75072
حول	-9.75243
▁والب	-9.75346
▁افتتح	-9.75359
▁الهفوف	-9.75388
▁مغاربة	-9.75388
▁1966	-9.75404
▁سياحي	-9.75405
▁اواخر	-9.75528
▁تحتاج	-9.75555
جزء	-9.75651
▁الطين	-9.75758
قو	-9.75793
▁ادي	-9.75915
اجنحة	-9.75995
▁تطبيقات	-9.76025
▁تحسين	-9.76042
▁مختبر	-9.76086
▁الاندية	-9.76106
▁الكويتية	-9.76141
▁بري	-9.76163
فرد	-9.76173
ايف	-9.7619
رمان	-9.7625
▁يمثل	-9.7625
▁الغاز	-9.7634
▁الكليات	-9.76372
▁متعلق	-9.76373
▁دخل	-9.76415
▁شخصية	-9.76476
▁الشعب	-9.76518
,000	-9.7659
▁الفيديو	-9.766
▁اقسام	-9.76604
▁المباني	-9.76606
▁الصحافة	-9.7661
▁تاثير	-9.76621
▁البلدين	-9.76629
el	-9.76648
انشطة	-9.76694
▁تتطلب	-9.76802
▁المادي	-9.76804
▁والفنون	-9.76852
جاز	-9.76863
▁بحوالي	-9.7688
▁الابيض	-9.76937
امة	-9.77001
▁وج	-9.77026
▁القناة	-9.77076
▁دبلوم	-9.77091
كين	-9.77109
فاء	-9.77117
ويل	-9.77205
▁وش	-9.77221
▁1956	-9.77231
▁لهذا	-9.77248
▁جعل	-9.77272
▁فهو	-9.77279
▁نتايج	-9.77302
▁الجغرافية	-9.77324
اوايل	-9.77327
▁للشركة	-9.7733
▁سواء	-9.77346
خي	-9.77477
مدرسة	-9.77591
▁لن	-9.7762
طور	-9.77708
▁موسسات	-9.77783
▁العراقية	-9.77801
ثدييات	-9.77836
صالة	-9.77908
▁حماية	-9.77909
▁تكساس	-9.77915
▁معايير	-9.77939
▁اقتصاد	-9.78003
▁السياحة	-9.78067
▁1962	-9.78086
▁منافسات	-9.78117
▁تك	-9.78131
▁0	-9.78167
▁عالمية	-9.78196
▁المال	-9.78209
▁الاست	-9.78225
ايت	-9.78349
تقام	-9.78374
▁اساسي	-9.78384
سيل	-9.78398
▁وغير	-9.78406
▁محمية	-9.78432
طار	-9.78439
▁النووي	-9.78444
▁الشعلة	-9.78456
▁النساء	-9.78471
فاق	-9.78475
▁اشتهر	-9.785
▁نشاط	-9.78502
27	-9.78522
▁للاتحاد	-9.78542
▁لديها	-9.78581
▁منصة	-9.786
▁لمجلس	-9.78713
▁الاستاذ	-9.78732
لون	-9.78915
▁التخصصات	-9.78971
▁الجغرافي	-9.78985
صف	-9.79005
طب	-9.79013
▁ساعة	-9.79048
▁طبق	-9.79077
▁شو	-9.79082
▁اشجار	-9.79085
▁تصدر	-9.79226
▁سبب	-9.79297
▁دفع	-9.79304
▁التقنيات	-9.79313
▁النطاق	-9.7932
▁روماني	-9.79325
لاف	-9.79342
▁سميت	-9.79407
▁مدرب	-9.79458
▁الصف	-9.79468
كوم	-9.79533
▁اتصالات	-9.79597
▁وزيرا	-9.79646
▁التحتية	-9.79717
▁مواسم	-9.79718
▁دايرة	-9.79724
▁يحمل	-9.7976
▁شباب	-9.79765
تراوح	-9.79767
▁الكهرباء	-9.79792
▁الساعة	-9.79912
▁p	-9.79939
مس	-9.79964
▁الخارج	-9.79994
▁استخدم	-9.80015
▁الري	-9.80073
▁نشرت	-9.80085
▁التطبيقات	-9.8009
▁المكتبة	-9.80122
/19	-9.80124
▁الصحراء	-9.80246
▁تنمية	-9.80274
▁وعن	-9.80311
▁تمكن	-9.80336
بك	-9.80348
يفة	-9.80354
▁شبكات	-9.80465
ضر	-9.80466
▁لما	-9.80479
▁للاتصالات	-9.8048
تقدر	-9.80513
▁وجامعة	-9.80514
▁حقق	-9.80589
▁للاستثمار	-9.80591
-1	-9.80661
▁يلي	-9.80681
ارا	-9.80703
▁فارس	-9.80718
▁الرعاية	-9.80728
▁كبار	-9.80769
▁بكل	-9.80905
ريس	-9.81053
▁طرف	-9.81059
تك	-9.81108
▁المباريات	-9.81124
▁وكيل	-9.81125
▁موتمرات	-9.81145
85	-9.81167
عمل	-9.8119
▁الانشطة	-9.81241
▁الطبيعة	-9.81252
▁البعض	-9.81426
▁معه	-9.81428
▁وكل	-9.81545
زل	-9.8156
▁اساس	-9.81595
▁نقوش	-9.81632
40	-9.81633
▁البيضاء	-9.81639
جب	-9.81761
▁سفيرا	-9.81821
▁اشراف	-9.8189
▁غر	-9.8195
▁نجوم	-9.82002
ابل	-9.82093
قول	-9.8211
افي	-9.8213
▁تاليف	-9.82169
داء	-9.82189
العديد	-9.82232
▁دبليو	-9.82266
▁الهاتف	-9.82269
▁اللواء	-9.82273
▁النفس	-9.82283
▁الويب	-9.82306
طبع	-9.82326
▁للنشر	-9.8234
▁اغلب	-9.82343
شق	-9.82356
شكل	-9.82374
يدة	-9.82403
▁جري	-9.82412
عود	-9.82435
يرا	-9.82474
▁يبدا	-9.82476
▁مرور	-9.82479
ابي	-9.82689
ثي	-9.82706
▁وتعد	-9.82726
▁وعلم	-9.82857
▁الاودية	-9.82919
▁بارق	-9.82982
▁ستة	-9.83027
▁والج	-9.83097
▁المساحة	-9.831
▁منح	-9.83159
لات	-9.83186
▁J	-9.83275
▁بطول	-9.83282
▁التقليدية	-9.83336
تجربة	-9.83363
▁صدرت	-9.83368
ايا	-9.83387
▁الاسرة	-9.83413
لبلدية	-9.8348
قطع	-9.83535
زين	-9.83539
المدن	-9.83549
▁معدل	-9.83562
▁تعريف	-9.83573
▁المجموعات	-9.83597
استفاد	-9.836
▁صف	-9.83618
▁حفر	-9.83667
▁التحليل	-9.83768
يث	-9.83809
▁صوت	-9.83928
▁امانة	-9.83982
▁حينها	-9.84013
▁طبية	-9.84086
▁ايه	-9.84121
▁السن	-9.84193
▁البل	-9.84201
▁المكسيك	-9.84227
▁العالية	-9.84242
▁عيسي	-9.84257
▁الض	-9.8429
▁والاعلام	-9.84307
▁الكيمياء	-9.84313
بط	-9.84382
انغ	-9.84398
▁الصندوق	-9.84414
▁والبحث	-9.84419
▁اسطنبول	-9.84429
▁مملكة	-9.84476
▁بذلك	-9.84538
▁سوي	-9.84606
▁متوسط	-9.84647
▁الشرف	-9.84657
▁وح	-9.84669
▁كلم	-9.84726
▁السيرة	-9.84765
▁بريطانيا	-9.84788
صاب	-9.84825
▁افغانستان	-9.84889
▁التاسيس	-9.84889
et	-9.8492
▁وانتقل	-9.84927
▁تبدا	-9.8497
▁حياة	-9.85006
▁المكان	-9.85048
▁جدول	-9.8513
▁اليه	-9.85175
▁حدث	-9.8531
▁وجنوب	-9.85315
▁جزءا	-9.85329
▁المناصب	-9.8534
99	-9.85369
▁امريكيات	-9.85378
قام	-9.85413
ثورة	-9.85424
▁2017،	-9.85453
سكي	-9.85472
▁للتعليم	-9.85556
▁رشيد	-9.85557
قسم	-9.85559
▁خليفة	-9.8556
▁the	-9.85566
▁1955	-9.85567
▁الصناعي	-9.85637
▁البعثة	-9.85641
▁عبدالله	-9.85643
▁حال	-9.85748
▁الطايرة	-9.85848
هتم	-9.85865
▁البا	-9.85892
▁وتوفي	-9.85912
▁مناصب	-9.85924
▁مل	-9.85936
▁المعرض	-9.8595
▁بيية	-9.86002
▁بشان	-9.86006
▁الميلاد	-9.86021
▁ماساتشوستس	-9.86028
▁الاجتماع	-9.86033
▁طيور	-9.86051
▁لوس	-9.86089
ضرب	-9.86117
▁المرتبة	-9.86125
؟	-9.86227
▁ترتيب	-9.86266
▁التطوير	-9.86311
▁ربيع	-9.86325
▁لدول	-9.86357
▁النهايية	-9.86389
نشاة	-9.86394
▁المتخصصة	-9.86439
▁متخصص	-9.865
▁والتنمية	-9.86502
▁التقني	-9.86562
▁المتقدمة	-9.86602
▁السادس	-9.86628
▁بوزارة	-9.86753
▁طلال	-9.86833
▁مقارنة	-9.8686
▁الفنان	-9.86896
▁اخراج	-9.87007
اذاعة	-9.87017
باء	-9.87027
▁اطار	-9.87034
جة	-9.87051
▁رواية	-9.87095
66	-9.87098
▁مد	-9.871
▁لصالح	-9.87126
▁الموسيقي	-9.87138
▁وفق	-9.87163
▁عديدة	-9.87171
▁فيروس	-9.87172
▁الشعبي	-9.87189
▁التخطيط	-9.87234
▁نص	-9.87254
▁الثنايية	-9.87288
▁اعير	-9.87289
▁المادة	-9.87322
▁وعلوم	-9.87328
قاد	-9.87392
سف	-9.87527
▁1959	-9.87595
▁المحتوي	-9.87677
.5	-9.87698
▁وخاصة	-9.87708
▁الفا	-9.87755
ناف	-9.87762
▁العثمانية	-9.87781
تداول	-9.87828
▁سور	-9.87836
▁البريطاني	-9.87872
▁وهم	-9.87893
▁التونسية	-9.87907
▁المشتركة	-9.87985
▁والامارات	-9.88006
▁التصنيف	-9.88021
▁وتضم	-9.88029
تسع	-9.88068
▁الاردني	-9.88099
▁الدراسية	-9.88155
▁بلغت	-9.88156
ساب	-9.88222
▁نيجيري	-9.88235
▁والف	-9.88239
▁امتار	-9.88269
▁اسرة	-9.88349
▁سلاح	-9.88404
حر	-9.88472
▁يشير	-9.88484
▁مواد	-9.88525
يط	-9.8863
▁الحرة	-9.88656
▁42	-9.88676
لان	-9.88686
▁الفضايية	-9.88747
مرة	-9.88772
▁مراحل	-9.88776
▁(13	-9.88812
▁بعضها	-9.8882
▁القمة	-9.88916
▁المسار	-9.88991
▁زين	-9.89163
▁البنية	-9.89174
▁والهندسة	-9.89236
جمعيات	-9.89312
طلق	-9.89315
روي	-9.89332
▁المركزي	-9.8938
▁انجليز	-9.89418
▁مهام	-9.89459
▁وشمال	-9.89556
▁نيو	-9.89606
ادر	-9.89618
صر	-9.89651
▁عسكري	-9.89653
▁مراقبة	-9.89677
▁تعداد	-9.8973
▁والعمل	-9.89732
▁تصوير	-9.8978
▁النجوم	-9.89789
▁انتاجه	-9.8979
com	-9.89824
اور	-9.89849
▁الثلاث	-9.89857
بدا	-9.89883
مطار	-9.89887
▁والاتصالات	-9.89924
تالف	-9.89941
▁الطرف	-9.90008
▁سباق	-9.90041
زج	-9.90116
باع	-9.90135
عدة	-9.90137
وة	-9.90161
▁الشبكات	-9.90162
دخل	-9.90209
تواجد	-9.90228
▁وشركة	-9.90229
▁بندر	-9.90231
11	-9.90245
ريان	-9.9028
خب	-9.90284
▁ملكي	-9.90311
وغ	-9.90344
▁مهاجر	-9.90355
▁جورج	-9.90366
▁اطلقت	-9.90369
عر	-9.90432
▁الجن	-9.9052
▁اظهر	-9.90521
ro	-9.90529
فيد	-9.90555
▁وك	-9.90583
▁الاكبر	-9.9061
▁ملايين	-9.90623
▁ولكنه	-9.90634
▁دولي	-9.90634
▁معروف	-9.90647
▁المخ	-9.90652
▁ومدير	-9.90906
▁البييية	-9.90986
▁قادر	-9.91024
70	-9.91057
اقة	-9.91061
▁تكريم	-9.91065
▁رام	-9.91102
▁مشاركة	-9.91112
▁مطبخ	-9.91125
▁المطار	-9.91133
▁الصحف	-9.91177
▁النبوي	-9.91207
▁نو	-9.91247
▁بداياته	-9.91267
▁تعني	-9.91342
▁المسلسل	-9.91356
▁تشكل	-9.91384
▁الغذايية	-9.91412
▁مخ	-9.9148
انا	-9.91487
▁اولي	-9.91542
▁استاذا	-9.91556
جراحة	-9.91575
▁النجم	-9.91579
نسي	-9.91584
▁ومصر	-9.91663
▁[	-9.91743
▁ض	-9.91747
▁قنوات	-9.91765
▁يحيي	-9.91768
▁سكانها	-9.9177
▁درجات	-9.9178
▁صبيا	-9.9178
▁القيمة	-9.91807
▁جودة	-9.91814
بوابة	-9.91849
▁بالتعاون	-9.91854
▁للدراسات	-9.91866
▁الحرم	-9.91942
▁عسكريون	-9.92138
▁اللازمة	-9.92167
تقدم	-9.92231
▁معارض	-9.9224
▁احدث	-9.92313
▁تسمية	-9.92369
▁فكر	-9.92419
ذكر	-9.92444
▁قوة	-9.92446
17	-9.92461
▁تتم	-9.92474
بري	-9.92494
▁الموسس	-9.92602
برا	-9.92668
▁العلاقة	-9.92673
▁حرة	-9.92697
طو	-9.92701
▁الوزارة	-9.92732
ازي	-9.92785
▁300	-9.92812
▁الشرعية	-9.92854
▁اصدر	-9.92891
▁بالمنطقة	-9.92972
▁المولفات	-9.92973
لد	-9.93047
انجازات	-9.931
ظهر	-9.93174
▁اللون	-9.93196
▁زملاء	-9.93198
▁حفظ	-9.93263
متد	-9.93283
ذهب	-9.93286
il	-9.9334
▁سابقة	-9.93343
▁الارجنتين	-9.93366
بات	-9.93431
▁معين	-9.93524
▁الدم	-9.93542
13	-9.93566
رجع	-9.93663
24	-9.93674
▁سويسرا	-9.93689
▁الكتروني	-9.93701
▁مق	-9.93738
▁الذاتية	-9.93819
▁السوري	-9.93839
▁دورات	-9.9391
▁وبالتالي	-9.93923
▁النواب	-9.93936
▁عامل	-9.93942
▁بمساف	-9.93946
▁روس	-9.93947
▁كولومبيا	-9.93979
▁الذهبية	-9.94106
▁تحول	-9.9426
▁مصطفي	-9.94262
▁كثيرة	-9.94269
▁سياسية	-9.94335
▁محافظ	-9.94341
▁المتوسطة	-9.9435
▁السر	-9.9436
▁نايبا	-9.94401
جه	-9.94419
▁وعبد	-9.94475
▁الامانة	-9.94484
▁متزوج	-9.94492
▁بانها	-9.94568
سار	-9.94646
▁المسارحة	-9.94663
▁يعني	-9.94666
▁35	-9.9471
ده	-9.9473
ريف	-9.94779
▁السيد	-9.94859
▁المهمة	-9.94888
▁جاء	-9.94888
▁الضوء	-9.9489
▁موسي	-9.94922
▁الاخير	-9.94938
▁النرويج	-9.94947
▁الراي	-9.95015
▁ودرس	-9.95074
79	-9.95081
▁حلقة	-9.95094
لق	-9.95122
وطن	-9.95156
افل	-9.9522
قف	-9.95258
زواحف	-9.9526
▁الولادة	-9.95389
▁طيار	-9.95395
▁1957	-9.95403
▁عمرو	-9.95414
▁ضمك	-9.95434
▁يعتمد	-9.95463
وضع	-9.95472
▁الاستراتيجية	-9.95491
▁الملعب	-9.95497
▁التحرير	-9.95631
▁الصوت	-9.95636
نتيجة	-9.95693
▁ويندوز	-9.95791
12	-9.95806
▁جمال	-9.95836
▁هار	-9.95852
▁حيوية	-9.95931
بول	-9.9594
▁التطور	-9.95986
▁2018.	-9.96079
▁تعاون	-9.96097
▁مدة	-9.96125
▁اطفال	-9.96129
▁العروبة	-9.96129
▁بقيادة	-9.96134
ساحة	-9.96145
▁1950	-9.96158
▁رواد	-9.96175
▁موسكو	-9.96187
▁الاستخدام	-9.96197
ur	-9.9628
▁ليست	-9.96284
▁السفارة	-9.96365
راز	-9.96373
▁الدينية	-9.96399
فضل	-9.96403
▁2014.	-9.96418
▁فلسطينيون	-9.96447
▁الملفات	-9.96482
▁منفذ	-9.96491
شد	-9.96518
▁التاسع	-9.96534
▁جيل	-9.96572
▁الخليجي	-9.96593
اجهزة	-9.9662
فال	-9.96656
▁بول	-9.96675
▁الدقيقة	-9.96686
▁وبال	-9.96761
تنوع	-9.96779
▁انشا	-9.968
▁هولندا	-9.96833
ضخ	-9.96844
▁نفسها	-9.96846
▁ظهور	-9.96875
▁هارفارد	-9.96875
▁الفيصل	-9.96879
تلك	-9.96924
وزارة	-9.96926
▁والمعادن	-9.96957
▁ابوظبي	-9.97025
▁معالم	-9.97025
▁الحسن	-9.97081
▁الصيف	-9.97094
▁القومي	-9.97126
▁لاي	-9.97295
طالع	-9.97322
نمو	-9.9738
▁كول	-9.97381
اداة	-9.97467
▁التو	-9.97474
▁يوفر	-9.97484
واء	-9.97591
▁الاحصاءات	-9.97611
▁انتخب	-9.97628
▁لغات	-9.97663
88	-9.97665
حضر	-9.97698
▁اش	-9.97762
▁اد	-9.97915
▁عراقيون	-9.97917
▁مشترك	-9.97949
▁رييسية	-9.97998
▁السابع	-9.98005
▁القلب	-9.98025
لتحديد	-9.98044
▁الخارجي	-9.98063
▁القوة	-9.98136
▁المبكرة	-9.98173
▁اخذ	-9.982
▁علامات	-9.98312
سلم	-9.98345
▁2015.	-9.98354
▁الصلة	-9.98444
▁اللغات	-9.98464
▁كشف	-9.98478
▁ساحل	-9.9852
▁القطع	-9.98539
▁وادوات	-9.9856
مون	-9.98613
▁المدي	-9.98676
▁السياحية	-9.98702
زال	-9.98769
▁ماجد	-9.98775
▁المنظمات	-9.98802
▁بيش	-9.9881
▁الحالة	-9.98856
▁(14	-9.98886
18	-9.98891
▁الذهب	-9.98892
شف	-9.98924
▁ياتي	-9.98958
▁وطنية	-9.9905
سلي	-9.99134
شبكة	-9.99145
▁اللطيف	-9.99148
▁للطاقة	-9.99148
▁الكوكب	-9.9915
▁الناحية	-9.99151
▁للامم	-9.99157
▁برمجة	-9.99168
▁نايف	-9.99223
▁ووادي	-9.99246
امل	-9.99258
▁المكتب	-9.99264
▁المتوقع	-9.99266
29	-9.99268
▁سبعة	-9.99273
▁برلين	-9.9928
▁رد	-9.99288
▁سبق	-9.99302
شار	-9.99313
▁لاحق	-9.99327
▁مستخدم	-9.99343
كرة	-9.9936
▁اداريا	-9.99372
▁مدخل	-9.99381
▁وصول	-9.99391
سلام	-9.99418
▁لحفظ	-9.99435
كة	-9.99462
▁البترول	-9.99475
بيان	-9.99477
▁الاستثمارات	-9.99499
▁الاس	-9.99539
▁رياضي	-9.99555
▁الاسلحة	-9.9958
توافق	-9.99602
▁اوكرانيا	-9.99607
رصد	-9.99609
▁امراة	-9.99644
▁المستشفي	-9.99712
56	-9.99726
قابلة	-9.99727
▁حمل	-9.99767
▁القابضة	-9.99919
▁والخ	-9.99934
▁سياسة	-9.99935
▁الجودة	-9.99943
▁مبارك	-9.99977
▁ماء	-10.0002
▁نبذه	-10.0004
▁والنشر	-10.0005
▁الصباح	-10.001
▁قطع	-10.001
▁عيون	-10.0013
▁مارك	-10.0016
لل	-10.0022
▁معماري	-10.0023
32	-10.0025
جار	-10.0025
▁غاني	-10.0033
الك	-10.0034
▁غرف	-10.0038
▁قلب	-10.0044
▁حب	-10.0045
▁التصوير	-10.0048
▁والكويت	-10.005
راح	-10.0052
▁اهتمام	-10.0054
سوق	-10.0054
الاحساء	-10.0063
تقل	-10.0064
دفع	-10.0064
▁بنفس	-10.0065
▁غوانتانامو	-10.0069
▁البشري	-10.0071
▁الاسود	-10.0072
▁والتطوير	-10.0073
▁سانت	-10.0074
▁التخزين	-10.0075
▁الامنية	-10.0076
▁ساو	-10.0079
مكانية	-10.0079
▁وكاتب	-10.008
▁الادوات	-10.0082
وجه	-10.0083
▁طبيعية	-10.0084
▁مكونات	-10.0085
▁90	-10.0086
▁لدعم	-10.0089
بوب	-10.0092
▁الصحي	-10.0097
▁الراس	-10.0101
رسم	-10.0103
▁الزمن	-10.0104
يقة	-10.0108
▁بطل	-10.0116
▁اعتماد	-10.0125
▁سمي	-10.0129
▁بث	-10.0132
▁حق	-10.0135
▁القدرة	-10.0136
سور	-10.0138
▁الافراد	-10.0149
مول	-10.0153
قصر	-10.0153
▁السويد	-10.016
لاء	-10.0162
▁اجمالي	-10.0175
▁U	-10.0177
رواية	-10.0191
▁المهام	-10.0192
▁التن	-10.0193
ادة	-10.0196
▁للمر	-10.0199
طلب	-10.0201
▁الاكاديمي	-10.0203
▁الشرطة	-10.0212
▁مسلم	-10.0214
▁شرقا	-10.0216
شام	-10.0218
▁بلد	-10.022
▁بالكامل	-10.0226
▁ميونخ	-10.0226
درس	-10.0226
▁البرمجة	-10.0227
▁الاشارة	-10.0229
31	-10.0238
رام	-10.024
عام	-10.0243
دعوة	-10.0248
▁يقول	-10.0249
حسن	-10.025
▁كتابه	-10.025
▁المحدودة	-10.0252
ation	-10.0252
47	-10.0252
▁لجميع	-10.0255
▁الهندسية	-10.0258
▁يوميا	-10.0259
▁لاكثر	-10.0264
▁المشترك	-10.0264
▁ودول	-10.0265
ندر	-10.0268
▁اللبنانية	-10.0272
حب	-10.0278
مسلسل	-10.0279
▁مواطن	-10.0281
▁السفر	-10.0286
▁قريب	-10.0292
▁الداخلي	-10.0299
▁تقسيم	-10.0302
▁للبترول	-10.0305
صلاة	-10.0306
▁تزوج	-10.0306
▁تمنح	-10.0306
▁ذكور	-10.0306
خت	-10.0306
▁الابعاد	-10.0307
▁1948	-10.0307
عكس	-10.0308
22	-10.0309
▁مخطط	-10.031
▁الامين	-10.0316
▁المعمارية	-10.0323
▁غرفة	-10.0323
▁فرنسيون	-10.0326
▁صنع	-10.0328
▁المحكمة	-10.0333
▁2010.	-10.0336
امير	-10.0336
67	-10.034
▁اللبناني	-10.034
▁مستقلة	-10.0346
▁دقيقة	-10.0352
طع	-10.0353
▁الامراض	-10.0356
▁البلدة	-10.0357
يكا	-10.0359
شعر	-10.0359
▁الكترونية	-10.0361
▁والص	-10.0361
وين	-10.0361
▁نسب	-10.0364
صد	-10.0368
لسنة	-10.0368
تخصص	-10.0369
▁المد	-10.0372
▁الاصل	-10.0373
li	-10.0376
▁قصير	-10.0384
▁اند	-10.0385
▁للميلاد	-10.0385
▁ريو	-10.0388
▁عميد	-10.0392
بطولة	-10.0393
اسم	-10.0394
دولة	-10.0397
▁وتشمل	-10.0399
شتمل	-10.04
▁البرج	-10.0402
▁شمالا	-10.0404
▁دخول	-10.0406
▁المحسن	-10.0407
▁العيون	-10.041
▁الوجه	-10.0414
▁يشمل	-10.0415
مساعدة	-10.0416
▁الشعرية	-10.0417
مير	-10.0418
▁يست	-10.0419
ضع	-10.0419
سعة	-10.0424
مية	-10.0429
دس	-10.043
▁الفقه	-10.0431
▁العقد	-10.0432
ادية	-10.0441
49	-10.0441
ma	-10.0452
▁ومدرسة	-10.0456
▁هنا	-10.0458
-2	-10.0459
حقول	-10.0464
▁بحوث	-10.0466
▁قابل	-10.0466
▁النقوش	-10.0467
▁الجندل	-10.0468
▁الهواتف	-10.0469
▁حياتها	-10.047
▁القصة	-10.0482
▁مدرجة	-10.0484
▁والسعودية	-10.0486
▁ملاعب	-10.0486
زيادة	-10.0499
▁تغير	-10.0501
▁المصطلح	-10.0502
▁النشر	-10.0504
▁العمال	-10.0508
▁والعراق	-10.0516
يمي	-10.0524
▁عامر	-10.0537
▁البحري	-10.0541
ايها	-10.0546
قابل	-10.0546
▁برتغالي	-10.0547
▁اذربيجان	-10.0547
▁راشد	-10.0547
▁اكمل	-10.0548
▁لانتاج	-10.0548
▁زيد	-10.0549
▁العو	-10.0559
▁اداء	-10.056
▁والتدريب	-10.056
▁المسيرة	-10.056
te	-10.0561
▁تمتلك	-10.0563
▁وليس	-10.0565
▁2019.	-10.0567
01	-10.0568
درج	-10.057
لاعب	-10.0571
35	-10.0574
▁الصينية	-10.0582
▁مسرحية	-10.0582
▁جم	-10.0594
قرية	-10.0599
▁الحل	-10.0601
▁المقر	-10.0602
▁الاسباني	-10.0606
ميدالية	-10.0617
الق	-10.0619
▁كورونا	-10.063
▁ناحية	-10.063
▁مغربي	-10.0631
▁s	-10.0631
▁للكتاب	-10.0636
بوس	-10.0636
▁الروسية	-10.064
مساحة	-10.0641
▁بريطانيون	-10.0644
عاد	-10.065
▁عنيزة	-10.0651
▁بيل	-10.0653
افضل	-10.0654
▁محلية	-10.0658
▁التركي	-10.0658
▁زراعية	-10.066
▁المجالس	-10.0661
▁باحث	-10.0662
▁80	-10.0667
▁الدعم	-10.0668
▁الخر	-10.067
▁الرسوم	-10.0674
▁45	-10.0675
▁70	-10.0676
تحدث	-10.0678
▁وخط	-10.0685
▁بعمل	-10.07
▁رياض	-10.0704
am	-10.0704
▁عصر	-10.0705
وارد	-10.0706
▁برو	-10.0709
▁الغامدي	-10.0712
▁كمبيوتر	-10.0712
▁المتعددة	-10.0712
▁مصلحة	-10.0712
نية	-10.0712
▁القبايل	-10.0713
▁الرجال	-10.0715
▁الجبيل	-10.0716
68	-10.0718
▁كبيرا	-10.0721
▁2.	-10.0721
▁بروتوكول	-10.0722
نب	-10.0722
▁الاقل	-10.0723
▁ترك	-10.0723
▁الاقليمية	-10.0724
▁الانصار	-10.0738
▁تش	-10.0739
▁السنوات	-10.0741
▁الاداء	-10.0749
يسي	-10.0759
▁طويل	-10.0762
▁يودي	-10.0764
▁غي	-10.0765
▁متعدد	-10.0766
▁المالي	-10.0767
اشخاص	-10.0788
▁ومسجد	-10.0791
▁اشكال	-10.0795
▁طلاب	-10.0796
▁تقرير	-10.0796
▁ناشط	-10.0796
▁انتشار	-10.0796
وخ	-10.0796
▁اجتماع	-10.0798
▁القيادة	-10.0801
دري	-10.0805
▁تغطي	-10.0806
رار	-10.081
ناس	-10.0814
▁مستقل	-10.0814
بعثات	-10.0818
▁تمويل	-10.0822
▁عضوية	-10.0822
▁ثانية	-10.0832
مد	-10.0835
▁يكن	-10.0836
▁ليكون	-10.0844
▁النبي	-10.0845
▁البحثية	-10.0854
▁مسمي	-10.0854
▁البريد	-10.0855
زع	-10.0873
▁الاحيان	-10.088
▁طراز	-10.0881
تفوق	-10.0885
غال	-10.0888
▁مزود	-10.089
▁يقارب	-10.0891
▁شيخ	-10.0892
▁السينمايي	-10.0894
حاسب	-10.0897
▁الطبق	-10.0912
▁للاندية	-10.0913
▁رياضياتي	-10.0919
▁لبنانيون	-10.0922
▁ويضم	-10.0926
16	-10.0927
▁النظرية	-10.093
▁اعمالها	-10.0934
▁القر	-10.0938
اكي	-10.0941
اتهم	-10.0951
سكر	-10.0951
▁انشات	-10.0954
صح	-10.0956
▁الديمقراطية	-10.096
▁عا	-10.0964
▁الوهاب	-10.0965
▁الاشخاص	-10.0966
▁السياسة	-10.0967
▁بالمدينة	-10.0973
▁يربط	-10.0981
▁جذب	-10.0982
▁النشاط	-10.0984
اهل	-10.0986
▁سحاب	-10.1006
▁ماري	-10.101
▁النقد	-10.101
▁التونسي	-10.101
هندسة	-10.101
▁التمثيل	-10.1013
▁موضوع	-10.1013
34	-10.1014
▁ورد	-10.1016
▁صباح	-10.1019
▁موسوعة	-10.1021
▁ملف	-10.1022
▁لانه	-10.1022
▁مستشفيات	-10.1029
اسماك	-10.1031
برز	-10.1031
▁تاريخي	-10.1038
▁اسبوع	-10.1038
ايه	-10.1044
ad	-10.1046
انة	-10.1048
نظم	-10.1049
▁الشتاء	-10.105
▁حيوانات	-10.105
▁ذاكرة	-10.105
▁لانشاء	-10.1051
▁الانواع	-10.1053
▁قصص	-10.1058
▁يبعد	-10.1065
▁للبحث	-10.1068
▁الموتمرات	-10.1068
▁عاش	-10.1069
بطاقة	-10.1071
▁لرييس	-10.1072
▁2006.	-10.1079
61	-10.1087
▁بدء	-10.1089
▁اليابانية	-10.109
تحول	-10.1094
▁دفاع	-10.1095
lo	-10.1095
▁ذي	-10.1101
وحدة	-10.1109
▁الفرع	-10.1112
▁المحيط	-10.1135
▁انجلوس	-10.1136
غار	-10.1136
▁1949	-10.1138
▁السلطات	-10.1138
▁رحلة	-10.1139
▁وجد	-10.114
▁نال	-10.114
▁مكعب	-10.1143
▁مور	-10.1144
▁النار	-10.1144
▁الحربي	-10.1147
▁رقمية	-10.1151
▁الاح	-10.1152
متاز	-10.1155
▁الغر	-10.1156
la	-10.1158
▁حكام	-10.1163
كري	-10.1171
▁الحديدية	-10.1172
▁معجم	-10.1176
منذ	-10.1176
▁التنظيم	-10.1179
▁النباتات	-10.1179
▁وتكنولوجيا	-10.1179
▁For	-10.1181
▁خيال	-10.1181
فين	-10.1184
▁للقو	-10.1188
▁ونقل	-10.1191
تجار	-10.1198
▁الجنسية	-10.1204
▁مولف	-10.1206
▁والان	-10.1206
▁بور	-10.1207
37	-10.1209
▁كوم	-10.1214
ترك	-10.1222
Saudi	-10.1223
▁بولندا	-10.1223
▁بمكة	-10.1225
▁الاعلامية	-10.1229
▁يجعل	-10.1229
▁150	-10.1229
الت	-10.1233
انظمة	-10.124
عرف	-10.1248
▁البرتغالي	-10.1251
▁للتنمية	-10.1259
▁بنظام	-10.126
▁الانتخابات	-10.1261
▁الحجم	-10.1262
▁والي	-10.1263
تصبح	-10.1272
▁خليج	-10.1272
▁شمس	-10.1273
▁حوادث	-10.1276
▁2009.	-10.1277
▁واستاذ	-10.1278
▁واس	-10.1284
▁وقسم	-10.1284
يتش	-10.1295
▁اقام	-10.1298
▁مج	-10.1299
▁نهايي	-10.131
▁1952	-10.131
▁روايات	-10.1311
▁1951	-10.1312
▁مرافق	-10.1312
نوع	-10.1312
▁السديري	-10.1313
▁المهني	-10.1314
▁والادب	-10.1318
▁هما	-10.1318
33	-10.1319
▁وفاة	-10.132
▁ميدالية	-10.1324
لوك	-10.1327
▁المجاورة	-10.1327
▁2007،	-10.1329
58	-10.1329
▁جل	-10.1331
▁العايلة	-10.1332
▁الربيع	-10.1338
كيفية	-10.134
▁الاصلي	-10.1341
▁بنية	-10.1343
▁البن	-10.1344
▁جامعي	-10.1346
▁الكتابة	-10.1348
▁المسرح	-10.1352
▁المنصب	-10.1355
▁الخيال	-10.1355
45	-10.1361
▁فرص	-10.137
▁فندق	-10.1376
ظل	-10.1379
62	-10.138
بيت	-10.1385
▁وف	-10.1385
رض	-10.1389
▁المش	-10.1396
▁وهذه	-10.1399
رمز	-10.1401
وفا	-10.1402
▁اسلوب	-10.1402
▁ارسال	-10.1403
ثني	-10.1406
▁اغ	-10.141
▁وبعدها	-10.141
يغ	-10.1414
▁دمج	-10.142
▁بيع	-10.1436
▁حضر	-10.1439
وفي	-10.1442
▁النص	-10.145
▁الفلسطيني	-10.1453
75	-10.1458
روح	-10.1461
ماس	-10.1465
قيمة	-10.1466
▁الاصدار	-10.1467
▁النظر	-10.1472
▁البوم	-10.1475
بيل	-10.1486
▁التمويل	-10.149
▁نفط	-10.149
▁جغرافيا	-10.1497
يكون	-10.1498
▁اختصارا	-10.1499
تنمية	-10.1502
57	-10.1506
▁ارتفاعه	-10.1512
▁معهم	-10.1516
▁معلم	-10.1519
▁الصادرة	-10.1522
▁القدس	-10.1524
حرارة	-10.1533
▁الفرعية	-10.1534
▁ذكرت	-10.1534
وكس	-10.1537
▁القريات	-10.1537
فتح	-10.154
رتفع	-10.1542
th	-10.1546
▁باشا	-10.1552
▁W	-10.1556
▁تقييم	-10.1559
ريش	-10.1568
▁والفن	-10.157
▁الخام	-10.1571
▁نجم	-10.1571
▁الترجي	-10.1572
الولايات	-10.1573
▁الماني	-10.1575
▁عرعر	-10.1578
▁الرشيد	-10.1578
▁1953	-10.158
48	-10.1582
▁Arabia	-10.1583
▁الرسول	-10.1584
▁ولعب	-10.1585
▁المعدنية	-10.1586
▁تع	-10.1588
▁ومحمد	-10.1589
▁كن	-10.1591
▁التقدم	-10.1597
▁رتبة	-10.1607
▁32	-10.161
رقي	-10.1614
زرع	-10.1618
▁الخليجية	-10.1619
▁الثامن	-10.1634
▁الواحد	-10.1634
▁الاعلان	-10.1639
▁يمر	-10.1639
▁تمر	-10.1642
▁الشمسية	-10.1645
▁القضاء	-10.1646
▁شجرة	-10.1646
وثر	-10.1654
▁ابر	-10.1657
محافظة	-10.1658
▁ساهم	-10.1663
▁الدر	-10.1665
▁معرفة	-10.1665
!	-10.1669
▁والتوزيع	-10.1669
▁خميس	-10.1669
مناهج	-10.1671
▁الشخصيات	-10.1673
▁مغ	-10.1674
▁عناصر	-10.1674
▁يتضمن	-10.1677
▁كتابة	-10.1679
95	-10.1679
X	-10.168
دعي	-10.1685
▁شقيق	-10.1689
ربط	-10.169
▁الصادر	-10.1691
▁فلا	-10.1691
▁الميلادي	-10.17
▁اخرين	-10.1706
▁الفلسطينية	-10.1706
▁الجانب	-10.1717
un	-10.1721
تعامل	-10.1722
اذ	-10.1726
▁عم	-10.1739
▁الاماراتي	-10.1743
ضة	-10.1755
يرو	-10.1757
▁تمثيل	-10.1761
▁مرتبط	-10.1761
▁الهواء	-10.1762
▁والتراث	-10.1762
▁الاقسام	-10.1763
▁رسالة	-10.1764
▁كور	-10.1766
▁افتتحت	-10.1768
ريح	-10.1769
▁الحرام	-10.1769
يست	-10.177
▁شرف	-10.1771
▁خل	-10.1771
▁القيام	-10.1773
يص	-10.1779
▁هدفا	-10.1785
▁الاحصاء	-10.179
▁يمنيون	-10.1796
شراكة	-10.1799
89	-10.1801
▁طبيب	-10.1803
▁الذكية	-10.1804
▁الاشراف	-10.1805
▁مشارك	-10.1806
▁ماك	-10.1806
▁واح	-10.1806
▁والاجتماعية	-10.1807
بريد	-10.1808
▁السباق	-10.181
▁الاهتمام	-10.1811
▁مثال	-10.1813
▁رسم	-10.1816
▁العمر	-10.1828
روضة	-10.1829
▁الالة	-10.1831
حاول	-10.1832
15	-10.1838
▁سر	-10.1841
▁التلفزيون	-10.1842
▁غاز	-10.1843
▁اسمها	-10.1849
خدم	-10.1849
▁كوبا	-10.1851
▁تركز	-10.1851
▁السي	-10.1852
▁محددة	-10.1853
▁فعاليات	-10.1856
▁فضاء	-10.1856
▁طاش	-10.1857
▁ظبي	-10.1857
▁هجري	-10.1858
▁العلاج	-10.1859
▁سافر	-10.1859
▁هولنديون	-10.1863
▁الحجاج	-10.1864
46	-10.1871
خير	-10.1871
▁للبحوث	-10.1872
توضيح	-10.1873
▁تعيين	-10.1873
▁اقرا	-10.1874
▁اجري	-10.1876
▁اتصال	-10.1878
▁لبناني	-10.188
82	-10.1882
▁قرب	-10.1885
▁ووزير	-10.1886
▁لقد	-10.1888
▁الممثل	-10.1889
▁الحسين	-10.1891
▁انترنت	-10.1893
▁رايد	-10.1896
▁بيان	-10.1896
▁2011،	-10.1901
▁قيم	-10.1905
▁السم	-10.1906
▁وص	-10.1909
▁والثقافة	-10.191
▁برازيلي	-10.1911
▁تعديل	-10.1913
سخ	-10.1913
▁الوحيد	-10.1914
نيك	-10.1915
قيم	-10.1918
▁البو	-10.192
▁بقايا	-10.1922
▁لديه	-10.1925
قوم	-10.1925
▁مخرج	-10.1925
كير	-10.1929
عرض	-10.1939
▁الانجليزي	-10.1939
▁رب	-10.1942
▁ونشر	-10.1948
▁بانشاء	-10.1949
▁1954	-10.1949
▁قبرص	-10.1949
▁1418	-10.1949
▁2012.	-10.195
▁الوحدات	-10.195
▁للرجال	-10.1956
▁اليمني	-10.1959
دعو	-10.1962
▁عثر	-10.1962
▁اللا	-10.1965
▁بلدان	-10.1971
شاي	-10.1972
▁عراقي	-10.1973
▁الثورة	-10.1976
▁والزراعة	-10.1978
▁اداري	-10.198
بلي	-10.1981
مهرجان	-10.1984
شان	-10.1986
▁احصاييات	-10.1992
▁زراعة	-10.1993
▁سيف	-10.1995
▁حوسبة	-10.2004
▁الاسيوي	-10.201
ent	-10.2017
حان	-10.2017
▁البنات	-10.2017
▁مادة	-10.2019
07	-10.202
▁ربط	-10.2024
اقل	-10.2025
▁ثمانية	-10.2029
▁جميل	-10.2032
▁النسب	-10.2033
▁الديوان	-10.2033
سع	-10.2035
▁مذيع	-10.2037
درب	-10.2041
▁الاسكندرية	-10.2041
▁سنغالي	-10.2042
▁اقصي	-10.2042
▁العلوي	-10.2043
▁زميل	-10.2043
▁وتعزيز	-10.2044
ميل	-10.2044
▁رجب	-10.2045
▁السرعة	-10.2045
▁للطيران	-10.2046
▁تظهر	-10.2047
▁وتقديم	-10.2054
▁الباحثين	-10.2057
▁نهر	-10.2059
▁توجيه	-10.206
عثور	-10.2061
▁المستمر	-10.2064
▁(3	-10.2065
▁سلامة	-10.2068
02	-10.2068
تبادل	-10.207
▁العناصر	-10.2071
▁شعار	-10.2072
▁الحيوانات	-10.2077
▁يمتد	-10.2077
▁الصيني	-10.2094
▁الارهاب	-10.2095
▁اشارة	-10.2095
▁الطالب	-10.2105
▁اخ	-10.2106
▁الخمس	-10.2108
جير	-10.211
رود	-10.2114
▁السا	-10.2117
▁(1	-10.212
▁وتاريخ	-10.2124
▁ظهرت	-10.2126
▁مولفات	-10.2135
▁وكالات	-10.2137
▁دكتوراه	-10.2137
▁1945	-10.2139
▁اختير	-10.2139
▁سيد	-10.214
▁الاشجار	-10.214
63	-10.2148
▁جنس	-10.2148
مديرية	-10.2149
▁كار	-10.2149
▁وظايف	-10.2153
▁فنية	-10.2156
جيل	-10.2158
▁مملوكة	-10.2162
اساليب	-10.2165
▁مجالس	-10.2168
▁مبادرة	-10.2173
▁التاريخي	-10.2179
▁الدايرة	-10.2182
ديوان	-10.2182
▁تور	-10.2182
06	-10.2184
▁فار	-10.2185
فرع	-10.2196
فورد	-10.2197
جع	-10.22
▁نسخة	-10.2201
▁ادارية	-10.2203
▁ملتقي	-10.2208
▁الباب	-10.2216
▁مقدم	-10.2219
▁اقتصادي	-10.2221
باس	-10.2225
05	-10.2226
▁التعامل	-10.2231
▁الخرطوم	-10.2233
▁ثالث	-10.2233
▁حاز	-10.2233
قطر	-10.2234
سد	-10.2235
▁سرعة	-10.2235
▁ليصبح	-10.2235
تصل	-10.2236
▁الاماكن	-10.2237
سكة	-10.2237
▁مدرسا	-10.2241
▁لفترة	-10.2242
سعي	-10.2243
▁طوال	-10.2247
▁مستقبل	-10.2248
▁لوحة	-10.2253
▁درب	-10.2253
▁الشهادة	-10.2253
▁مرض	-10.2254
ce	-10.2257
▁الوسايط	-10.2258
▁يدرس	-10.2259
38	-10.2262
▁التراثية	-10.2262
▁احيانا	-10.2264
▁يمني	-10.2266
▁صرب	-10.2268
غرض	-10.2271
قم	-10.2271
فضلا	-10.2277
▁سول	-10.2279
▁فهم	-10.228
▁العصبية	-10.2281
▁تختلف	-10.2286
08	-10.2286
▁بالسعودية	-10.2288
▁كثيرا	-10.2294
▁اثنين	-10.2296
▁اردني	-10.2296
▁مشتركة	-10.2297
دت	-10.2299
▁شرقي	-10.2305
▁المساعدة	-10.2308
▁حديد	-10.231
▁السينما	-10.2314
▁الفوز	-10.2317
▁المقرر	-10.2317
يوس	-10.2319
ايمة	-10.2322
▁الفكر	-10.2323
▁الصورة	-10.2323
▁رييسي	-10.2326
ign	-10.2329
×	-10.233
▁2013.	-10.2331
▁1414	-10.2334
▁الار	-10.2338
▁تقارب	-10.2338
▁الدعوة	-10.2339
▁الدفع	-10.2342
رمي	-10.2347
▁ود	-10.2347
▁الوثايق	-10.2348
▁الحساب	-10.2352
▁يظهر	-10.2353
ترون	-10.2356
لس	-10.2357
▁بورص	-10.2358
▁للهندسة	-10.2358
▁الاسواق	-10.236
▁ورق	-10.236
▁سيرته	-10.236
▁لتحقيق	-10.2361
=	-10.2362
فاي	-10.2363
ورو	-10.2366
▁ابرزها	-10.2367
▁المعايير	-10.2368
▁الفصل	-10.2369
▁التنفيذية	-10.2371
ربي	-10.2372
▁ويعمل	-10.2378
▁الامة	-10.238
▁حراس	-10.2383
▁السطح	-10.2383
تردد	-10.2388
▁استخدمت	-10.2391
▁المولف	-10.2397
▁امتداد	-10.2399
تنقل	-10.2409
▁الاجمالية	-10.2412
71	-10.2416
ازم	-10.2416
▁والعشرين	-10.2428
▁اسواق	-10.2428
▁بجوار	-10.2428
▁1429	-10.243
▁جسر	-10.2432
▁العثماني	-10.2435
▁السبع	-10.2435
▁قراب	-10.2435
▁السحابية	-10.2437
▁تحديث	-10.244
بية	-10.2443
▁المعالم	-10.2443
id	-10.245
▁اهمها	-10.2451
▁موارد	-10.2453
▁وقام	-10.2454
▁الاذاعة	-10.2456
▁شوون	-10.2457
▁الحق	-10.2464
▁فني	-10.2472
▁الوكالة	-10.2472
شرق	-10.2476
91	-10.2478
▁يهود	-10.2479
▁التركية	-10.248
تقدير	-10.2483
▁النمسا	-10.2486
▁عباس	-10.2488
▁شرح	-10.2488
سحب	-10.2497
شعب	-10.2497
▁المحطة	-10.2502
▁اصدارات	-10.2503
▁قراءة	-10.2504
اكاديميون	-10.2506
▁الايطالي	-10.2518
▁وفن	-10.252
لادارة	-10.2522
حضار	-10.2523
▁قضايا	-10.2527
▁سكاكا	-10.2527
▁1415	-10.2529
▁محكمة	-10.2529
▁الانتقال	-10.253
▁النخل	-10.2532
وض	-10.2533
▁العقل	-10.2535
▁التحول	-10.2536
▁حلب	-10.2537
▁البري	-10.2549
فص	-10.2554
المعروف	-10.2555
▁الصب	-10.2558
▁الخوارزميات	-10.2562
▁الترتيب	-10.2562
59	-10.2565
تيل	-10.2566
ريادة	-10.2572
خزن	-10.2573
اخر	-10.2577
▁الربع	-10.2583
▁الزيت	-10.2586
ره	-10.2587
فرق	-10.259
▁المنتج	-10.2597
عدم	-10.2597
▁عالي	-10.2597
▁وتحديد	-10.2602
دومة	-10.2609
▁400	-10.261
فير	-10.261
كسر	-10.261
زار	-10.2614
▁نماذج	-10.2617
▁وابن	-10.2621
ثم	-10.2627
▁طارق	-10.2627
اتمتة	-10.2627
▁ربحية	-10.2628
▁وخدمات	-10.2628
▁قطار	-10.2632
ion	-10.2633
▁عقب	-10.2637
▁نشا	-10.2641
▁صناعية	-10.2641
▁مصطلحات	-10.2644
▁الاعداد	-10.2646
ويد	-10.2649
▁يشارك	-10.265
▁كريم	-10.2651
▁قديم	-10.2651
▁بحرية	-10.2653
▁المقالات	-10.2654
ترا	-10.2655
▁تحدث	-10.2655
▁رسمي	-10.2655
▁سيتي	-10.266
▁واحدا	-10.2661
▁75	-10.2661
لقد	-10.2662
▁بنيت	-10.2662
▁منتج	-10.2667
;	-10.2667
بسط	-10.2668
ترجم	-10.2669
▁تجاري	-10.2671
▁حصن	-10.2674
يحتوي	-10.2674
متابعة	-10.2675
Q	-10.2675
▁السفير	-10.2676
عارض	-10.2677
▁صاروخ	-10.268
▁الاب	-10.268
▁تري	-10.2694
▁هجرة	-10.2694
▁تبادل	-10.2697
مارك	-10.2698
▁الميناء	-10.2699
▁ماي	-10.2702
ne	-10.2703
ادت	-10.2704
▁والك	-10.2705
▁سار	-10.2705
▁محركات	-10.2709
▁سريع	-10.271
▁ضرب	-10.2711
▁هيكل	-10.2712
▁اك	-10.2715
▁استخدامها	-10.2717
▁الصفا	-10.272
حافظ	-10.2725
▁الشارقة	-10.2728
▁تنسيق	-10.2728
▁مسقط	-10.273
stry	-10.2739
▁شيء	-10.2743
▁يصبح	-10.2745
دراسة	-10.2746
▁الخامسة	-10.2747
مام	-10.275
صحراء	-10.2755
▁الحادي	-10.276
باط	-10.2764
▁الاتفاقية	-10.2766
كتب	-10.2767
▁الالف	-10.2768
om	-10.2774
▁المسابقة	-10.2775
▁فلم	-10.2778
▁التعرف	-10.278
▁سمير	-10.2782
عندما	-10.2785
▁الجمعة	-10.2786
غلب	-10.2787
نتج	-10.2789
زيل	-10.279
موس	-10.279
▁ضم	-10.2792
▁سرير	-10.2796
▁الاعلامي	-10.2798
فوز	-10.2801
▁شان	-10.2806
▁2005.	-10.2808
وسايل	-10.2811
▁مصمم	-10.2818
تيك	-10.2819
▁المو	-10.2821
نظر	-10.2822
قتل	-10.2823
▁تاهل	-10.2828
يتا	-10.283
▁للاطفال	-10.283
▁ولديه	-10.2834
▁الظهران	-10.2835
تاج	-10.284
▁للبنين	-10.2841
▁ممثلو	-10.2842
▁المهندس	-10.2842
▁يعتقد	-10.2844
▁لبعض	-10.2847
55	-10.285
تجاوز	-10.2855
65	-10.2855
▁التقويم	-10.2857
▁الابار	-10.2857
نام	-10.2858
▁الصخرية	-10.2862
▁الذاكرة	-10.2864
▁امم	-10.2868
شيعة	-10.287
▁وتحليل	-10.2873
▁القصيرة	-10.2873
▁ودور	-10.2874
حرف	-10.2875
شم	-10.2878
ساء	-10.288
▁وتتبع	-10.2881
▁محاولة	-10.2885
▁ودفن	-10.2891
زهر	-10.2892
ليس	-10.2895
▁ودعم	-10.2896
▁اثري	-10.2899
▁اعار	-10.2904
▁نوعها	-10.2905
▁نقاط	-10.2906
عناية	-10.2907
▁حفل	-10.2909
▁الثلاثة	-10.2912
ملك	-10.2916
▁وسي	-10.2918
▁سب	-10.2919
زراعة	-10.2924
▁الطول	-10.2925
فكرة	-10.2925
▁المايية	-10.2929
_	-10.2932
▁القضايا	-10.2933
اساتذة	-10.2933
▁قيام	-10.2934
▁ضفاف	-10.2934
قياس	-10.2935
="	-10.2937
▁بطولات	-10.2938
▁المباشر	-10.2939
▁الجبلين	-10.294
▁اسهم	-10.2943
▁احتياجات	-10.2945
▁العماني	-10.2946
مشاكل	-10.2951
▁للفريق	-10.2952
انابيب	-10.2954
ونغ	-10.2955
▁الطيور	-10.2959
انتهاء	-10.2961
طن	-10.2967
▁لنظام	-10.2968
▁الجميلة	-10.297
▁الوظايف	-10.2973
co	-10.2976
▁تقدير	-10.2976
سكو	-10.2979
98	-10.298
▁النحو	-10.2981
▁اليد	-10.2986
شرطة	-10.2987
▁عرضها	-10.2988
الاتجاه	-10.2991
▁الموج	-10.2993
os	-10.2994
ir	-10.2996
▁The	-10.2996
▁العبد	-10.2999
وادي	-10.3
ريم	-10.3
▁خير	-10.3001
▁الحاضر	-10.3009
عمق	-10.3017
صدر	-10.302
▁الطلب	-10.3021
▁تكوين	-10.3021
▁قطعة	-10.3022
▁حالات	-10.3023
▁مباشر	-10.3024
▁واخر	-10.3028
▁المجمعة	-10.3033
رفع	-10.3035
▁ولل	-10.3037
▁اكتمل	-10.3037
▁المعارف	-10.3037
▁صحة	-10.3039
▁الحديد	-10.304
▁معارك	-10.3042
شاط	-10.3045
▁الرواية	-10.3047
▁النمو	-10.3049
▁كاملة	-10.3053
▁للغاية	-10.3054
ter	-10.3057
▁Af	-10.3057
بعد	-10.3058
يتها	-10.306
▁الخصايص	-10.3061
▁طوكيو	-10.3064
28	-10.3065
▁البيت	-10.3068
▁بنحو	-10.3071
▁جهود	-10.3073
ثبت	-10.3074
▁مجموع	-10.308
▁محليا	-10.3081
ta	-10.3083
سماها	-10.3092
ورا	-10.3096
تنا	-10.31
86	-10.3101
توجد	-10.3103
▁المساهمة	-10.3106
87	-10.3107
تعديل	-10.3113
تغيرات	-10.3115
لعلوم	-10.3122
▁المفتوحة	-10.3122
▁طبيعي	-10.3123
▁العملاء	-10.3123
▁وست	-10.3129
▁اسبان	-10.313
ايع	-10.3131
ll	-10.3135
توقع	-10.3135
تحقق	-10.3136
▁النظم	-10.314
تنافس	-10.314
▁العمارة	-10.3143
▁التسويق	-10.3146
▁الاساس	-10.3148
لب	-10.315
▁وعند	-10.315
▁الاعتماد	-10.3154
▁عقدت	-10.3155
حط	-10.3156
53	-10.3159
قوانين	-10.3164
▁اعيد	-10.3169
▁والعربية	-10.3169
▁معتقل	-10.3175
الع	-10.3178
▁قايم	-10.3182
شاهد	-10.3182
▁محرك	-10.3185
جتمع	-10.3186
92	-10.3187
راي	-10.3189
لعدد	-10.3191
me	-10.3191
age	-10.3191
▁عادل	-10.3194
جسد	-10.3196
▁الدنمارك	-10.3198
▁مقرا	-10.3199
as	-10.32
▁دل	-10.3204
▁والش	-10.3208
▁الصالح	-10.321
خضع	-10.3211
▁التسجيل	-10.3212
سنة	-10.3213
رعي	-10.322
▁النجمة	-10.3226
▁الافريقي	-10.323
صوت	-10.3232
▁الحالات	-10.3233
جوز	-10.3233
▁مسرح	-10.3234
▁كانوا	-10.3238
▁عالميا	-10.3239
▁سيارة	-10.3244
—	-10.3249
▁بلقرن	-10.3249
▁بجانب	-10.3249
▁السلطان	-10.325
▁1939	-10.3251
▁القادر	-10.3252
▁الاصول	-10.3253
▁صنعاء	-10.3257
▁للس	-10.3263
▁الجزايرية	-10.3267
▁استراليون	-10.3269
▁1000	-10.3275
نقسم	-10.3277
مراقبة	-10.328
▁ينتمي	-10.328
▁مقال	-10.3281
▁للبنات	-10.3284
93	-10.3286
▁كيف	-10.3288
▁الاتحادية	-10.3289
▁ممثلة	-10.329
ثا	-10.3291
▁سوري	-10.3291
▁ملاحظات	-10.3296
▁(1)	-10.3312
▁مهن	-10.3318
▁55	-10.3335
تاجر	-10.3338
▁نيوز	-10.3341
▁تاسيسها	-10.3341
▁تنفيذي	-10.335
▁النور	-10.3352
ذا	-10.3355
عامل	-10.3356
▁Kingdom	-10.3356
▁المحترفة	-10.3356
▁الخميس	-10.3357
▁ويتراس	-10.3357
▁ساعات	-10.3357
▁الحاج	-10.3357
▁الوشم	-10.3358
▁1947	-10.3359
▁1402	-10.336
▁السدود	-10.336
▁البادية	-10.3361
▁التامين	-10.3363
▁اسفل	-10.3364
▁ويبعد	-10.3366
▁سدير	-10.3377
▁شعب	-10.3384
▁نمو	-10.3387
▁فلسطيني	-10.339
محمد	-10.3391
▁مار	-10.3392
▁وغيرهم	-10.3392
ul	-10.3395
اكثر	-10.3402
▁الهندية	-10.3402
▁القطاعات	-10.3403
▁تخطيط	-10.3407
كاس	-10.3414
▁معامل	-10.3414
▁كوكب	-10.3414
54	-10.3415
▁غربا	-10.3415
لخدمة	-10.3416
▁بك	-10.3416
▁الاتجاه	-10.3416
جود	-10.3416
▁الصومال	-10.3421
▁المستخدمين	-10.3427
دوب	-10.3435
▁سوف	-10.3439
▁وعين	-10.3443
▁الانتهاء	-10.3447
se	-10.3449
داي	-10.3451
▁ربيعة	-10.3453
▁تشيلي	-10.3454
لز	-10.3457
▁بينهم	-10.3462
▁الاصلية	-10.3462
▁الدوسري	-10.3465
▁بنسبة	-10.3465
fair	-10.3465
▁Mini	-10.3465
▁زيارة	-10.3466
▁صحيح	-10.3466
▁1412	-10.3468
جمع	-10.3468
▁العصور	-10.3469
▁الاوراق	-10.3469
لعب	-10.347
جبل	-10.347
▁واليمن	-10.3471
▁الطفل	-10.3473
▁الصلاة	-10.3474
500	-10.3475
▁وزن	-10.3477
▁صلة	-10.348
▁ذهب	-10.3481
مولف	-10.3481
▁ينتج	-10.3484
▁1408	-10.3485
فلسفة	-10.3488
▁مطارات	-10.3489
زان	-10.349
▁وقطر	-10.3491
▁وثلاث	-10.3493
▁سبع	-10.3495
▁الكشف	-10.3496
▁ريد	-10.3508
▁المخطط	-10.3511
وسي	-10.3512
▁المعالجة	-10.3513
um	-10.3515
74	-10.3515
وفيات	-10.3519
▁الرس	-10.3519
كب	-10.3522
▁مقاتل	-10.3525
جور	-10.3526
ضاف	-10.3528
▁احت	-10.3528
واج	-10.354
▁تقل	-10.3541
لر	-10.3543
صانع	-10.3547
▁شهد	-10.3548
▁وكتاب	-10.3549
داخل	-10.355
▁معروفة	-10.3553
▁العاملة	-10.3558
▁صلاح	-10.3563
▁مرتبة	-10.3565
▁النموذج	-10.3574
▁والابتكار	-10.3575
▁طاقم	-10.3575
▁انتقال	-10.3575
▁المعارض	-10.3576
▁ابتدايية	-10.3576
▁للتامين	-10.3577
▁الكاتب	-10.3577
▁1431	-10.3577
SA	-10.3578
▁1413	-10.3578
▁اتجاه	-10.3578
▁للح	-10.3579
▁يناه	-10.3579
▁لتقديم	-10.3581
▁الازهر	-10.3583
▁مهارة	-10.3584
اطلس	-10.3585
ركب	-10.3585
▁اطول	-10.3587
▁نظرة	-10.3587
▁المنشات	-10.3591
كث	-10.3594
▁والموسسات	-10.3596
21	-10.36
▁المدخل	-10.3601
▁المراحل	-10.3602
▁مركبات	-10.3604
▁التك	-10.3605
▁نت	-10.3606
▁عمره	-10.3607
ريد	-10.3608
▁بحرينيون	-10.3608
▁المكتبات	-10.361
▁القهوة	-10.3612
▁واول	-10.3612
▁التاثير	-10.3613
▁الضغط	-10.3613
39	-10.3616
▁والشرق	-10.3618
▁الاختبار	-10.3618
73	-10.3619
▁موظف	-10.3619
▁حرم	-10.362
▁لادن	-10.3622
▁المحمية	-10.3623
▁والاردن	-10.3624
▁كوميدي	-10.3625
▁تفاصيل	-10.3627
▁البي	-10.3633
▁الفلبين	-10.3642
يلا	-10.3644
▁المرور	-10.3649
صرف	-10.3651
نطق	-10.3651
رون	-10.3652
▁وعالم	-10.3653
▁الاولية	-10.3657
▁علاقة	-10.3657
▁القي	-10.366
سين	-10.366
▁هجوم	-10.3667
صيف	-10.3668
روف	-10.3671
كات	-10.3674
▁عملها	-10.3674
▁خوارزميات	-10.3675
J	-10.3678
▁التطبيق	-10.3681
81	-10.3681
▁مشاركا	-10.3681
قناة	-10.3684
j	-10.3686
▁البكيرية	-10.3686
▁للبيانات	-10.3686
▁الاخضر	-10.3687
▁الصناعات	-10.3687
▁قصور	-10.3688
▁1406	-10.3689
▁التوجيه	-10.3689
▁الاخبار	-10.369
▁حصة	-10.3694
تلقي	-10.3701
طة	-10.3701
▁مناخ	-10.3705
▁رومانيا	-10.3705
▁المواطنين	-10.3718
رير	-10.3718
اكا	-10.3721
عيش	-10.3727
▁سارة	-10.3727
هدم	-10.3728
▁(18	-10.3731
▁صفر	-10.3731
41	-10.3733
▁المحافظات	-10.3734
ليف	-10.3735
▁مالية	-10.374
عاني	-10.3741
ابر	-10.3746
بلدات	-10.3751
فع	-10.3751
▁التمر	-10.3757
▁بحر	-10.376
افق	-10.3761
▁v	-10.3765
خط	-10.3776
▁شعبي	-10.3778
صير	-10.3779
-14	-10.3781
▁معالج	-10.3784
▁الثانوي	-10.3786
▁الروسي	-10.3787
سقف	-10.3789
▁الروضة	-10.3792
يتين	-10.3794
▁سيارات	-10.3794
▁مخصصة	-10.3795
▁تميم	-10.3795
▁سنغافورة	-10.3795
▁القحطاني	-10.3798
راج	-10.3799
قاعدة	-10.3799
▁اليمامة	-10.38
▁الذرية	-10.3801
▁تصفيات	-10.3801
▁1419	-10.3803
▁كلاعب	-10.3809
▁الحاجة	-10.3818
▁تساعد	-10.3819
▁مستويات	-10.3824
تغطية	-10.383
▁الاميركية	-10.3831
▁مرصد	-10.3832
▁المهندسين	-10.3833
▁اضافية	-10.384
▁السلك	-10.3843
▁مفتوحة	-10.3846
▁الجري	-10.385
▁ملفات	-10.3852
▁الحو	-10.3854
▁واد	-10.3855
▁بقية	-10.3855
شاش	-10.3865
قبل	-10.3867
ذي	-10.387
▁تداول	-10.3875
▁فاي	-10.3877
▁الاحصايية	-10.3878
بني	-10.3879
▁صواريخ	-10.3879
▁نوف	-10.3885
ومة	-10.3886
▁الحميد	-10.3888
▁المورخ	-10.3889
▁هندي	-10.3895
▁غرا	-10.3897
صلح	-10.39
لمحليين	-10.3901
▁الحكومي	-10.3901
▁القانونية	-10.3902
دوي	-10.3905
لاس	-10.3908
▁واستخدام	-10.3912
▁اسماعيل	-10.3912
▁الاسنان	-10.3912
04	-10.3913
▁الكربون	-10.3913
الح	-10.3914
▁1944	-10.3914
▁جماعة	-10.3914
جيب	-10.3915
استثناء	-10.3916
▁ناسا	-10.3918
▁ارجنتينيون	-10.392
▁السجل	-10.392
▁ذكاء	-10.3923
▁وام	-10.3926
▁خروج	-10.3926
▁المشارك	-10.3927
▁التركيز	-10.3928
▁الاسبوع	-10.3929
▁عال	-10.3933
▁بنو	-10.3935
قية	-10.3936
94	-10.3937
▁التيار	-10.3938
96	-10.3938
▁اعلان	-10.3938
▁مفهوم	-10.3942
▁فواد	-10.3944
▁السكنية	-10.3947
▁الرقم	-10.3948
▁هاجر	-10.3952
▁الجدول	-10.3959
▁اجتماعية	-10.3962
▁والثقافية	-10.3963
فاف	-10.3964
▁الهجرة	-10.3967
اخت	-10.3969
▁وحقق	-10.3975
وايل	-10.3976
▁عيد	-10.3977
▁x	-10.3977
▁كمية	-10.3984
▁والامير	-10.3985
▁المقام	-10.3986
▁سيكون	-10.3987
09	-10.3987
ومن	-10.3989
▁جزايري	-10.3991
▁خدم	-10.3994
▁سكن	-10.3994
▁السنوية	-10.3996
محرر	-10.3997
▁الهندي	-10.3997
▁ضابط	-10.3999
▁الورق	-10.4004
▁نظر	-10.4006
▁Re	-10.4007
حال	-10.4007
▁القياس	-10.401
▁العدل	-10.4011
▁الموضوع	-10.4013
شغل	-10.4015
▁در	-10.4017
▁المدرب	-10.4018
حلت	-10.4018
توسع	-10.402
▁1400	-10.4023
▁دخلت	-10.4024
▁صحي	-10.4027
▁توحيد	-10.4027
▁محترف	-10.4027
▁تشرين	-10.4028
حركات	-10.4029
▁طرح	-10.403
▁متحركة	-10.4032
▁باعتباره	-10.4032
▁يحصل	-10.4036
▁موسسي	-10.4037
▁وتوفير	-10.4037
▁المحمولة	-10.4043
▁واكثر	-10.4044
▁التنوع	-10.405
▁الروية	-10.4052
▁حميد	-10.4053
▁مرتين	-10.4061
▁الحال	-10.4067
▁صحية	-10.407
▁الاغذية	-10.4072
▁تسلسل	-10.4074
▁ونايب	-10.4075
▁البشر	-10.4075
طول	-10.4078
▁الشر	-10.408
▁انتخابات	-10.4082
▁وظيفة	-10.4088
تمثل	-10.4105
شعاع	-10.4108
طوع	-10.4109
▁جان	-10.4112
▁جنوبا	-10.4112
▁مقدمة	-10.4113
▁رسمية	-10.4114
▁التنسيق	-10.4116
▁in	-10.4117
ثل	-10.4119
ارض	-10.4121
كوف	-10.4124
الاسم	-10.4124
▁فريد	-10.4124
فيس	-10.4126
▁تونسي	-10.413
▁المعماري	-10.4131
▁موشر	-10.4131
وقف	-10.4132
مختلف	-10.4134
100	-10.4135
▁المحمول	-10.4135
▁اتفاق	-10.4137
نجا	-10.4143
▁موخرا	-10.4143
▁للخدمات	-10.4144
▁مطاعم	-10.4144
▁فشل	-10.4144
▁ناطح	-10.4144
▁والبيية	-10.4146
▁غار	-10.4147
▁زايد	-10.4148
03	-10.4148
▁الابناء	-10.4149
AS	-10.415
▁اطباء	-10.415
▁السويسري	-10.4151
▁القارة	-10.4151
تصوير	-10.4154
0,000	-10.4154
خلف	-10.4155
▁الهادي	-10.4159
▁نشاته	-10.4159
حظي	-10.416
▁تحكم	-10.4162
▁التحالف	-10.4164
▁مقتل	-10.4168
42	-10.4168
لحماية	-10.4169
69	-10.4169
▁لنقل	-10.4173
ولة	-10.4175
▁الصخور	-10.4177
▁بقيم	-10.4177
الف	-10.418
قضاء	-10.4183
صفة	-10.4183
محطة	-10.4184
▁انطلق	-10.4187
▁الارتفاع	-10.4188
ie	-10.4188
▁كرواتي	-10.4189
▁ورش	-10.4194
▁للثقافة	-10.4195
▁المحيطة	-10.4197
▁ضباط	-10.42
▁البيان	-10.4209
رغ	-10.4209
▁(4	-10.421
وير	-10.4211
▁التكوين	-10.4216
▁وممثل	-10.4217
▁جماد	-10.4219
▁مير	-10.422
ثار	-10.4223
▁طور	-10.4225
▁الدورات	-10.4226
يسمي	-10.4227
▁سات	-10.4233
▁وانه	-10.4237
لاندية	-10.4238
▁الحجرية	-10.4245
لمجموعة	-10.4248
▁كوري	-10.4248
▁جن	-10.4251
▁تلق	-10.4256
▁اعلامي	-10.4257
▁العتيبي	-10.4261
▁البوسنة	-10.4261
▁1937	-10.4263
▁اوراق	-10.4264
حاضر	-10.4264
▁اتراك	-10.4266
▁وسجل	-10.4266
▁حادث	-10.4266
شبكات	-10.4267
▁بتقديم	-10.4269
صبح	-10.4269
▁بتطوير	-10.4271
▁اصغر	-10.4272
▁البحريني	-10.4273
▁1.	-10.4274
▁بالقاهرة	-10.4276
▁يستطيع	-10.4278
تكامل	-10.4281
شه	-10.429
▁الخوارزمية	-10.4293
علق	-10.4293
▁زمن	-10.4295
عال	-10.4295
▁1,	-10.4297
▁ذا	-10.4297
▁كامبريدج	-10.4298
▁اغنية	-10.43
ليو	-10.43
▁رياضيات	-10.4301
▁الغالب	-10.4302
▁ليلي	-10.4303
▁استراتيجية	-10.4305
يكس	-10.4307
مخطوط	-10.4308
▁بحي	-10.4312
رجح	-10.4314
▁برا	-10.4317
▁صنف	-10.432
▁للتقنية	-10.4323
>	-10.4325
▁قدرة	-10.433
دمج	-10.433
83	-10.4331
ناقصة	-10.4335
▁ميدان	-10.4336
▁تسبب	-10.434
▁جيش	-10.4342
اوية	-10.4347
والي	-10.4349
▁سبا	-10.4352
ندا	-10.436
بحث	-10.4363
لية	-10.4363
▁بمثا	-10.4364
قطعة	-10.4366
واف	-10.437
▁الايرانية	-10.437
سيد	-10.4371
هيية	-10.4374
▁حار	-10.4374
▁حاكم	-10.4375
▁حاج	-10.4375
اسر	-10.4376
▁عدن	-10.4376
▁وعرض	-10.4377
▁الوضع	-10.4379
▁الراديو	-10.438
▁الابن	-10.4381
حتفظ	-10.4382
▁شايع	-10.4384
▁ضغط	-10.4384
▁الرياح	-10.4386
حج	-10.4386
▁باولو	-10.4387
▁استثمار	-10.4387
▁متنزه	-10.4389
▁محرم	-10.4391
▁الموظفين	-10.4392
▁الاسماك	-10.4392
▁مز	-10.4393
▁سام	-10.4395
▁عمود	-10.4396
▁250	-10.4398
▁ارهابية	-10.44
▁المج	-10.4403
فض	-10.4407
▁المركبات	-10.4407
▁الغزو	-10.4409
▁قدر	-10.441
سيرة	-10.4411
▁وعاد	-10.4412
▁تراس	-10.4416
▁تويتر	-10.442
▁القيم	-10.4421
عضو	-10.4421
▁الاع	-10.4423
نر	-10.4425
▁المقدمة	-10.4435
▁الفنانين	-10.4436
▁الطر	-10.4441
طبق	-10.4442
▁الدقة	-10.4444
▁تاريخها	-10.4447
موسسة	-10.4449
▁ميت	-10.4452
▁المكي	-10.4454
▁بالت	-10.4454
▁روبرت	-10.4464
▁مباني	-10.4465
▁صيفا	-10.4467
▁واست	-10.4467
▁الكلي	-10.4474
▁قوي	-10.4475
▁بط	-10.4481
▁بحريني	-10.4482
الس	-10.4482
▁البث	-10.4486
▁الحربية	-10.4488
تسهيل	-10.4488
تسو	-10.4489
▁اعتبار	-10.449
▁فانه	-10.4492
▁متوسطة	-10.4492
▁الدي	-10.4493
اختصار	-10.4493
قيل	-10.4497
▁التوزيع	-10.4501
▁ومواقع	-10.4501
▁ادخال	-10.4501
▁استطاع	-10.4501
▁استعمال	-10.4501
▁درع	-10.4502
▁1416	-10.4503
▁+	-10.4503
▁الخضراء	-10.4504
ايز	-10.4504
▁كرم	-10.4505
▁نساء	-10.4506
برمج	-10.4509
▁نشط	-10.4511
▁انج	-10.4511
▁نبات	-10.4516
الب	-10.4517
ليك	-10.452
▁علامة	-10.4521
▁الجامع	-10.4536
صيد	-10.4541
▁النسايية	-10.4546
▁بمشاركة	-10.4548
بورغ	-10.4552
بيك	-10.4553
▁ثقافية	-10.4555
▁الرملية	-10.4561
▁القريبة	-10.4562
حفظ	-10.4566
▁الشخص	-10.4567
▁ووضع	-10.4568
▁السمو	-10.4569
▁جدار	-10.4574
ia	-10.4576
لدراسة	-10.4576
خدمة	-10.4577
▁والاستثمار	-10.4577
مسجد	-10.458
يلو	-10.4581
دني	-10.4584
شة	-10.459
فيلم	-10.4591
▁الحدث	-10.4591
تدفق	-10.4594
يذ	-10.4595
▁ومكتب	-10.4595
واسط	-10.4599
▁جين	-10.46
▁امراض	-10.4603
طباعة	-10.4603
▁ترجمة	-10.4609
كاليفورنيا	-10.4609
كوس	-10.4609
جيد	-10.461
▁المك	-10.4613
ذات	-10.4613
ناع	-10.4614
زيد	-10.4615
ver	-10.4617
▁للمشارك	-10.4617
▁الاسراييلي	-10.462
▁وشغل	-10.4621
▁القيصومة	-10.4622
▁ديمقراطي	-10.4622
▁متطلبات	-10.4622
▁الزجاج	-10.4623
▁وبناء	-10.4623
▁والمتوسطة	-10.4623
▁بسرعة	-10.4623
▁وزارات	-10.4623
▁1946	-10.4625
▁ميوية	-10.4626
▁1410	-10.4627
▁التعداد	-10.4627
▁1930	-10.4627
▁عودته	-10.4627
IP	-10.4629
▁المخاطر	-10.4629
▁وتستخدم	-10.463
▁البيولوجي	-10.4631
▁متن	-10.4631
▁نسبيا	-10.4632
ينتهي	-10.4632
▁باس	-10.4634
رحل	-10.4635
▁والاقتصاد	-10.4636
▁التضامن	-10.464
▁واقع	-10.4645
سيس	-10.4647
▁الدخل	-10.4648
▁صحف	-10.4651
▁جيد	-10.4658
▁فول	-10.4658
قاع	-10.4659
تستمر	-10.4662
▁بالعمل	-10.4662
▁ممر	-10.4672
▁2-	-10.4676
▁نووية	-10.4677
▁تملك	-10.4681
شراء	-10.4687
▁ساحلية	-10.4694
76	-10.4695
روق	-10.4701
▁سين	-10.4702
▁الليل	-10.4707
مجلس	-10.4707
▁فور	-10.4709
▁وسياسي	-10.471
عطي	-10.4715
▁حوار	-10.4719
سيطرة	-10.472
▁السل	-10.4725
▁وقف	-10.4726
▁عز	-10.4727
▁اعوام	-10.4733
▁للعام	-10.4733
▁مساعدة	-10.4734
ثلث	-10.4739
▁المسلسلات	-10.474
تساوي	-10.4743
▁للمنتخب	-10.4746
▁ومنتخب	-10.4746
▁وخلال	-10.4746
▁امثلة	-10.4746
ايم	-10.4747
▁زوج	-10.4749
▁التصنيع	-10.4749
▁جابر	-10.475
▁مسجل	-10.475
▁الدكتوراة	-10.475
▁تجارة	-10.4751
▁ادار	-10.4752
ابو	-10.4756
▁مرشح	-10.4764
▁المعلمين	-10.4765
▁الدوحة	-10.4766
▁المزيد	-10.4768
▁بحثية	-10.4771
▁يدعي	-10.4774
سافر	-10.4774
▁الدواير	-10.4774
▁1-	-10.4776
جرايم	-10.4777
▁}	-10.4777
▁يزال	-10.4778
▁منطق	-10.4778
▁سفر	-10.478
▁المهد	-10.4781
▁كتلة	-10.4781
▁مدرس	-10.4783
▁غينيا	-10.4785
▁تجري	-10.4787
▁ونشا	-10.4792
▁الشعراء	-10.4794
▁غالب	-10.4795
▁لعبت	-10.4795
▁نشات	-10.4797
%)	-10.4798
وكا	-10.4799
طابق	-10.4804
▁العص	-10.4806
حدث	-10.4807
ومي	-10.4807
▁شل	-10.4814
علن	-10.4816
خلفية	-10.4819
خبراء	-10.4828
موافقة	-10.4828
▁ابا	-10.483
▁المنزل	-10.4833
▁رموز	-10.4835
تداخل	-10.4836
▁كويتي	-10.4837
▁المعنية	-10.4839
قطاع	-10.4842
▁تركيب	-10.4847
طريق	-10.4849
ستطيع	-10.4853
▁السادسة	-10.4855
▁والطب	-10.4862
ستثمر	-10.4864
▁اتخاذ	-10.4864
ولوجيا	-10.4868
▁الحقيقي	-10.487
▁الممكن	-10.4871
▁والمياه	-10.4872
زمالة	-10.4872
▁الكونغو	-10.4872
▁التعدين	-10.4872
▁1417	-10.4874
▁مدون	-10.4875
▁والبحوث	-10.4875
▁الابتعاث	-10.4876
▁والشركات	-10.4876
▁الكون	-10.4878
▁البالغ	-10.4879
ab	-10.488
▁الميكانيكية	-10.4883
▁سفن	-10.4884
▁فيزيايي	-10.4886
▁وتعمل	-10.4888
▁شعبان	-10.4889
طوي	-10.4891
ميد	-10.4899
▁طبيعة	-10.49
▁عدنان	-10.49
الثروة	-10.49
▁مصرف	-10.4901
شاركت	-10.4905
▁الاسماء	-10.4911
▁المنصور	-10.4911
اطي	-10.4912
▁تزال	-10.4912
▁ادب	-10.4917
▁تفاعل	-10.4922
▁وبقي	-10.4923
▁غربي	-10.493
▁الوعي	-10.4935
▁جراح	-10.4935
▁والولايات	-10.4937
▁البير	-10.494
ho	-10.4943
فرج	-10.4944
▁تايلاند	-10.4948
▁اراضي	-10.4949
صغر	-10.4951
▁زي	-10.4952
رتبة	-10.4957
▁ومتوسط	-10.4961
تحمل	-10.4963
تشو	-10.4964
زداد	-10.4964
▁لواء	-10.4969
▁توقيع	-10.4971
▁فعل	-10.4974
▁مط	-10.4974
باي	-10.4977
▁سورية	-10.498
▁التدريبية	-10.4985
▁اسر	-10.4988
+	-10.499
▁دورا	-10.4994
▁مقابلة	-10.4995
▁السيبراني	-10.4998
▁فاطمة	-10.4998
▁الكاميرون	-10.4998
▁عروض	-10.4998
تخفيف	-10.4998
▁بقرار	-10.4998
▁السفلي	-10.4998
▁اصطناعي	-10.4998
▁التجارب	-10.4999
نشط	-10.4999
▁حكومي	-10.4999
لحقوق	-10.5
▁محدد	-10.5
▁المريخ	-10.5
▁1403	-10.5
▁وانشاء	-10.5001
▁التعبير	-10.5002
كشف	-10.5003
خوا	-10.5004
▁والمجتمع	-10.5004
نفس	-10.5007
▁مزارع	-10.5008
▁شهدت	-10.5011
ديد	-10.5012
تاثر	-10.5014
▁السير	-10.5015
▁الحرف	-10.5016
▁التلفزيونية	-10.5018
▁السياحي	-10.5022
▁الجنسيات	-10.5023
▁انتهت	-10.5023
▁الترميز	-10.5027
▁ديل	-10.5032
▁تست	-10.5037
كثرة	-10.5038
▁عل	-10.5039
▁للع	-10.5039
▁الاقليمي	-10.504
▁تكلفة	-10.5047
هيد	-10.5051
▁الفكرية	-10.5055
جميع	-10.5064
▁اصدرت	-10.5067
متر	-10.5067
▁واي	-10.507
ثير	-10.5077
▁الصيد	-10.5081
ist	-10.5081
▁البرلمان	-10.5082
▁اسلحة	-10.5085
ud	-10.5085
▁فصول	-10.5088
▁العباسي	-10.5089
حتوي	-10.5091
تقوم	-10.5103
▁وط	-10.5107
▁استضافت	-10.5111
▁تحوي	-10.5114
tion	-10.5121
▁صناعي	-10.5121
تسجيل	-10.5121
طرح	-10.5123
▁تاهيل	-10.5126
▁وذكر	-10.5126
▁فرانسيسكو	-10.5126
▁المجلد	-10.5126
▁منازل	-10.5128
▁مفتوح	-10.5129
▁الاسراييلية	-10.513
▁وانتاج	-10.5131
▁وجبل	-10.5137
▁الحيوي	-10.5137
شور	-10.5137
تري	-10.5138
▁الاحترافية	-10.514
▁تدعم	-10.5143
▁قوم	-10.5143
▁منصبه	-10.5143
▁معتمد	-10.5144
▁حارس	-10.5153
▁الصيدلة	-10.5156
▁الجوفية	-10.5157
▁كونغ	-10.5158
▁الفندق	-10.5158
مستشفي	-10.5159
▁وخارجها	-10.5159
▁التحكيم	-10.5162
▁المرتبطة	-10.5163
▁والمدينة	-10.5163
خار	-10.5165
▁كود	-10.5172
رتي	-10.5173
تاليف	-10.5173
▁قاري	-10.5174
مارس	-10.5177
▁120	-10.5177
▁عالمي	-10.5178
▁حلقات	-10.5184
▁الخل	-10.5184
▁الملح	-10.5186
▁احدهم	-10.5188
▁الرجل	-10.5189
سرد	-10.5191
▁السلامة	-10.5192
▁(10	-10.5192
▁تحالف	-10.5194
▁بحيرة	-10.5195
دوم	-10.5198
▁الرسم	-10.5205
ظر	-10.5207
▁الجيولوجية	-10.5209
صلاح	-10.5215
زاوية	-10.522
▁بالاحساء	-10.5224
▁الاثري	-10.5228
▁Co	-10.5229
▁جنب	-10.523
لاحظ	-10.5234
حوالي	-10.5234
تعاون	-10.5235
▁كانون	-10.5241
▁عبيدة	-10.5242
▁اخبار	-10.5248
▁الرايدة	-10.525
▁القطرية	-10.5252
▁الغرض	-10.5252
▁نفود	-10.5256
▁ادراج	-10.5256
▁بهم	-10.5258
▁الاقمار	-10.5259
افارقة	-10.526
▁السفن	-10.5262
▁صربيا	-10.5264
▁مم	-10.5264
▁الادني	-10.5265
▁رضا	-10.5269
▁الزوار	-10.527
▁القطري	-10.527
▁والكتاب	-10.527
▁حامل	-10.5271
▁اباد	-10.5272
▁مخصص	-10.5273
هياكل	-10.5274
▁للسياحة	-10.5275
44	-10.5276
▁انهم	-10.5282
▁بينهما	-10.5287
▁للغة	-10.5287
▁f	-10.5297
▁التقسيم	-10.5297
▁كارل	-10.5299
od	-10.53
خطوط	-10.5306
▁البطل	-10.5312
▁العمراني	-10.5312
▁مهما	-10.5315
سكا	-10.5319
▁ففي	-10.5319
▁السلطة	-10.5322
▁الرم	-10.5322
▁65	-10.5329
▁نقش	-10.5331
فريق	-10.5332
▁قراء	-10.5334
ضاع	-10.5335
تفرع	-10.5337
▁قرن	-10.5341
▁العمري	-10.5347
▁الفلك	-10.5348
وضح	-10.5356
▁ابار	-10.5356
▁العقارية	-10.5362
نظرية	-10.5365
▁الخطاب	-10.5366
ساعد	-10.537
لمركز	-10.537
▁يعيش	-10.5372
97	-10.5373
▁سليم	-10.5378
▁ارت	-10.5378
▁بامر	-10.5381
▁والمن	-10.5382
▁لكي	-10.5385
°	-10.5387
▁يونايتد	-10.5387
▁للمحترفين	-10.5387
▁السفارات	-10.5387
▁اهالي	-10.5388
▁هداف	-10.5389
▁البروتين	-10.5389
▁الوفاة	-10.5389
▁غزة	-10.5391
▁1395	-10.5391
▁للصناعات	-10.5392
▁الديمقراطي	-10.5394
▁التعريف	-10.5394
▁اعتمد	-10.5396
▁الشخصي	-10.54
▁المكون	-10.5401
▁قل	-10.5402
▁مشهور	-10.5402
▁الخبرات	-10.5403
▁لغوي	-10.5403
36	-10.5406
▁وكتب	-10.5408
▁مبرمج	-10.5411
▁بريد	-10.5413
▁قمر	-10.5416
غز	-10.5418
▁والشيخ	-10.5421
▁فخري	-10.5423
▁تقني	-10.5425
▁2002.	-10.5426
▁اكتشف	-10.5431
▁مغنو	-10.5433
▁الحاسوبية	-10.5435
اول	-10.5437
طالب	-10.5437
اری	-10.5438
تمر	-10.5439
تصنيف	-10.5446
فتاة	-10.5448
▁مجري	-10.5449
▁ولبنان	-10.5454
1)	-10.5459
نحدر	-10.5462
-3	-10.5463
فتر	-10.5464
وجيه	-10.5466
تطور	-10.5466
▁كرواتيا	-10.5469
▁بريطانية	-10.5469
دد	-10.547
▁الشهري	-10.5471
▁لقاء	-10.5471
▁ربع	-10.5474
توقف	-10.5475
▁التفاعل	-10.5475
▁المسوول	-10.5479
▁كين	-10.5481
سراة	-10.5482
▁الكا	-10.5483
▁ملم	-10.5483
▁الكل	-10.5486
▁ابراج	-10.5487
▁المجمع	-10.5495
23	-10.5498
▁بقسم	-10.5501
▁فيزياء	-10.5505
نصوص	-10.5507
▁رفض	-10.5512
▁جسم	-10.552
▁ميشيغان	-10.552
▁حامد	-10.5521
▁هادي	-10.5521
▁وتعليم	-10.5521
▁المتكاملة	-10.5521
▁التمريض	-10.5521
▁بوجود	-10.5522
▁يتطلب	-10.5522
▁1411	-10.5524
▁مشرف	-10.5524
▁الانشاء	-10.5524
المخابرات	-10.5526
▁الاولمبي	-10.5527
▁1420	-10.5527
▁ويستخدم	-10.5528
▁مبكر	-10.5531
▁ويحده	-10.5532
▁النبات	-10.5536
▁اسام	-10.5538
▁للوصول	-10.5539
▁المصرفية	-10.5544
▁الصفحة	-10.5547
▁تنتج	-10.5551
تعدد	-10.5551
▁النقاط	-10.5554
▁المالكي	-10.5554
▁القايم	-10.5555
▁والتاريخ	-10.5558
▁جماعي	-10.5558
▁وفاز	-10.5561
برج	-10.5562
▁افريقي	-10.5567
▁الجسم	-10.5569
نتمي	-10.5569
▁الحقل	-10.5571
▁رايدة	-10.5573
▁ميد	-10.5575
▁الخلايا	-10.5579
▁نار	-10.5583
▁المغربي	-10.5586
منظمة	-10.5588
شاعر	-10.559
▁والبحرين	-10.5593
▁محدودة	-10.5597
▁تكن	-10.5597
رث	-10.56
▁جنبا	-10.5603
▁القل	-10.5604
▁تحد	-10.5608
ادلة	-10.5611
▁سقوط	-10.5616
ig	-10.5623
تقاء	-10.5624
تاريخ	-10.563
▁التردد	-10.5641
▁مساعدا	-10.5642
▁المسح	-10.5644
كول	-10.5646
▁يورو	-10.5648
▁الداخل	-10.5648
▁كاف	-10.565
▁للنساء	-10.5656
▁الجينوم	-10.5656
▁مشكلة	-10.5656
▁اللجان	-10.5658
▁التقارير	-10.5658
▁ونصف	-10.5658
▁اشرف	-10.5658
▁1404	-10.5659
▁المنازل	-10.5659
▁1407	-10.5659
▁1940	-10.5659
▁وتحسين	-10.566
خلق	-10.5662
شهر	-10.5664
شمال	-10.5667
▁خر	-10.5667
▁الارضية	-10.5668
▁للامن	-10.567
▁ذوي	-10.5672
▁لانها	-10.5674
▁المجلات	-10.5678
▁المجيد	-10.5679
▁اولا	-10.5679
ber	-10.5681
▁الخالي	-10.5681
نزل	-10.5682
▁للمعلومات	-10.5684
ريا	-10.5686
▁ذ	-10.5686
64	-10.5691
▁الجمعيات	-10.5692
سند	-10.5693
▁المص	-10.5693
78	-10.5695
ers	-10.5696
ادوية	-10.5697
مجمع	-10.5699
▁(6	-10.5705
▁تاريخه	-10.5708
ضيق	-10.5709
▁الجمهور	-10.571
▁فيينا	-10.571
▁تدير	-10.5712
▁الغرف	-10.5714
رسي	-10.572
▁تاي	-10.5721
تغيير	-10.5721
▁السنغال	-10.5724
▁عمق	-10.5725
الان	-10.5731
▁جوانب	-10.5733
▁تبع	-10.5734
▁كرا	-10.5735
وكو	-10.5738
نعم	-10.5739
صيب	-10.574
▁انطلاق	-10.574
▁اقت	-10.574
▁المسرحية	-10.5741
▁يقل	-10.5742
طير	-10.5744
▁شروط	-10.5745
▁استمر	-10.5748
▁ترميز	-10.5749
عان	-10.575
▁ساعد	-10.575
نظام	-10.575
▁عايلته	-10.5755
راه	-10.5756
he	-10.5759
2)	-10.5763
▁واب	-10.5763
▁ستار	-10.5764
▁جوا	-10.5765
▁المغ	-10.5767
▁حديثة	-10.5776
▁ازالة	-10.5777
رخص	-10.5781
قضاة	-10.5793
▁الاشارات	-10.5793
▁ترميم	-10.5793
▁جانيرو	-10.5793
دوري	-10.5794
▁ممكن	-10.5794
▁للدولة	-10.5794
▁مشعل	-10.5794
▁1926	-10.5794
▁اقتصادية	-10.5796
▁سينمايي	-10.5797
▁المعاهد	-10.5797
ut	-10.58
▁اخو	-10.58
▁سيدني	-10.5802
▁الايراني	-10.5805
▁البدو	-10.5807
▁الصلب	-10.5808
▁رحلات	-10.5809
▁باقي	-10.5811
▁الاجراءات	-10.5812
▁كبري	-10.5812
▁والخليج	-10.5812
ريع	-10.5815
▁داخلية	-10.5816
▁ملا	-10.5818
محاكاة	-10.5818
▁تزيد	-10.5819
▁فضايية	-10.582
▁الياباني	-10.5821
مواقف	-10.5823
▁حزم	-10.5824
▁اسود	-10.5825
51	-10.5827
فيلد	-10.583
▁يشكل	-10.583
▁الهيكل	-10.5832
▁موضع	-10.5833
▁لعمل	-10.5842
▁رقمي	-10.5848
صالح	-10.5851
▁الرمال	-10.5851
▁تحديدا	-10.5852
عمارة	-10.5853
▁الدخول	-10.5855
قوة	-10.5856
▁الفارس	-10.5856
▁نيجيريا	-10.5856
▁الغرفة	-10.5857
ميز	-10.5857
▁تفسير	-10.5857
▁مسح	-10.5859
▁خوارزمية	-10.5865
▁تجاوز	-10.5865
▁اسرته	-10.5869
▁راسه	-10.5873
▁قليلة	-10.5877
▁بلاده	-10.5879
▁اجتماعي	-10.5881
عترف	-10.5885
▁الاربعة	-10.5888
▁وغرب	-10.5888
▁المعلوماتية	-10.5888
▁تخصصات	-10.5888
▁خصوصا	-10.5889
▁البط	-10.5889
▁الرب	-10.5889
▁القراء	-10.5892
▁القادمة	-10.5895
ترجمة	-10.5895
▁وار	-10.5897
▁القرص	-10.59
رقم	-10.5902
▁جول	-10.5908
▁روبوت	-10.5909
CS	-10.5911
▁وتكون	-10.5912
▁ونظام	-10.5912
امراض	-10.5913
▁ملحق	-10.5917
ماني	-10.5919
▁وطريق	-10.5922
▁والعالم	-10.5923
▁سجن	-10.5926
▁اصنوف	-10.5931
▁فرجينيا	-10.5931
▁لاستخدام	-10.5931
▁مكاتب	-10.5932
▁الصخر	-10.5933
▁صديق	-10.5933
▁والاعمال	-10.5933
▁هاشم	-10.5934
▁1938	-10.5934
▁لنجة	-10.5934
▁1932	-10.5935
▁لبناء	-10.5935
▁1405	-10.5935
قارب	-10.5935
26	-10.5936
▁ادم	-10.5938
▁خلاف	-10.5939
▁قدرات	-10.5943
▁يقدر	-10.5944
▁زال	-10.5946
▁البييي	-10.5946
▁غادر	-10.595
رقة	-10.595
▁الصغير	-10.5951
▁الكرة	-10.5951
▁معرف	-10.5951
▁حم	-10.5952
▁يوما	-10.5955
مشاركة	-10.5958
▁عكاظ	-10.596
فرنسا	-10.596
▁شخصا	-10.596
▁الحلقة	-10.596
▁والرييس	-10.596
▁ويتكون	-10.5962
▁الصواريخ	-10.5965
▁2003.	-10.5966
اورات	-10.5966
▁الهوية	-10.5968
صورة	-10.5971
▁الفرد	-10.5972
▁موطن	-10.5973
▁بشر	-10.5974
▁فري	-10.5975
▁رصد	-10.5978
تركز	-10.598
▁واما	-10.5981
▁الوحيدة	-10.5981
▁الحادث	-10.5981
▁ايرلندا	-10.5986
▁دراسية	-10.5988
▁كيو	-10.599
▁جورجيا	-10.5994
de	-10.5995
قيد	-10.5998
▁الحماية	-10.5999
▁قرارات	-10.5999
عن	-10.6
▁السكاني	-10.6003
na	-10.6004
▁وفيها	-10.6004
زعم	-10.6004
مسك	-10.6005
▁ثلاثية	-10.6006
▁صلي	-10.6007
▁الحديقة	-10.6015
سية	-10.6018
▁وهما	-10.602
ستخدم	-10.6023
خال	-10.6023
▁التع	-10.6023
▁الخرج	-10.6026
▁وسلم	-10.6027
▁سال	-10.6028
▁لويس	-10.6028
نسب	-10.6029
▁قاسم	-10.6032
▁معيار	-10.604
ST	-10.6043
بورت	-10.6045
تكوين	-10.6046
مصر	-10.6046
▁حرية	-10.6047
ستون	-10.6051
عية	-10.6052
▁عدا	-10.6057
▁خرج	-10.6064
صة	-10.6065
2,	-10.6066
ياسر	-10.6069
تشي	-10.607
▁والتلفزيون	-10.6072
▁والهرسك	-10.6072
▁يحتاج	-10.6072
▁الجر	-10.6072
▁اللاتينية	-10.6073
▁الثقبة	-10.6073
▁تناول	-10.6073
▁1409	-10.6075
▁اللقب	-10.6075
▁الابل	-10.6077
▁فيتنام	-10.6081
▁المزارع	-10.6081
ستقبل	-10.6082
لاسل	-10.6085
▁يدعم	-10.6087
وسيلة	-10.6088
مرحلة	-10.609
▁الكامل	-10.609
▁الاجنبية	-10.6091
▁النمر	-10.6093
▁حلي	-10.6093
▁للجهاز	-10.6095
عناوين	-10.6095
▁رمز	-10.6095
روج	-10.6096
▁الحن	-10.6097
▁القاري	-10.6102
تجديد	-10.6103
▁والبيانات	-10.6103
▁اخت	-10.6104
2008	-10.6108
قصد	-10.6116
شيف	-10.6116
محلات	-10.612
مقاول	-10.6121
▁الرسالة	-10.6122
▁المراقبة	-10.6122
▁القبيلة	-10.6134
برو	-10.6134
بوك	-10.6138
▁جاي	-10.6139
▁المعالج	-10.6144
▁اسلامي	-10.6145
رادار	-10.6148
▁دقة	-10.615
فعل	-10.6151
▁هجمات	-10.6155
درع	-10.6157
▁تامين	-10.6157
▁34	-10.6157
▁الاخرين	-10.6164
▁عبيد	-10.6166
▁تودي	-10.6167
▁الحجارة	-10.6168
▁وتسمي	-10.6172
توزع	-10.6175
▁سنوية	-10.6176
لتعزيز	-10.618
▁تدخل	-10.6181
▁الخبراء	-10.6185
▁الجمل	-10.619
▁زو	-10.6193
▁'	-10.6193
▁ايجاد	-10.6196
▁فرنسي	-10.6198
▁شعرية	-10.6199
▁Q	-10.6201
▁تسع	-10.6204
صاد	-10.6204
تحقيق	-10.621
تشابه	-10.6211
▁ملكية	-10.6212
▁وهكذا	-10.6215
▁الابتكار	-10.6215
▁لتعليم	-10.6215
▁الدواسر	-10.6215
▁تفجير	-10.6215
▁الزهراني	-10.6215
▁ستانفورد	-10.6215
▁لتوفير	-10.6215
▁الناشية	-10.6215
▁مشواره	-10.6215
▁المحاسبة	-10.6216
▁تجارب	-10.6216
▁البطولات	-10.6218
▁1934	-10.6218
▁شعره	-10.6218
باقي	-10.6219
▁اختراع	-10.6219
▁خام	-10.6219
▁حاضرة	-10.6219
▁ادبية	-10.6224
▁بلديات	-10.6224
ضبط	-10.6225
▁موريتانيا	-10.6225
▁عرفت	-10.6226
لتاكد	-10.6227
ns	-10.6228
▁شراء	-10.6228
▁مقيم	-10.6229
صاحب	-10.6232
▁المربع	-10.6233
▁عاصم	-10.6234
mo	-10.6235
▁يحدث	-10.6236
▁للمشروع	-10.6237
▁جار	-10.6239
▁امتد	-10.6242
▁لبرنامج	-10.6246
قاء	-10.6247
فصيلة	-10.625
▁البحار	-10.625
▁يذكر	-10.6251
تبرع	-10.6253
▁قر	-10.6254
حملة	-10.6255
قياد	-10.6255
▁للملك	-10.6257
▁والادارة	-10.6259
خور	-10.6259
لقيام	-10.6265
▁الاستراتيجي	-10.6269
قراءة	-10.627
▁600	-10.6275
التنسيق	-10.6278
▁الرد	-10.6283
▁المكونات	-10.6291
▁بكاس	-10.6296
قود	-10.6298
▁يقيم	-10.6299
قدم	-10.6302
▁بفتح	-10.6309
▁السابعة	-10.6312
▁الانساني	-10.6317
جون	-10.6319
▁الزمني	-10.6319
▁الالية	-10.6323
▁كسر	-10.6327
جيو	-10.6328
اواني	-10.6331
عرب	-10.6331
تشكيل	-10.6332
سهل	-10.6333
▁سوداني	-10.6335
شرع	-10.6337
▁وشاعر	-10.6338
▁مون	-10.6343
▁الغاء	-10.6349
▁اقتراح	-10.6349
▁سيما	-10.635
▁تشي	-10.635
لجنة	-10.6354
▁نجاح	-10.6359
\	-10.636
▁طرابلس	-10.636
▁للابحاث	-10.636
▁المستدامة	-10.636
بدع	-10.636
▁للسيدات	-10.636
▁اندرويد	-10.636
▁نمط	-10.6361
▁المعدات	-10.6361
منظومة	-10.6361
تعاقد	-10.6361
▁ووقع	-10.6361
▁الكروية	-10.6362
ضرورة	-10.6362
مساحات	-10.6362
▁بلقب	-10.6366
بغ	-10.6369
▁التمور	-10.637
▁للهجرة	-10.6373
▁(15	-10.6375
▁ويطلق	-10.6376
▁المنهج	-10.6376
▁الحمض	-10.638
▁الناتج	-10.638
فاضل	-10.638
ندوة	-10.6381
▁والانجليزية	-10.6384
حافة	-10.6385
▁بورتو	-10.6387
▁الاثنين	-10.6388
▁يحاول	-10.6389
ربو	-10.6389
▁مقياس	-10.6391
▁الممتد	-10.6392
▁ثانوية	-10.6394
MA	-10.6397
▁تيار	-10.6398
▁الصحفي	-10.6398
▁سيتم	-10.64
▁بوت	-10.6401
▁التحويل	-10.6401
▁الظهير	-10.6402
▁بيض	-10.6402
راعي	-10.6406
▁حديث	-10.641
▁الامارة	-10.6411
▁بنوك	-10.6412
للجنة	-10.6416
مقدار	-10.6419
▁احصايية	-10.6421
▁يقال	-10.6424
▁خيرية	-10.6425
سفر	-10.6431
▁هونغ	-10.6442
▁منافس	-10.645
▁تحدد	-10.645
▁معمارية	-10.6453
▁نواف	-10.6454
▁وتقدم	-10.6459
▁لقسم	-10.6459
▁b	-10.6462
▁السيطرة	-10.6463
اشعة	-10.6465
▁منهج	-10.6471
▁والاخر	-10.6471
▁Y	-10.6472
▁التوسع	-10.6474
▁الاش	-10.6481
▁تشكيلي	-10.6481
▁وبها	-10.6486
▁بس	-10.6486
▁حرف	-10.6487
حديقة	-10.6489
▁تشجيع	-10.6493
▁مدين	-10.6496
▁زار	-10.6497
▁ابنه	-10.6497
▁سهل	-10.6497
▁بحري	-10.6498
▁الخلفية	-10.6499
برت	-10.6502
▁كلمات	-10.6503
خطط	-10.6504
▁اليومية	-10.6505
▁سامي	-10.6506
▁تقارير	-10.6507
▁العضوية	-10.6508
▁مختار	-10.6508
▁السياسات	-10.6508
▁شتاء	-10.6508
▁كاميروني	-10.6508
▁مبادي	-10.6508
▁1936	-10.6509
▁كونه	-10.6509
▁هواتف	-10.6511
▁نوبل	-10.6511
استضافة	-10.6511
▁كارول	-10.6513
▁وقرية	-10.6513
▁للدفاع	-10.6515
▁التوالي	-10.6515
▁معدات	-10.6516
▁والمجلات	-10.6517
▁الموصل	-10.6519
▁السلع	-10.6522
▁الكم	-10.6524
▁حمود	-10.6524
▁خليل	-10.6526
▁تدرج	-10.6528
di	-10.653
▁الاطراف	-10.6531
▁العنوان	-10.6531
▁الذاتي	-10.6532
▁الاسهم	-10.6532
سهم	-10.6539
▁البنوك	-10.6541
Y	-10.6542
جامع	-10.6544
▁الوزير	-10.6546
▁وجهة	-10.6547
▁Al	-10.655
▁العاملين	-10.6555
وغو	-10.6556
IC	-10.6558
▁اقرب	-10.656
سوم	-10.6563
▁الاولاد	-10.6564
▁بالجامعة	-10.6566
▁حلول	-10.6568
▁شرطة	-10.6571
▁وطني	-10.6571
▁المهرجان	-10.6573
▁التكلفة	-10.6576
▁m	-10.6581
▁سلام	-10.6582
وزن	-10.6587
▁واصل	-10.6587
2،	-10.6587
بث	-10.6588
وفد	-10.6589
▁للجمعية	-10.6591
▁موجودة	-10.6592
▁المميزة	-10.6592
▁دايم	-10.6594
▁بوادي	-10.6595
▁التكنولوجية	-10.6595
كرو	-10.6596
▁والمس	-10.66
تحرك	-10.661
▁بلو	-10.6613
▁الباكستانية	-10.6613
▁بيوت	-10.6614
▁والاقتصادية	-10.6614
تيح	-10.6615
تاهل	-10.6619
▁واع	-10.6621
▁الحمل	-10.6625
▁الفلسفة	-10.6625
▁الخير	-10.6626
▁توليد	-10.6627
▁توقف	-10.6634
تعرض	-10.6636
▁خان	-10.6636
▁ذاتية	-10.6637
▁دعا	-10.6641
▁الخشب	-10.6644
▁العود	-10.6645
.000	-10.6654
صدق	-10.6656
▁الاستحقاق	-10.6656
▁صامطة	-10.6656
▁وتنفيذ	-10.6656
▁ويكيبيديا	-10.6656
▁حضور	-10.6657
▁الدماغ	-10.6657
▁الطيار	-10.6657
▁استحوذ	-10.6659
▁ارشيف	-10.6659
▁التحضير	-10.6659
▁1928	-10.6659
▁الصوتية	-10.6659
▁صعد	-10.666
▁1401	-10.6661
▁المتاحة	-10.6661
مرتبة	-10.6661
▁الرقابة	-10.6662
▁المتحركة	-10.6663
▁احكام	-10.6668
▁41	-10.667
▁للسيارات	-10.667
3,	-10.6673
تحتوي	-10.6675
حمام	-10.6676
▁موقت	-10.6676
▁الشهر	-10.6677
▁المشاهد	-10.6679
▁الدراسي	-10.6681
▁يجمع	-10.6681
غور	-10.6689
▁الجراح	-10.669
▁الموافقة	-10.6693
▁الجدار	-10.6695
▁يتواجد	-10.6696
▁تربط	-10.6698
▁العلامة	-10.6699
▁الدايري	-10.6699
غلق	-10.67
▁باد	-10.6702
▁الانتاجية	-10.6705
▁لابن	-10.6709
الية	-10.671
▁عنصر	-10.6714
▁المشرف	-10.6714
2004	-10.6714
▁الشارع	-10.6722
▁لكاس	-10.6722
ard	-10.6724
المواقع	-10.6725
▁المبادرة	-10.6726
▁ضخمة	-10.6727
▁اطراف	-10.6728
AR	-10.6729
ثري	-10.673
▁الاجمالي	-10.673
▁السرطان	-10.6733
▁وباحث	-10.6736
تحديد	-10.6736
▁لذا	-10.6743
▁شعيب	-10.6746
▁الاشعة	-10.6746
▁النصوص	-10.6752
ti	-10.6755
▁الحجري	-10.6758
▁اساسية	-10.6761
▁والاتحاد	-10.6762
موتمر	-10.6771
اسلحة	-10.6773
▁منخفضة	-10.6779
شط	-10.6782
ريو	-10.6786
▁(5	-10.6787
تحفيظ	-10.6788
▁حوض	-10.6802
▁رغم	-10.6803
▁القانوني	-10.6806
▁تحصل	-10.6807
é	-10.6808
▁احفاد	-10.6808
▁للتدريب	-10.6808
▁الاجانب	-10.6808
▁ابتداء	-10.6808
▁يمتلك	-10.6808
انقاذ	-10.6809
▁الصاروخ	-10.6809
▁مرسوم	-10.681
▁الذكور	-10.681
▁2000.	-10.6811
▁الاخوان	-10.6812
▁الزواج	-10.6812
▁المعرفي	-10.6812
▁البيولوجية	-10.6813
▁هلال	-10.6813
▁السلوك	-10.6816
▁والكهرباء	-10.6816
▁الاخ	-10.6817
مستوطنة	-10.6819
▁ملخص	-10.682
▁الجماعي	-10.6821
عج	-10.6821
تحلية	-10.6821
خيل	-10.6822
▁شريف	-10.6822
لهجة	-10.6824
▁قوية	-10.683
▁خلفا	-10.6831
▁2002،	-10.6831
▁تصبح	-10.6835
▁اسسه	-10.6839
▁تتمثل	-10.6841
▁استحداث	-10.6843
▁المعيار	-10.6843
▁شاب	-10.6846
▁الاستخبارات	-10.6847
غابة	-10.6848
▁الاماراتية	-10.6848
▁جوية	-10.6848
▁خريطة	-10.6851
جلس	-10.6854
عدل	-10.6857
توعية	-10.6857
امتداد	-10.6858
▁بدعم	-10.6858
▁المسمي	-10.6858
▁وصلت	-10.6858
تقليل	-10.6862
▁والهند	-10.6862
ظاهرة	-10.6864
▁الاخبارية	-10.6869
وسط	-10.6869
▁مقرن	-10.6872
▁التنفيذ	-10.6872
▁ذهبية	-10.6872
رخ	-10.6873
تواصل	-10.6874
حدود	-10.6876
▁المرضي	-10.6877
▁الطعام	-10.6877
▁قدمت	-10.688
شروط	-10.688
▁خيالية	-10.6886
كونها	-10.6887
▁اور	-10.6892
خصوصا	-10.6897
▁هذ	-10.6898
▁تخرجه	-10.6899
▁الاستشارية	-10.6899
تحكم	-10.69
▁زيت	-10.6912
ot	-10.6912
▁سمك	-10.6916
▁وتعرف	-10.692
▁مناسبة	-10.6925
▁d	-10.6936
▁كاين	-10.6941
▁ميلادي	-10.695
▁اصطناعية	-10.6961
▁خلق	-10.6962
تفعيل	-10.6962
▁الراحل	-10.6962
▁كيلومترات	-10.6963
▁مدريد	-10.6963
▁الدستور	-10.6963
▁اعلاه	-10.6963
▁بمعدل	-10.6964
▁القارات	-10.6964
▁1384	-10.6964
هوايي	-10.6964
▁1438	-10.6965
▁رخصة	-10.6965
▁1927	-10.6966
▁1425	-10.6967
▁حبيب	-10.6968
▁العميل	-10.6969
▁اتلتيكو	-10.697
▁درست	-10.6972
▁خطاب	-10.6973
NA	-10.6974
1,	-10.6974
▁نوط	-10.6975
▁للجامعة	-10.6976
تجنب	-10.6977
▁والام	-10.698
▁38	-10.6984
▁ابيض	-10.6985
واب	-10.6986
▁بقي	-10.6989
▁الناشيين	-10.6993
▁بارك	-10.6993
▁الامبراطورية	-10.6999
▁انتجت	-10.7
▁مضاد	-10.7
▁سودانيون	-10.7001
▁مظل	-10.7001
▁الغذاء	-10.7003
▁المشاركين	-10.7004
▁السيارة	-10.7007
▁النماذج	-10.7008
▁درا	-10.7009
افر	-10.7012
اختصاص	-10.7013
▁العد	-10.7014
باد	-10.7015
▁المريي	-10.7017
▁بدايته	-10.7022
موسوعة	-10.7022
وط	-10.7023
▁مواضيع	-10.7027
▁بلغة	-10.7027
تسبب	-10.7029
▁الابتدايي	-10.7033
▁الغي	-10.7034
▁التسلسل	-10.7035
▁والدولية	-10.7036
حفل	-10.7038
▁بارز	-10.7044
▁الاسبانية	-10.7046
▁اصاب	-10.7048
▁ريم	-10.7049
تصور	-10.7049
▁يبدو	-10.7051
▁تايوان	-10.7053
▁المعركة	-10.7054
التصميم	-10.7055
▁رييسة	-10.7055
اردو	-10.7057
▁النباتي	-10.7062
▁اسرع	-10.7065
جهاز	-10.7085
رشح	-10.7087
▁حج	-10.7087
RC	-10.7088
متحف	-10.709
هبط	-10.7091
▁95	-10.7094
▁الجمهوري	-10.7094
عمان	-10.7096
▁العيد	-10.7096
▁منخفض	-10.7097
▁منتدي	-10.7099
▁ابل	-10.71
▁طبقا	-10.7104
لتخزين	-10.7107
▁حزمة	-10.7107
▁بالغ	-10.7108
▁وراء	-10.7109
ial	-10.7113
▁استقبال	-10.7118
▁التاهيل	-10.7118
مقاييس	-10.7118
▁جدران	-10.7118
▁ويتبع	-10.7118
▁وجدت	-10.7119
▁للاعمال	-10.7119
▁الرحلة	-10.7119
▁والعمرة	-10.7121
▁الاسفل	-10.7121
لتحسين	-10.7121
▁الخلود	-10.7121
▁الاربعاء	-10.7123
▁هان	-10.7125
▁ديفيد	-10.7127
▁الجناح	-10.7127
▁الاشعاع	-10.7128
تجمع	-10.7128
▁خطط	-10.7129
▁خاض	-10.713
▁الاصلاح	-10.7131
وريد	-10.7132
▁السبت	-10.7133
ate	-10.7135
وبر	-10.7136
▁وثايق	-10.7137
▁الملا	-10.7139
▁جيدة	-10.7139
▁وصدر	-10.7141
▁للحكومة	-10.7141
▁جناح	-10.7142
▁المنفذ	-10.7143
عبد	-10.7146
▁حصوله	-10.7148
▁بتعيينه	-10.715
اخذ	-10.7151
▁عموما	-10.7152
▁الساحة	-10.7152
▁جيمس	-10.7153
عاصفة	-10.7153
▁شعبة	-10.7153
▁يتحدث	-10.7154
راجع	-10.7158
نقاد	-10.716
▁الفقر	-10.7161
يران	-10.7162
▁كويتيون	-10.7164
▁الالكترونيات	-10.7168
▁بدقة	-10.7171
▁عكس	-10.7172
▁محسن	-10.7174
رفض	-10.7175
انج	-10.7176
جهز	-10.7178
▁اكد	-10.7178
▁الثامنة	-10.718
▁وبني	-10.7181
سطح	-10.7182
ديق	-10.7187
▁ابواب	-10.7188
▁الاحد	-10.7188
عادل	-10.719
▁الكلمة	-10.719
لالعاب	-10.7193
6)	-10.7195
▁قضية	-10.7195
دعاء	-10.7197
▁فاس	-10.7201
▁المتميزة	-10.7202
▁الحاسبات	-10.7202
▁الوقود	-10.7205
▁مترجم	-10.7207
تمكن	-10.7208
▁عب	-10.7211
▁عرضه	-10.7213
قتصر	-10.7215
▁مدنية	-10.7219
ليل	-10.7221
دافع	-10.7225
كيف	-10.7225
▁الشرب	-10.7227
▁المغربية	-10.7229
▁النشط	-10.723
▁الحفر	-10.7231
صال	-10.7233
جموع	-10.7235
▁عمه	-10.7236
▁IS	-10.7237
▁الاصدارات	-10.7238
وشي	-10.7247
زراع	-10.7248
حايل	-10.725
بلاد	-10.7252
▁ظروف	-10.7258
▁صرح	-10.7259
▁عد	-10.726
▁تيم	-10.7262
▁المدار	-10.7264
▁ليب	-10.7265
▁شملت	-10.7265
جرت	-10.7267
عطل	-10.727
قات	-10.727
▁الناصر	-10.7273
▁احصاء	-10.7275
▁بلجيكي	-10.7277
▁مصنوع	-10.7277
▁بوركينا	-10.7277
▁حمزة	-10.7277
▁القبض	-10.7277
▁عفيف	-10.7277
▁الطواري	-10.7277
▁صخور	-10.7278
▁الاشياء	-10.7279
▁1941	-10.7279
▁1942	-10.7279
▁والتجارة	-10.728
▁القنوات	-10.728
▁1424	-10.7281
عزلة	-10.7281
▁الاطلاق	-10.7283
▁1430	-10.7283
▁بركة	-10.7284
▁الارقام	-10.7285
▁بركان	-10.7287
▁فرعية	-10.7289
▁قرر	-10.7289
▁ويعرف	-10.729
قير	-10.729
▁فقال	-10.7294
نصر	-10.7294
ac	-10.7294
عزز	-10.7298
▁يمارس	-10.73
▁تنشر	-10.7301
ثمار	-10.7302
▁كلف	-10.7303
▁الاختراع	-10.7303
تيشن	-10.7307
▁والنقل	-10.7308
▁ثابت	-10.7311
اذن	-10.7311
▁الزراعي	-10.7313
▁الدايم	-10.7314
تخرج	-10.7315
▁محرر	-10.7319
▁السكانية	-10.7319
▁يوتيوب	-10.7322
▁بورت	-10.7325
▁to	-10.7326
▁هندسية	-10.7331
▁تحتية	-10.7332
▁روافد	-10.7332
طال	-10.7332
▁منشورات	-10.7336
▁الجغرافيا	-10.7339
قري	-10.734
▁الفريد	-10.7342
سلط	-10.7345
77	-10.7346
▁الحضرية	-10.7347
▁السكك	-10.7347
جاري	-10.7349
فري	-10.735
خرايط	-10.7351
▁الكوري	-10.7353
▁1442	-10.7353
▁المقابل	-10.7354
2017	-10.7354
تسم	-10.7356
سجناء	-10.7357
▁الكن	-10.7358
▁والصناعة	-10.7359
كثر	-10.7362
خلص	-10.7366
التابعة	-10.7368
▁تربة	-10.737
حض	-10.737
IS	-10.7372
▁اسسها	-10.7373
لمنظمة	-10.7374
▁تمور	-10.7377
▁ديار	-10.7378
▁السجن	-10.7388
▁الحوار	-10.7388
▁السوداني	-10.7389
▁ثنايي	-10.7391
▁المنزلية	-10.7392
▁الغير	-10.7393
▁زمنية	-10.7395
▁نسبه	-10.7395
▁حجرية	-10.7395
▁معني	-10.7397
▁تدعي	-10.7398
▁معلما	-10.7398
خيم	-10.7402
▁المطر	-10.7407
▁وتحقيق	-10.7409
الكترونيات	-10.7411
نهج	-10.7412
نتسب	-10.7414
▁الابداع	-10.7415
جزر	-10.7415
▁بيتر	-10.7416
لايحة	-10.7417
▁هاني	-10.742
قصص	-10.7422
▁يع	-10.7424
جريدة	-10.7426
▁وطالب	-10.7426
▁جاءت	-10.7435
تربية	-10.7436
▁الفية	-10.7438
▁البلجيكي	-10.7438
▁الشهادات	-10.7438
▁لتنظيم	-10.7438
▁وتنظيم	-10.7438
▁والطاقة	-10.7438
▁بلغاريا	-10.7438
▁النقالة	-10.7438
▁المتنقلة	-10.7438
▁معتدل	-10.7439
▁الحقيقية	-10.7439
▁حطين	-10.7439
▁1943	-10.744
▁الانتشار	-10.744
▁اللياقة	-10.7441
▁مسيحي	-10.7442
▁توماس	-10.7442
رتكز	-10.7443
▁الفعاليات	-10.7443
▁المعاصر	-10.7443
مستثمرين	-10.7444
▁التركيب	-10.7444
▁1920	-10.7445
▁الخلاف	-10.7446
▁استخدامه	-10.7447
▁المتنزه	-10.7447
▁عقل	-10.7449
نبي	-10.7452
▁صح	-10.7453
▁ركن	-10.7454
اسكان	-10.7456
BN	-10.7457
▁علوي	-10.7457
غاية	-10.7461
▁الشيوعي	-10.7463
▁33	-10.7464
قلادة	-10.7465
▁لامارة	-10.7468
اذا	-10.7469
▁تاتي	-10.7472
▁العاشر	-10.7474
▁الشهير	-10.7475
▁وافق	-10.7475
▁ومح	-10.7477
متوسط	-10.7478
▁بارتفاع	-10.748
كما	-10.748
التي	-10.7483
▁البني	-10.7484
▁فعلي	-10.749
▁وشرق	-10.749
▁وسوريا	-10.7493
▁وظل	-10.7498
▁بناوه	-10.7505
▁يدير	-10.7506
▁اتش	-10.7512
قراء	-10.7513
فرقة	-10.7514
▁عظيم	-10.7515
ثقة	-10.7516
▁المسيحية	-10.7518
▁الجبلية	-10.7519
▁المض	-10.752
▁القراءة	-10.7522
▁العمران	-10.7523
▁تركيز	-10.7525
موند	-10.7528
زمن	-10.7529
▁طو	-10.7537
▁التوقيت	-10.754
▁للدراسة	-10.7541
غرفة	-10.7541
▁الترجمة	-10.7541
▁الادوية	-10.7541
▁انتر	-10.7546
-4	-10.7556
قصة	-10.7558
▁تشا	-10.7558
▁متزوجة	-10.756
▁التشكيلية	-10.7561
▁فون	-10.7563
▁الحواسيب	-10.7567
اثي	-10.7568
▁تقويم	-10.7568
▁وحل	-10.7572
▁الحوثي	-10.7572
عالم	-10.7573
▁البيع	-10.7575
▁التل	-10.7577
3)	-10.7577
▁الروبوت	-10.758
▁شاطي	-10.7582
قاعات	-10.7583
▁وحد	-10.7584
لعديد	-10.7584
كفاءة	-10.7587
▁الصلبة	-10.7588
▁بعام	-10.7588
▁الصفر	-10.7592
▁الحين	-10.7601
▁الاكوادور	-10.7602
▁فنلندا	-10.7602
▁فلوريدا	-10.7602
▁للطلاب	-10.7602
▁السريرية	-10.7602
▁البدنية	-10.7602
▁راديو	-10.7602
▁فيتوريا	-10.7602
▁المرة	-10.7602
▁مهارات	-10.7602
▁بكثير	-10.7603
▁وغالبا	-10.7603
بحضور	-10.7603
صياغة	-10.7603
اتو	-10.7603
▁والتر	-10.7604
تكاثر	-10.7604
▁كويتية	-10.7604
▁الايام	-10.7604
وصف	-10.7604
▁1428	-10.7605
▁الافكار	-10.7606
شتات	-10.7606
▁شريط	-10.7607
مثال	-10.7608
▁والمهني	-10.7608
▁زوجته	-10.761
▁غني	-10.761
▁اركان	-10.7612
▁لام	-10.7613
▁واعلن	-10.7613
▁للاعلام	-10.7617
▁اليوتيوب	-10.7618
▁حديثا	-10.762
▁الخطا	-10.7623
توازي	-10.7627
▁ويشمل	-10.7629
▁قاع	-10.763
▁يكتب	-10.7631
▁سانتا	-10.7632
ستفيد	-10.7633
▁منشات	-10.7635
▁انجازات	-10.7637
ES	-10.7637
▁للشركات	-10.7639
▁الدبلوماسي	-10.7642
▁الطويل	-10.7643
▁وثيقة	-10.7644
▁كولومبي	-10.7644
جماع	-10.7647
▁الملتقي	-10.7648
▁القاضي	-10.7652
▁لمح	-10.7653
▁التقاط	-10.7656
▁الروماني	-10.7658
▁طفل	-10.7661
▁الخبز	-10.7661
حجز	-10.7662
▁متغير	-10.7666
▁الحية	-10.7666
فهرسة	-10.7671
▁السور	-10.7681
جوانب	-10.7681
▁مركبة	-10.7683
الله	-10.7683
▁المخرج	-10.7685
كافة	-10.769
▁مدني	-10.7691
نقيب	-10.7691
▁الفيروسات	-10.7693
▁المسافة	-10.7694
ha	-10.7695
سيب	-10.7698
بروتين	-10.7698
▁متكاملة	-10.7705
▁جاك	-10.7711
▁خصايص	-10.7716
ment	-10.7717
▁48	-10.7718
▁وقدم	-10.7718
▁(20	-10.7722
▁والتصميم	-10.7728
▁بالع	-10.7731
مسافة	-10.7734
▁يراس	-10.7735
يزي	-10.7739
▁المشاكل	-10.7741
مشروع	-10.7743
▁فوز	-10.7748
▁فرنسية	-10.7749
▁ترتبط	-10.7751
▁Di	-10.7752
io	-10.7757
حاسوب	-10.7765
▁فنزويلا	-10.7769
▁تحيط	-10.7769
▁انحلال	-10.7769
▁اقمار	-10.7769
▁فنادق	-10.7769
▁المجزل	-10.7769
اقاليم	-10.777
التعليق	-10.777
▁العروض	-10.7771
▁1421	-10.7771
لمدارس	-10.7772
جداول	-10.7772
▁الصيانة	-10.7772
▁1925	-10.7774
▁تماما	-10.7775
▁اختلاف	-10.7775
▁جنيه	-10.7776
▁الجولة	-10.7778
▁مخترعون	-10.7778
▁الرحيم	-10.7779
▁منع	-10.7781
عقاب	-10.7782
▁ليت	-10.7786
قترح	-10.7787
▁36	-10.7787
▁هاتف	-10.7789
▁تستعمل	-10.7791
▁المنطق	-10.7791
▁داي	-10.7792
▁تام	-10.7794
▁التشكيلي	-10.7795
▁الزواحف	-10.7798
▁تميز	-10.7798
▁مكا	-10.7799
▁والجنوب	-10.78
▁والامن	-10.7801
▁موقف	-10.7802
ايحة	-10.7803
▁تشارك	-10.7803
▁ببعض	-10.7804
صاعد	-10.7804
▁لوحات	-10.7805
▁نشاطات	-10.7805
▁مستطيل	-10.7811
▁ملوك	-10.7811
▁الدقيق	-10.7811
عمال	-10.7812
حالة	-10.7813
▁بنغلاديش	-10.7816
▁زياد	-10.7817
▁طبي	-10.782
فون	-10.7826
▁تقنيته	-10.7828
2009	-10.783
▁الصحراوية	-10.783
توصل	-10.7834
▁الميدان	-10.7834
▁جلال	-10.7836
▁المضيف	-10.7838
▁المركبة	-10.784
▁الاسترالية	-10.7845
▁توسيع	-10.7846
▁اختراعات	-10.7848
▁وتشغيل	-10.7849
▁الاكتشاف	-10.7852
شرح	-10.7852
سرطان	-10.7853
▁حافظ	-10.7854
▁مدرج	-10.7857
▁وجو	-10.7859
سياس	-10.7859
▁المولد	-10.7859
▁فايقة	-10.786
▁دايما	-10.786
▁وتمت	-10.786
مكتب	-10.7862
▁الموسي	-10.7863
200	-10.7863
▁براس	-10.7866
▁الموضوعات	-10.7868
▁المشاركات	-10.7868
محاولة	-10.787
روز	-10.7882
شيون	-10.7883
حمي	-10.7883
اعتماد	-10.7888
شوك	-10.7891
منتج	-10.7891
▁الترفيه	-10.7894
شخص	-10.7894
نزاعات	-10.7896
▁الشهيرة	-10.79
▁للرياضة	-10.79
▁النبوية	-10.7902
▁بمصر	-10.7906
جزيرة	-10.791
تدرب	-10.7912
▁قطاعات	-10.7916
وصي	-10.7917
▁التبادل	-10.7922
رفقة	-10.7922
▁الفلكية	-10.7922
OS	-10.7923
▁المسوولة	-10.793
0)	-10.7932
جول	-10.7932
عري	-10.7934
▁St	-10.7936
SP	-10.7936
مصادر	-10.7938
▁اوزبكستان	-10.7938
▁عبدالرحمن	-10.7938
▁لابحاث	-10.7938
▁بتاسيس	-10.7938
▁زكريا	-10.7938
▁المسابقات	-10.7938
▁مسابقات	-10.7938
▁تسليم	-10.7938
استبدال	-10.7938
▁الشقيق	-10.7939
▁للمياه	-10.7939
اهداف	-10.7939
مقاتل	-10.7939
▁اعتقل	-10.794
كاي	-10.794
▁برميل	-10.794
▁الاركان	-10.794
▁1435	-10.7942
▁1422	-10.7942
▁1396	-10.7943
▁ارقام	-10.7943
▁والمغرب	-10.7943
تناسب	-10.7944
▁الايسر	-10.7946
▁عودة	-10.7947
▁المبارك	-10.7948
▁اعمدة	-10.7949
▁اساسات	-10.7953
▁هيل	-10.7955
▁استخراج	-10.7957
▁مركزا	-10.7958
▁تدفق	-10.7959
▁تشبه	-10.796
▁للنقل	-10.7961
▁ساي	-10.7962
▁عليهم	-10.7963
عتمد	-10.7964
▁سوبر	-10.7967
▁لدور	-10.7968
▁1998.	-10.7969
▁تلفزيوني	-10.7969
▁مصلي	-10.7969
▁تمارس	-10.7971
▁سنتين	-10.7972
▁اعمار	-10.7976
▁(11	-10.7978
▁والمشاركة	-10.7978
▁يرجع	-10.7981
سهام	-10.7983
▁القادم	-10.7984
▁ويتميز	-10.799
▁المواصفات	-10.7993
مصور	-10.7993
▁الفردية	-10.7993
▁شامل	-10.7994
▁الساحلي	-10.7997
▁مشاركته	-10.7998
▁الالات	-10.8001
▁الرحلات	-10.8002
up	-10.8002
▁نيوزيلندا	-10.8005
▁بالح	-10.8008
▁متاحة	-10.8011
▁النهاية	-10.8015
ستغرق	-10.8015
▁استقال	-10.8016
ربان	-10.8019
▁طيبة	-10.8019
▁الروي	-10.8019
▁السنين	-10.8022
▁اجراءات	-10.8022
▁المانية	-10.8023
▁الامثلة	-10.8023
▁كازاخستان	-10.8023
▁المز	-10.8024
▁(12	-10.8024
▁زهير	-10.8026
▁اسبوعية	-10.8026
▁سحابية	-10.8027
▁الكندية	-10.8033
▁يونس	-10.8034
▁وضعت	-10.8037
زير	-10.8037
▁ومثل	-10.8039
2007	-10.8041
▁ايمن	-10.8046
▁كمال	-10.805
▁تردد	-10.8052
▁المغناطيسي	-10.8054
▁الهامة	-10.8058
▁المجد	-10.8058
▁الحلول	-10.8063
▁ترا	-10.8065
▁350	-10.8067
2014	-10.8068
▁وموسس	-10.8069
▁القرارات	-10.8075
الكويت	-10.8076
خلل	-10.8082
موت	-10.8082
▁الناتجة	-10.8087
مواد	-10.8091
حكومة	-10.8092
▁اولاد	-10.8094
▁الرمة	-10.8095
▁130	-10.8097
▁64	-10.8099
-10	-10.8105
▁صمم	-10.8107
حرص	-10.8108
ختصر	-10.8108
▁المنافسة	-10.8109
▁الضخمة	-10.8111
▁طاهر	-10.8111
▁البصرة	-10.8111
▁قايلا	-10.8111
▁مبادرات	-10.8111
▁عتاد	-10.8111
مصفاة	-10.8111
▁لوجود	-10.8112
▁الحموي	-10.8113
▁نوعا	-10.8114
▁(2	-10.8114
▁1931	-10.8114
▁ويست	-10.8114
▁باعمال	-10.8115
▁جنيف	-10.8115
▁لينكس	-10.8115
▁ميات	-10.8117
▁علاج	-10.8117
▁التوحيد	-10.8117
▁وقبل	-10.8119
تفسير	-10.8119
دراسات	-10.812
▁الحبوب	-10.812
▁زاير	-10.8121
▁خبير	-10.8121
تصرف	-10.8123
ضحي	-10.8124
▁ويقوم	-10.8125
▁للطايرات	-10.8125
▁وكاس	-10.8126
▁اساسا	-10.8128
اتحاد	-10.8129
▁والرياضيات	-10.8135
▁الملابس	-10.8136
▁كاول	-10.8137
▁بوم	-10.8138
▁واللغة	-10.8138
مقاطعة	-10.8141
غطاء	-10.8141
سكوب	-10.8145
▁تشغل	-10.8146
▁قطريون	-10.8148
▁Mo	-10.8149
▁يتمكن	-10.8154
ly	-10.8157
▁المبكر	-10.8159
RA	-10.8162
▁الظروف	-10.8162
رييس	-10.8163
سلطة	-10.8164
▁للمنطقة	-10.8166
▁مساء	-10.8169
PA	-10.8174
يسر	-10.8176
ay	-10.8177
▁1426	-10.8178
▁الامان	-10.8179
▁منحت	-10.8179
▁توجه	-10.818
▁الحارة	-10.8183
مخرج	-10.8186
غني	-10.8187
زوجة	-10.8189
▁المطلوبة	-10.819
▁واهم	-10.8191
▁العقاري	-10.8192
وفيتش	-10.8194
مدافع	-10.8195
ربع	-10.8195
▁لعرض	-10.8197
ريج	-10.8201
▁توصيل	-10.8202
▁وبلغ	-10.8205
▁المعني	-10.8207
لندن	-10.821
عزل	-10.8218
زياييون	-10.8231
AN	-10.8238
اشراف	-10.8244
سفير	-10.8246
▁يقا	-10.8246
منع	-10.8248
▁بابا	-10.8248
▁ثنايية	-10.8249
▁والثانية	-10.825
▁الدايمة	-10.8252
دالة	-10.8252
تخطيط	-10.826
▁للمركز	-10.8261
تقريب	-10.8262
عار	-10.8262
▁X	-10.8265
▁فكان	-10.8268
▁الدعا	-10.8269
▁عش	-10.8273
▁مواصفات	-10.8278
▁الصم	-10.8282
1998	-10.8285
ستقر	-10.8285
▁دم	-10.8286
استيعاب	-10.8286
и	-10.8286
نمذجة	-10.8286
▁تصريح	-10.8286
▁العقبة	-10.8286
▁يسكن	-10.8286
▁هنود	-10.8287
▁الجاهلي	-10.8287
ical	-10.8287
استيراد	-10.8287
مساكن	-10.8289
بذور	-10.8291
اكتشاف	-10.8292
▁الرباط	-10.8292
متع	-10.8293
▁on	-10.8295
▁السيول	-10.8298
▁72	-10.8299
▁غانا	-10.8299
كافي	-10.83
▁ملح	-10.83
▁الطيب	-10.83
▁والخاص	-10.83
▁ورفع	-10.8303
▁ترخيص	-10.8304
▁ويعود	-10.8306
▁عبس	-10.8308
جوايز	-10.8309
▁تخصيص	-10.831
▁مسوولي	-10.8311
توافر	-10.8316
نوافذ	-10.8318
▁واخري	-10.8319
▁تمكين	-10.8322
سقي	-10.8325
▁وليد	-10.8326
▁اصلاح	-10.8327
▁والغرب	-10.8328
▁وايل	-10.8329
▁التميز	-10.8331
▁والتعاون	-10.8332
▁وفر	-10.8337
▁الباكستاني	-10.8338
العرب	-10.8342
▁الموجود	-10.8344
راسمال	-10.8345
▁السنوي	-10.8345
ديل	-10.8345
▁اعد	-10.8347
اصل	-10.8348
▁نقص	-10.8351
43	-10.8356
▁الفل	-10.8357
▁للدول	-10.8359
▁الزمنية	-10.8364
ک	-10.8367
▁يابانية	-10.8367
رسانة	-10.8367
▁المرسوم	-10.837
شرط	-10.8377
▁كهربايية	-10.8378
▁معار	-10.8378
Z	-10.8382
توسيع	-10.8384
حصن	-10.8385
ولوج	-10.8388
▁كفاءة	-10.8389
▁ومراجع	-10.8391
صيغة	-10.8391
2016	-10.8391
2006	-10.8392
▁وتولي	-10.8393
▁عقود	-10.8394
وهو	-10.8395
▁اير	-10.8395
كواكب	-10.8397
تصف	-10.8397
وكي	-10.8399
طعم	-10.8399
▁محور	-10.8401
▁الهييات	-10.8403
جنس	-10.8408
▁البصرية	-10.8411
▁اساليب	-10.8413
▁800	-10.8414
▁جوي	-10.8414
–19	-10.8415
▁ورب	-10.8418
دعم	-10.8421
▁قدرها	-10.8426
▁تربية	-10.8426
دقة	-10.8427
وقت	-10.8428
عتقد	-10.8439
▁الممتازة	-10.8448
تسلسل	-10.8459
▁ادبي	-10.8463
▁بوخارست	-10.8465
▁لتنفيذ	-10.8465
▁وتوزيع	-10.8465
▁الراجحي	-10.8465
▁يغطي	-10.8465
▁الاقصي	-10.8465
▁ببناء	-10.8465
▁واخيرا	-10.8465
▁الوسيط	-10.8465
▁يحدد	-10.8465
▁الوليد	-10.8465
▁كونغولي	-10.8466
▁مشيط	-10.8467
▁مقعد	-10.8467
استدامة	-10.8467
اسلاك	-10.8467
▁الترميم	-10.8467
TA	-10.8468
انترنت	-10.8468
▁1935	-10.8469
▁والمناطق	-10.8469
غرب	-10.8475
تفاعل	-10.8477
حزام	-10.8478
▁حلوي	-10.8481
▁كيميايي	-10.8482
▁المستند	-10.8483
▁رملية	-10.8485
if	-10.8487
▁يري	-10.8488
اقليم	-10.849
▁يعطي	-10.8493
▁تاخذ	-10.8493
▁الهداف	-10.8493
▁تربوي	-10.8494
▁للتعلم	-10.8495
▁اسيوية	-10.8501
▁اوفيس	-10.8501
▁تجميع	-10.8502
▁منتزه	-10.8507
فراج	-10.8508
▁سريعة	-10.8509
ve	-10.851
▁طاير	-10.8512
▁تقانة	-10.8512
▁التوقيع	-10.8512
▁الدبلوم	-10.8514
▁المعادن	-10.8514
▁البصري	-10.8519
▁الفضايي	-10.852
▁مضر	-10.8523
انس	-10.8528
انجاز	-10.8529
▁حاسوبية	-10.853
▁فرد	-10.8532
فكر	-10.8532
▁انماط	-10.854
▁المساعد	-10.8541
▁والذكاء	-10.8541
▁تطويره	-10.8544
▁صراع	-10.8546
رجل	-10.8548
▁بكثرة	-10.8549
▁العادة	-10.8551
▁الحصن	-10.8553
خالف	-10.8554
ملة	-10.8555
▁الملحق	-10.8556
صعب	-10.8557
تزامن	-10.8558
▁الموت	-10.8558
بنت	-10.8565
▁المصنع	-10.8567
شارك	-10.8569
غلو	-10.8578
▁صار	-10.8578
▁بعرض	-10.8578
وفقا	-10.8579
▁وتع	-10.8581
▁دواوين	-10.8583
عمر	-10.859
▁عشرين	-10.8591
▁التاسعة	-10.8591
▁تاسيسه	-10.8592
▁والرياض	-10.8592
▁تواجد	-10.8594
▁مقره	-10.8595
▁تسعي	-10.8596
▁والدته	-10.8596
▁شاملة	-10.8598
▁الجبر	-10.8601
▁الخيل	-10.8602
▁نهاييات	-10.8604
وصول	-10.8605
▁سري	-10.8605
▁شهرة	-10.8606
▁(16	-10.8606
▁المختبرات	-10.8616
▁الشيعة	-10.8619
▁الحيوان	-10.8622
▁الكاملة	-10.8627
▁بصفته	-10.8627
▁توج	-10.8632
جماعات	-10.8633
▁الاحصايي	-10.8636
قدرة	-10.8638
▁التلفزيوني	-10.8639
▁الاحمد	-10.8642
رشد	-10.8646
▁الوراثة	-10.8646
▁للاستخدام	-10.8646
▁شهادات	-10.8646
▁الصقور	-10.8646
▁التميمي	-10.8646
ضوابط	-10.8646
▁النماص	-10.8646
▁الرزاق	-10.8647
▁الشمري	-10.8647
▁المستقلة	-10.8647
▁طهران	-10.8647
▁مفاعل	-10.8648
طروحة	-10.8649
▁خضراء	-10.8649
▁حدوث	-10.865
▁واجراء	-10.865
▁مشاة	-10.8651
▁والغ	-10.8651
▁تايمز	-10.8652
▁فترات	-10.8653
▁1399	-10.8654
دود	-10.8656
▁ناقل	-10.8656
▁الصدر	-10.8659
داعي	-10.8661
▁رالي	-10.8661
▁نواب	-10.8662
▁بالمعهد	-10.8664
▁المرشح	-10.8666
▁تخ	-10.8667
▁يشار	-10.8667
▁يساعد	-10.8671
▁الجواء	-10.8673
▁مغلق	-10.8674
▁تنته	-10.868
قايد	-10.8681
مداين	-10.8686
▁المرصد	-10.8687
▁والالكترونيات	-10.8687
▁الطلبة	-10.8689
▁سرية	-10.869
حارب	-10.8694
▁منافسو	-10.8694
▁وبذلك	-10.8695
▁الفروع	-10.8695
ظفر	-10.8695
▁وباكستان	-10.8698
▁ملي	-10.8698
طاع	-10.8699
▁السالم	-10.87
▁خبرة	-10.8701
▁العلي	-10.8704
▁صيد	-10.8705
▁الصعيد	-10.8706
▁والثاني	-10.8706
▁منفصل	-10.8706
▁الاربع	-10.8708
▁دينية	-10.8708
▁de	-10.8708
▁الاختلاف	-10.871
جنوب	-10.8714
▁المطلق	-10.8714
▁القواعد	-10.8714
▁3-	-10.8715
600	-10.8718
▁والتحق	-10.8718
▁شرعي	-10.8718
▁الزي	-10.8719
عتبر	-10.8723
▁القطار	-10.8724
اسك	-10.8726
▁قررت	-10.8726
▁فرصة	-10.8727
▁موجهة	-10.8728
▁القاب	-10.8731
مختبرات	-10.8731
▁كينيا	-10.8733
▁ومنهم	-10.8734
▁سباح	-10.8734
▁والثانوية	-10.8735
▁سبور	-10.8736
▁الكو	-10.8736
▁مشاهدة	-10.874
▁وحماية	-10.8741
ميزة	-10.8741
امكانيات	-10.8742
▁وعد	-10.8745
▁نادر	-10.8752
▁نجاحا	-10.8753
▁دايرية	-10.8757
▁الحجة	-10.8758
▁قرا	-10.8758
▁المنتدي	-10.8764
باك	-10.8776
قايمة	-10.8777
كبار	-10.8777
art	-10.8779
▁عمار	-10.878
▁شهرية	-10.8781
▁والرياضة	-10.8782
طلاق	-10.8784
▁44	-10.8791
▁خشب	-10.8792
نحو	-10.8801
▁داني	-10.8801
▁تنقل	-10.8802
رابط	-10.8809
▁توم	-10.8811
تفرغ	-10.8813
فقد	-10.8814
▁شاه	-10.8816
▁هضبة	-10.8818
▁بشري	-10.8819
▁2,	-10.882
▁القياسي	-10.8822
بروك	-10.8828
▁for	-10.8829
nd	-10.883
▁مب	-10.883
е	-10.8832
о	-10.8832
▁يختلف	-10.8832
▁الطقس	-10.8832
▁الموهلات	-10.8832
▁ومراكز	-10.8832
▁الاثقال	-10.8832
▁النعيم	-10.8832
التقانة	-10.8832
▁متعب	-10.8832
موثوق	-10.8832
▁لخدمات	-10.8832
▁المتنوعة	-10.8832
▁بوسني	-10.8832
▁ومجلس	-10.8832
وازن	-10.8832
▁والغاز	-10.8833
كوخرد	-10.8833
▁باسلوب	-10.8834
لوايح	-10.8834
▁داكار	-10.8835
▁الاعظم	-10.8836
▁الرييسة	-10.8836
▁البانيا	-10.8836
▁والبرامج	-10.8838
▁وانضم	-10.8838
▁صدور	-10.8839
▁تيماء	-10.8839
▁وتطور	-10.884
تسلق	-10.884
رصيد	-10.884
▁الجسر	-10.8841
▁سنوي	-10.8843
▁القياسية	-10.8844
تماثل	-10.8845
▁وايران	-10.8845
نسق	-10.8846
▁منشور	-10.8846
▁محاكم	-10.8847
▁بارد	-10.8849
▁تتمتع	-10.8851
تسمي	-10.8851
▁التخصص	-10.8853
▁والتحليل	-10.8854
ربون	-10.8855
▁مطعم	-10.8855
وقوف	-10.8856
▁الضب	-10.8856
وقاية	-10.8857
▁استاد	-10.8857
▁In	-10.886
▁العظيم	-10.8861
موضوع	-10.8861
▁يجيد	-10.8862
مسابقة	-10.8862
▁طالبا	-10.8862
▁قلاع	-10.8862
▁ولو	-10.8862
im	-10.8863
▁المط	-10.8864
▁مصورة	-10.8864
▁الشحن	-10.8865
▁لتحرير	-10.8865
▁Ma	-10.8866
▁النجاح	-10.8867
no	-10.8868
▁ضمان	-10.8872
علوم	-10.8872
مبادرة	-10.8873
حين	-10.8873
▁تعيش	-10.8874
▁خشبية	-10.8876
لافضل	-10.888
▁مغني	-10.888
▁يحده	-10.8882
▁الذهبي	-10.8883
▁بنايه	-10.8883
شرب	-10.8885
▁سويدي	-10.8886
▁الاجزاء	-10.8886
ظف	-10.8887
مملكة	-10.8888
▁وفتح	-10.8889
ine	-10.889
▁شين	-10.8891
ترن	-10.8892
▁الجزييي	-10.8893
▁المحددة	-10.8893
▁الحماد	-10.8894
▁الدليل	-10.8894
▁الاسر	-10.8895
▁ايدي	-10.8895
▁صخرية	-10.8896
زاول	-10.8896
جذور	-10.8897
▁قول	-10.8897
حظر	-10.8897
▁خطا	-10.8899
▁القدرات	-10.89
▁كوب	-10.89
▁ويكي	-10.8901
▁الماضية	-10.8903
▁تنافس	-10.8904
▁الواحدة	-10.8905
▁سلفي	-10.8908
▁ليلة	-10.891
▁مثلا	-10.8915
▁بديل	-10.8915
▁موقعها	-10.8917
▁جبر	-10.8918
▁عوض	-10.8921
متعة	-10.8921
▁(7	-10.8923
▁الصحفية	-10.8923
▁التعاوني	-10.893
طاير	-10.893
مدة	-10.8932
▁فقه	-10.8932
وعي	-10.8941
▁البركة	-10.8944
72	-10.8945
غابات	-10.8946
تكلفة	-10.8953
صلي	-10.8953
▁مبدا	-10.8953
▁الشاملة	-10.8953
لقاء	-10.8954
▁ابنة	-10.8955
▁القومية	-10.8961
لفظ	-10.8963
ect	-10.8963
▁المختبر	-10.8964
ناشر	-10.8973
تور	-10.8973
تغذي	-10.8975
▁الحارث	-10.8977
▁القتال	-10.8979
تعني	-10.8979
▁محتوي	-10.8983
▁الفعلي	-10.8984
▁سعر	-10.8986
▁تراثية	-10.8986
5%	-10.8988
مهنة	-10.8989
-8	-10.8991
▁سلك	-10.8995
▁الحرية	-10.9002
مدن	-10.9003
▁وجميع	-10.9005
تدخل	-10.9009
دخول	-10.901
▁ضوء	-10.9015
▁بالاس	-10.9016
گ	-10.902
▁التفكير	-10.902
▁والدكتوراه	-10.902
▁وافريقيا	-10.902
▁الزلزال	-10.902
▁جعفر	-10.9021
▁التربة	-10.9021
اكتساب	-10.9021
▁الفيزيايية	-10.9021
▁حقيقي	-10.9021
▁مجلد	-10.9022
ضافة	-10.9023
▁1436	-10.9023
▁وافتتح	-10.9024
شاد	-10.9024
▁1397	-10.9025
▁1432	-10.9025
▁1924	-10.9025
▁الاهالي	-10.9025
الامارات	-10.9025
▁المنامة	-10.9026
▁الباحث	-10.9026
▁الاسبق	-10.9026
▁خطر	-10.9026
القوات	-10.9027
▁منهما	-10.9028
▁السلمان	-10.9033
الخ	-10.9042
ربح	-10.9044
lu	-10.9047
▁النباتية	-10.9047
طاب	-10.9051
▁بموقع	-10.9053
▁يملك	-10.9054
▁والاشراف	-10.9056
▁يعرض	-10.9058
مستشار	-10.9058
▁المطل	-10.906
▁مرتفع	-10.9062
▁النصف	-10.9062
▁وتعلم	-10.9065
▁بمعهد	-10.9068
▁تخدم	-10.907
▁وخارج	-10.907
▁تنظم	-10.9073
▁اجنبية	-10.9073
▁البارزة	-10.9073
▁نصر	-10.9073
▁(8	-10.9073
▁...	-10.9074
▁تصف	-10.9077
▁بيرو	-10.9078
▁مابين	-10.9082
بتر	-10.9085
▁المفتوح	-10.9086
▁للادارة	-10.9089
▁محتويات	-10.909
▁استرالي	-10.9094
/2	-10.9103
ملاك	-10.9103
▁اشت	-10.9105
▁العادية	-10.9106
▁المتغيرات	-10.9107
▁للهيية	-10.9107
سكون	-10.9108
▁الغابات	-10.9108
da	-10.9113
ni	-10.9117
▁وجاء	-10.9118
سلامة	-10.9118
ستعمل	-10.9121
لاقي	-10.9121
▁منصات	-10.9124
▁ومقر	-10.9126
▁حيوي	-10.9128
يتو	-10.9129
كنيسة	-10.913
▁ذكرها	-10.9131
لهيية	-10.9132
EC	-10.9134
▁رين	-10.914
▁التقدير	-10.9141
قوي	-10.9141
▁زالت	-10.9144
▁الفيروس	-10.9146
▁اغلاق	-10.9151
▁دكتور	-10.9159
▁مميزة	-10.9165
▁المرو	-10.9166
▁الفخار	-10.9175
جهود	-10.9176
CA	-10.9176
▁الحسابي	-10.9176
▁المجتمعية	-10.9179
▁الموسيقية	-10.9187
▁المناسبة	-10.9188
رجاء	-10.919
▁الاسد	-10.9194
وزع	-10.9198
-5	-10.92
▁ونال	-10.9207
وكالة	-10.9207
ell	-10.9208
▁ينتقل	-10.9208
حلة	-10.9209
والد	-10.9209
حيوان	-10.9211
▁عايل	-10.9212
▁السودانية	-10.9212
▁البارالمبية	-10.9213
▁الدوادمي	-10.9213
▁شيكاغو	-10.9213
н	-10.9213
▁جاكرتا	-10.9213
▁البولندي	-10.9213
▁الراشد	-10.9213
▁ترشيح	-10.9213
▁يركز	-10.9213
▁السروات	-10.9213
▁حضرموت	-10.9213
▁مدفون	-10.9213
▁السبب	-10.9214
▁تستضيف	-10.9214
▁عقاري	-10.9215
▁الاعتبار	-10.9215
▁التصفيات	-10.9215
▁1921	-10.9216
تعرف	-10.9217
▁الجينات	-10.9218
▁بوينغ	-10.9218
▁الينوي	-10.9219
▁وخطيب	-10.922
فيسبوك	-10.9223
▁عيادة	-10.9226
▁ارم	-10.923
▁اثيوبيا	-10.923
-0	-10.9231
حوار	-10.9232
▁الخالدي	-10.9233
▁وسمي	-10.9233
▁700	-10.9236
▁شب	-10.9236
استناد	-10.9237
▁لمن	-10.9238
▁ماكس	-10.9242
▁والقانون	-10.9243
ترشح	-10.9247
▁بكتاب	-10.925
▁الحس	-10.925
▁تتيح	-10.925
▁المبرز	-10.925
مصطلح	-10.9257
▁هندية	-10.9259
▁قالت	-10.9262
▁تكاليف	-10.9262
تسوق	-10.9263
لوضعية	-10.9263
▁استقالته	-10.9266
▁لمشروع	-10.9266
▁ثلاثي	-10.9267
▁قنا	-10.9267
▁قدره	-10.9268
الدرجات	-10.9268
زاع	-10.9278
▁الهولندي	-10.9281
▁التقليدي	-10.9282
▁استمرت	-10.9284
▁قسمين	-10.9285
▁الجيولوجي	-10.9286
▁جامعية	-10.9289
▁توثيق	-10.9293
▁السيل	-10.9295
▁النيابة	-10.9297
▁انجاز	-10.9299
▁القص	-10.9301
▁Z	-10.9302
▁المستشار	-10.9303
▁وجعل	-10.9306
▁استاذة	-10.9307
غزل	-10.9318
▁اتفاقيات	-10.932
▁الخطة	-10.932
▁اميرا	-10.932
▁ارسل	-10.9328
▁المقدسة	-10.933
▁الفصيلة	-10.9331
لبن	-10.9338
سكك	-10.9346
احيانا	-10.9349
▁تجاه	-10.9351
▁القول	-10.9351
امتياز	-10.9351
ex	-10.9355
تتطلب	-10.9356
▁غزو	-10.9356
▁ثلاثين	-10.936
خذ	-10.9369
2012	-10.9371
▁لاس	-10.9372
اغراض	-10.9374
ساهم	-10.9375
▁موت	-10.9376
▁نسخ	-10.9377
نقل	-10.9377
84	-10.9382
▁واضح	-10.9384
بش	-10.9384
روية	-10.9386
▁القتل	-10.9386
▁3000	-10.939
بيون	-10.939
▁بروتوكولات	-10.9392
بارا	-10.9394
شهور	-10.9399
▁وحفظ	-10.94
▁والدها	-10.9403
▁تبني	-10.9405
استاذ	-10.9406
▁الوراثية	-10.9409
▁بسهولة	-10.9409
▁تشارلز	-10.9409
▁وبرامج	-10.9409
▁قحطان	-10.9409
▁ايقاف	-10.9409
▁بوسطن	-10.9409
▁ايجابي	-10.9409
▁احترافي	-10.9409
▁والمرافق	-10.9409
▁الرحالة	-10.9409
▁احتفال	-10.941
نفوذ	-10.941
▁الصالات	-10.941
▁الطراز	-10.9411
▁ابعاد	-10.9411
▁صفقة	-10.9412
مناقشة	-10.9412
▁البيوت	-10.9412
▁مايكل	-10.9412
▁السح	-10.9412
▁الساعات	-10.9414
▁عقيل	-10.9414
▁والعلاقات	-10.9416
▁غزال	-10.9417
▁الكاثوليكية	-10.9417
▁السعيد	-10.9418
▁غريب	-10.9418
▁اولمبياد	-10.9418
▁الحريق	-10.9419
▁وتلقي	-10.942
▁واربع	-10.9421
▁اعتبر	-10.9422
▁اخيه	-10.9422
ولايات	-10.9423
▁فريقا	-10.9424
▁للتجارة	-10.9425
▁يتمتع	-10.9426
▁العشر	-10.9428
شركاء	-10.943
▁مهرجانات	-10.9431
▁والفيزياء	-10.9432
▁سلم	-10.9433
▁ويلز	-10.9433
اصر	-10.9433
▁استوني	-10.9434
▁هطول	-10.9434
▁بدايات	-10.9434
الالياف	-10.9435
لوم	-10.9435
نجم	-10.9437
▁العقارات	-10.9437
شتهر	-10.9437
حوطة	-10.9437
▁المرض	-10.944
▁قاموس	-10.944
▁سلوي	-10.9441
▁الصقر	-10.9442
▁قصيدة	-10.9444
▁مميز	-10.9446
▁الملاعب	-10.9447
لمعهد	-10.9449
▁بيك	-10.9449
▁للطباعة	-10.9449
▁بنشر	-10.945
سامة	-10.945
▁الاعصاب	-10.9452
▁الاحجار	-10.9455
▁-)،	-10.9458
▁الكاينات	-10.9458
▁اشارات	-10.9462
▁تدرس	-10.9468
شارع	-10.9476
▁الاستشارات	-10.9477
▁قليلا	-10.9477
مسايل	-10.9478
قبيلة	-10.9479
▁بالمركز	-10.9481
▁تسميتها	-10.9484
▁زوجها	-10.9485
▁فلكية	-10.9486
▁قبيل	-10.9487
▁السريعة	-10.9489
▁محمولة	-10.9493
▁صيني	-10.9494
ياني	-10.9494
▁وطلب	-10.9502
تتكون	-10.9503
بحر	-10.9504
▁الكوت	-10.951
▁والصور	-10.9512
▁نورة	-10.9513
كلمة	-10.9518
▁عقده	-10.952
▁كيان	-10.9523
نيابة	-10.9529
act	-10.9537
▁بدءا	-10.9539
الشراكة	-10.9541
جت	-10.9544
▁السهل	-10.9544
▁العظمي	-10.9545
شعاب	-10.955
▁النرويجية	-10.955
خلايا	-10.9552
▁فنون	-10.9553
▁عزيز	-10.9554
مفهوم	-10.9555
قوق	-10.9556
IN	-10.9559
فحص	-10.9561
▁التشيك	-10.9564
ذهاب	-10.9571
شفر	-10.9571
▁والشباب	-10.9571
حديث	-10.9571
CO	-10.9573
▁ايطالي	-10.9573
▁الانابيب	-10.9575
▁الرومانية	-10.9576
2002	-10.9578
نجر	-10.9586
شاء	-10.959
طايرة	-10.9593
▁مسرحي	-10.9593
▁اجتماعات	-10.9593
▁فحص	-10.9594
▁مطلوب	-10.9596
▁مصريات	-10.96
▁تركية	-10.9604
▁بصف	-10.9607
▁قاعات	-10.9608
١	-10.9609
▁الاوكراني	-10.9609
▁وشركات	-10.9609
▁الفروسية	-10.9609
▁النخبة	-10.9609
▁الوزاري	-10.9609
استنتاج	-10.9609
▁لسكان	-10.9609
▁الالوان	-10.961
▁المختار	-10.961
احجام	-10.961
▁الركن	-10.961
▁وطرق	-10.9611
▁الحرجة	-10.9611
▁مارتن	-10.9611
▁الملاحة	-10.9611
ke	-10.9612
▁1434	-10.9613
▁1922	-10.9613
▁جاسم	-10.9615
مشاريع	-10.9617
امش	-10.9617
▁والمالية	-10.9618
▁والاثار	-10.9619
▁روما	-10.9622
1999	-10.9622
▁واستخدم	-10.9623
▁اقترح	-10.9624
▁كتبت	-10.9624
▁تاريخيا	-10.9626
▁والندوات	-10.9626
▁يشبه	-10.9627
▁السايل	-10.9629
▁الخبرة	-10.9631
▁وامن	-10.9633
▁تزويد	-10.9636
▁والمنظمات	-10.9637
ag	-10.964
صوب	-10.964
▁المستشفيات	-10.9641
▁زاد	-10.9642
▁والصحة	-10.9644
▁العفو	-10.9645
▁واو	-10.9645
▁الراين	-10.9645
▁الهجمات	-10.9648
ويمر	-10.9649
▁الظل	-10.965
▁بولي	-10.965
▁منجم	-10.9651
سماء	-10.9651
▁اهتمامات	-10.9652
▁للمجلس	-10.9654
▁المذهب	-10.9654
▁#	-10.9655
▁تقاطع	-10.9656
▁تتجاوز	-10.9657
▁المجري	-10.9658
مطبوعات	-10.9659
▁التجمعات	-10.9659
▁القبول	-10.966
▁الاله	-10.9661
▁الايطالية	-10.9665
▁مصفوفة	-10.9666
▁المادية	-10.9667
▁الدفاعية	-10.9668
▁الجهاد	-10.9668
▁التغيير	-10.9669
▁ارضية	-10.967
الرياض	-10.967
▁المسلم	-10.9671
▁والعالمية	-10.9673
دج	-10.9674
MP	-10.9676
اخبار	-10.9677
▁توقفت	-10.9679
▁اذاع	-10.9681
▁منظم	-10.9685
▁الافتراضي	-10.9685
▁الموحد	-10.9688
▁المحطات	-10.9688
▁البدء	-10.969
لاسرة	-10.969
▁قصايد	-10.9691
▁بزيار	-10.9692
▁الرياسة	-10.9695
▁بييية	-10.9696
▁مرت	-10.9698
▁مراقب	-10.97
▁التجريبية	-10.9701
رايد	-10.9708
▁ومهندس	-10.9712
▁لمس	-10.9713
▁قصصية	-10.9715
▁يرتبط	-10.972
▁لديهم	-10.9722
▁متكامل	-10.9722
▁بسيطة	-10.9725
دعت	-10.9725
▁لك	-10.9731
▁المنتخبات	-10.9732
مستودع	-10.9745
▁التعليمي	-10.9746
AT	-10.9746
اوسمة	-10.9746
▁المايي	-10.9748
رست	-10.9753
2000	-10.9756
▁ووصف	-10.9756
▁بوكس	-10.9756
▁كف	-10.9756
▁المهارات	-10.9759
▁الشامل	-10.9759
▁يجري	-10.9761
▁استكشاف	-10.9763
▁يحيط	-10.9764
▁مهد	-10.977
▁واخذ	-10.9772
AI	-10.9778
▁نظير	-10.978
▁السكري	-10.9782
قنصلية	-10.9784
▁ميس	-10.9784
شريك	-10.9784
ry	-10.9785
▁جمعت	-10.9793
معرض	-10.9793
▁خطوة	-10.9795
▁الجلد	-10.98
▁ليون	-10.9803
▁تدور	-10.9804
▁ديف	-10.9804
وعة	-10.9808
▁بصور	-10.981
а	-10.9813
▁الاسماعيلي	-10.9813
▁وماجستير	-10.9813
▁اندر	-10.9813
▁المغلوب	-10.9813
▁تحضير	-10.9813
زلازل	-10.9813
▁ياقوت	-10.9813
▁وصيانة	-10.9813
▁المحاضرات	-10.9813
▁للجيش	-10.9813
▁لضمان	-10.9813
▁تمييز	-10.9813
▁والمتاحف	-10.9814
▁الاعاقة	-10.9814
▁الايمن	-10.9814
▁والارشاد	-10.9815
▁مسعود	-10.9815
▁السامي	-10.9815
▁1423	-10.9816
▁ركز	-10.9816
▁المهاجم	-10.9816
▁بانتاج	-10.9816
▁غانم	-10.9817
▁صممت	-10.9818
▁نجيب	-10.9822
▁الهام	-10.9822
▁الازمة	-10.9822
▁بيضاء	-10.9825
▁المودي	-10.9827
▁والدفاع	-10.9827
▁حيدر	-10.9829
▁كمدير	-10.9832
▁اسمنت	-10.9832
▁كروز	-10.9833
انفجار	-10.9834
0,	-10.9836
▁يعادل	-10.9836
▁ياخذ	-10.9838
▁الحدايق	-10.984
▁يميز	-10.9843
▁الملاحظات	-10.9844
▁الصراع	-10.9844
▁عمران	-10.9847
▁تقديرا	-10.9847
▁والبر	-10.9848
الذي	-10.9849
▁البحيرة	-10.9849
كوريا	-10.985
▁ويصل	-10.985
▁1.5	-10.985
▁والادباء	-10.9851
▁الحوثيين	-10.9852
▁والتخطيط	-10.9853
▁اكل	-10.9854
وكر	-10.9859
▁تلعب	-10.9859
▁ناه	-10.9859
▁وتحت	-10.986
▁وفد	-10.9861
عمدة	-10.9864
▁اهلية	-10.9866
شعار	-10.9867
دفن	-10.9867
▁الفكرة	-10.9868
عادة	-10.9875
▁مطلق	-10.9877
▁التحقيق	-10.9877
▁والاست	-10.9878
▁الارز	-10.9878
▁قرون	-10.988
▁دوليا	-10.9881
نور	-10.9881
▁التحدي	-10.9883
▁الهاشمية	-10.9883
▁لفريق	-10.9884
ناطق	-10.9884
▁فرض	-10.9885
نبض	-10.9886
ضمن	-10.9888
لاح	-10.9888
فهرس	-10.9892
لقيادة	-10.9893
▁حدايق	-10.9894
▁الفلبينية	-10.9895
طبخ	-10.9896
▁السلاح	-10.9899
▁مستمر	-10.9899
▁المنشورة	-10.99
▁لرفع	-10.9902
▁رباع	-10.9905
▁المنافس	-10.9907
كابلات	-10.9907
ادوبي	-10.9909
▁استقر	-10.9909
▁الادباء	-10.9916
▁39	-10.9918
CC	-10.9918
واصف	-10.9922
▁شخصي	-10.9922
▁شحن	-10.9922
جمل	-10.9924
▁لبني	-10.9925
تاغ	-10.9928
▁دير	-10.9931
▁يحوي	-10.9932
▁الاجر	-10.9933
الموقع	-10.9936
رشاد	-10.9947
جدة	-10.9948
▁وعادة	-10.9948
▁عوامل	-10.995
سيح	-10.9955
لشركات	-10.9955
▁جبلية	-10.9956
▁(25	-10.9959
▁كيميايية	-10.9959
اعم	-10.9962
▁الارضي	-10.9962
▁تقليل	-10.9965
عضويات	-10.9965
▁كميات	-10.9966
اكاديمية	-10.9968
▁مستطيلة	-10.9969
▁بوش	-10.9972
▁محيط	-10.9973
▁الاخرة	-10.9975
يزن	-10.9976
▁ثابتة	-10.9977
▁سيناريو	-10.9978
▁وسايط	-10.9978
▁مجرد	-10.9979
▁ذكره	-10.9979
▁حو	-10.9982
جوازات	-10.9983
شبه	-10.9985
نشر	-10.9991
▁فورت	-10.9997
▁ممن	-10.9997
ازة	-10.9998
▁العامل	-11
خالد	-11.0003
▁انتج	-11.0003
ضغوط	-11.0005
طرد	-11.001
لتدريس	-11.0011
▁البحرينية	-11.0013
طية	-11.0013
▁خاط	-11.0014
شتري	-11.0014
▁سياسيو	-11.0014
▁البولي	-11.0017
▁اختياره	-11.0018
▁اليرموك	-11.0021
▁بلجرشي	-11.0021
▁مانشستر	-11.0021
ظواهر	-11.0021
▁الحكيم	-11.0021
▁المذنب	-11.0021
▁والمعدات	-11.0021
▁تعليق	-11.0021
▁رسايل	-11.0021
▁صحراوي	-11.0021
▁موزعة	-11.0021
▁الافتتاح	-11.0021
▁العريض	-11.0021
▁ارتباط	-11.0022
▁سراحه	-11.0022
ضاحية	-11.0022
▁تواجه	-11.0022
▁تاروت	-11.0023
▁شيوخ	-11.0023
نتر	-11.0025
▁الغزال	-11.0026
▁جلوي	-11.0028
▁استقلال	-11.0029
ity	-11.003
ميزات	-11.003
▁استدع	-11.003
رنس	-11.003
وتر	-11.0031
▁صفوف	-11.0032
bo	-11.0033
تزلج	-11.0033
▁للتربي	-11.0037
▁قليل	-11.0042
▁الاناث	-11.0043
▁اسباني	-11.0043
شرايح	-11.0044
▁يقصد	-11.0048
اينا	-11.0049
تراجع	-11.0053
▁المعارضة	-11.0053
مستوي	-11.0053
▁ميلا	-11.0055
▁بريطاني	-11.0055
منتجع	-11.0061
ليلة	-11.0062
▁مزيد	-11.0063
▁الغني	-11.0063
ثمانية	-11.0063
300	-11.0064
▁الجليد	-11.0064
تقاطع	-11.0065
▁بكين	-11.0065
▁تاون	-11.0066
▁نوعه	-11.0068
▁ادوارد	-11.007
▁الفيضانات	-11.007
براءات	-11.0071
مسالة	-11.0071
▁فمن	-11.0072
▁العاج	-11.0072
برنامج	-11.0074
▁العودة	-11.0076
▁الفريقين	-11.0077
صعد	-11.008
▁المعلم	-11.0083
خصص	-11.0085
▁الفار	-11.0085
▁التقييم	-11.0088
▁تضمن	-11.0088
IT	-11.0088
▁موظفي	-11.0092
▁لقطاع	-11.0097
المواد	-11.0099
▁استثمارية	-11.0099
▁%	-11.0099
فيض	-11.01
طبيعة	-11.0102
▁مشغل	-11.0105
حصل	-11.0106
▁مقاطع	-11.0108
▁&	-11.0109
▁الضف	-11.0111
▁الازياء	-11.0115
▁دايري	-11.0115
لولايات	-11.0115
▁النفطية	-11.0116
▁للرياض	-11.0116
▁برز	-11.0117
بلدة	-11.0118
ci	-11.0118
▁السلال	-11.0121
▁بعضهم	-11.0121
اعلان	-11.0121
▁الزوج	-11.0123
▁المقدس	-11.0124
▁مريي	-11.0124
غوص	-11.0124
▁خريج	-11.0125
▁المعتمدة	-11.0129
▁السمك	-11.0131
▁الاذن	-11.0133
▁الخرايط	-11.0135
▁الوزن	-11.0146
▁لعلم	-11.0146
▁محمي	-11.0153
▁ميغا	-11.0153
▁صينية	-11.0156
كتور	-11.0158
▁واضحة	-11.0158
بيوت	-11.0163
كاد	-11.0164
ستند	-11.0168
▁فردية	-11.0175
لحق	-11.0175
▁استمرار	-11.0177
▁الانصاري	-11.0177
▁الاستشاري	-11.0182
▁الاحتمال	-11.0183
▁والملك	-11.0183
▁الكتلة	-11.0183
صول	-11.0189
جذب	-11.019
▁المجتمعات	-11.019
تهيية	-11.019
▁اقامته	-11.0195
فرضية	-11.0197
org	-11.0198
زاي	-11.02
تابع	-11.02
▁متصفح	-11.0207
▁ادوار	-11.0207
▁التكنولوجي	-11.0209
2015	-11.021
▁القط	-11.0211
لعلاقات	-11.0214
2005	-11.0214
▁لوي	-11.0215
تسابق	-11.0218
بالتحديد	-11.0225
▁تار	-11.023
.0	-11.023
ran	-11.023
▁معتمدة	-11.023
▁الخلف	-11.0231
▁الخضر	-11.0234
▁الاحتلال	-11.0234
▁سلوفاكيا	-11.0234
▁ريتشارد	-11.0234
▁للتراث	-11.0234
اللغتين	-11.0234
▁الجدران	-11.0234
تعويض	-11.0234
▁مسبقا	-11.0234
▁ويليام	-11.0234
▁والاداب	-11.0234
▁الاخدود	-11.0234
▁وخمس	-11.0234
▁طورت	-11.0235
▁الخليفة	-11.0235
▁تقليدي	-11.0235
▁القويعية	-11.0235
استرجاع	-11.0236
▁وتحويل	-11.0237
احلام	-11.0237
▁ليبيري	-11.0237
▁روايته	-11.0238
▁التنقيب	-11.0239
▁الاشكال	-11.0239
▁الجمال	-11.0239
ثمرة	-11.0239
اضرار	-11.0239
▁الثوري	-11.024
▁الارسال	-11.024
▁خسر	-11.0241
قصيدة	-11.0242
▁سيناء	-11.0245
وليت	-11.0246
TV	-11.0249
▁دروس	-11.025
▁مان	-11.0251
▁للفيزياء	-11.0252
▁الثلاثاء	-11.0253
▁المعزز	-11.0256
▁دينار	-11.0259
اجه	-11.0261
▁صنا	-11.0266
▁كوميدية	-11.0266
قدر	-11.0269
▁اجرام	-11.0272
حقق	-11.0275
▁قص	-11.0275
▁مصانع	-11.0276
▁الشعيب	-11.0276
▁نقدية	-11.0277
NI	-11.028
▁العمرانية	-11.0286
▁الترفيهية	-11.029
▁الخادم	-11.029
▁والتحكم	-11.0291
▁القرعة	-11.0292
▁هولاء	-11.0292
▁هجرية	-11.0298
▁فهرس	-11.0298
▁وتطبيقات	-11.0299
ge	-11.0299
▁180	-11.03
▁التنبو	-11.0302
ولوجية	-11.0304
نهض	-11.0305
▁لمكتب	-11.0306
▁اذار	-11.0306
▁اختصاص	-11.0307
قصف	-11.0308
▁تنمو	-11.0312
▁الوصل	-11.0314
▁وجمع	-11.0314
▁حظر	-11.0314
▁الاهمية	-11.0316
▁مهدي	-11.0317
▁والسودان	-11.0318
▁النقطة	-11.032
مناسبة	-11.0322
▁معمل	-11.0324
▁دقيق	-11.0324
▁ملابس	-11.0326
▁استراتيجي	-11.033
▁مجانية	-11.0335
رغبة	-11.034
▁النارية	-11.0345
▁وسبق	-11.0346
توم	-11.0347
سعف	-11.0349
▁التدخل	-11.0349
وجبات	-11.035
▁بالكلية	-11.0352
4,	-11.0354
نقطة	-11.0355
عبر	-11.0357
▁جده	-11.0358
▁الجزر	-11.0359
▁مقاومة	-11.0359
روني	-11.0359
عطاء	-11.0362
▁900	-11.0364
▁سكرتير	-11.0364
اصوات	-11.0367
▁الشاطي	-11.0368
wa	-11.0373
مواني	-11.0374
راكب	-11.0378
لموسسة	-11.0379
▁محامي	-11.0379
كمن	-11.038
▁خور	-11.0386
▁تنوع	-11.0386
ذكاء	-11.0388
استراتيجيات	-11.039
▁الشاب	-11.0395
2011	-11.0396
▁الكمي	-11.0396
▁مهندسي	-11.0399
▁بضع	-11.0399
▁الطويلة	-11.04
▁غرين	-11.04
▁عظم	-11.0402
▁انتخاب	-11.0403
الاستحواذ	-11.0409
▁القوانين	-11.0411
▁السلف	-11.0411
▁الحمر	-11.0417
▁المناور	-11.042
▁De	-11.0421
▁المواطن	-11.0422
مساهمات	-11.0424
▁هدفين	-11.0429
لتزم	-11.0429
▁فخ	-11.0433
▁البرك	-11.0436
لغة	-11.0437
لج	-11.0439
TC	-11.0443
صحة	-11.0446
قاوم	-11.0448
توزیع	-11.0451
▁اريزونا	-11.0451
▁فرانكفورت	-11.0451
▁لتمثيل	-11.0451
▁متتالية	-11.0451
▁مزدوج	-11.0451
▁واوروبا	-11.0451
▁للنفط	-11.0451
▁المالديف	-11.0451
▁جوزيف	-11.0451
▁للشيخ	-11.0451
▁نخلة	-11.0451
▁المطاعم	-11.0452
▁الاجازة	-11.0452
▁ناجح	-11.0452
▁والفضاء	-11.0452
▁نقاب	-11.0452
▁متقدمة	-11.0452
▁والبنات	-11.0453
▁الاندماج	-11.0453
▁مراسل	-11.0453
اسقاط	-11.0453
▁قتال	-11.0454
▁والمراكز	-11.0455
▁النجدي	-11.0455
▁نيبال	-11.0455
▁حاتم	-11.0456
▁الازد	-11.0456
▁1427	-11.0458
▁نخيل	-11.0458
▁بلاي	-11.0458
▁زهرة	-11.0458
▁المرجع	-11.0459
▁Pro	-11.0462
انتهت	-11.0465
MS	-11.0465
▁ومولف	-11.0466
راصد	-11.0467
▁اوروبي	-11.0469
▁متجر	-11.0471
▁الانف	-11.0474
▁فاسو	-11.0475
▁جهات	-11.0477
▁اشعار	-11.0478
▁للمراة	-11.0479
▁رويال	-11.0479
▁بثلاث	-11.0481
▁والخبر	-11.0482
▁المهددة	-11.0485
▁51	-11.0485
▁اهتم	-11.0486
▁ودراسة	-11.0487
▁عرقية	-11.0488
▁مهمته	-11.049
▁هنري	-11.049
بما	-11.0495
▁الامور	-11.0496
▁المذكورة	-11.0498
▁نقد	-11.0498
▁البوابة	-11.0499
▁للزراعة	-11.0505
▁انشايها	-11.0506
اسعار	-11.0507
▁وتركيا	-11.051
▁المصمم	-11.051
▁النيل	-11.0511
كاين	-11.0517
العراق	-11.0522
ورخ	-11.0522
▁التجربة	-11.0523
معايير	-11.0524
قرض	-11.0526
لصق	-11.0526
▁اطلاقه	-11.0526
▁الفيدرالية	-11.053
▁احتمال	-11.0532
▁اعلامية	-11.0534
اساس	-11.0538
▁للالعاب	-11.0541
▁بسيط	-11.0545
▁التربوي	-11.0546
▁القضايية	-11.0546
▁وضم	-11.0546
▁الكيميايي	-11.0547
▁الفلكي	-11.0547
▁وفلسطين	-11.0548
to	-11.0548
▁موجود	-11.0548
انتخابات	-11.0549
وظايف	-11.0549
نموذج	-11.055
▁لقياس	-11.0551
براءة	-11.0551
▁والاجهزة	-11.0554
لمراقبة	-11.0554
بادر	-11.0555
▁المحتمل	-11.0559
▁الكرا	-11.056
تكثر	-11.056
ايهم	-11.0562
محطات	-11.0564
▁وتقنيات	-11.0566
BC	-11.0567
شيء	-11.0567
▁محاضرات	-11.0571
▁فعالة	-11.0573
▁اقر	-11.0576
▁الظاهر	-11.0576
▁التربوية	-11.0578
▁العظم	-11.0578
▁محدود	-11.0578
▁بداخل	-11.058
▁والخط	-11.058
مراة	-11.0581
▁سبورت	-11.0582
▁1500	-11.0583
▁الثنايي	-11.0584
▁ليتم	-11.0584
منصب	-11.0585
▁ترب	-11.0586
▁والرسوم	-11.0586
اغذية	-11.0587
▁الاندلس	-11.0588
▁التخصصي	-11.0588
▁صعب	-11.0593
فهد	-11.0593
▁والصين	-11.0593
▁شيل	-11.0594
▁السرية	-11.0597
▁امرا	-11.0598
▁مرتفعة	-11.0599
▁جيولوجيا	-11.06
▁روي	-11.0601
II	-11.0609
▁صيغة	-11.0611
دول	-11.0612
▁الحم	-11.0613
▁سيدات	-11.0613
جلب	-11.0614
كهوف	-11.0615
▁وعمر	-11.0616
▁المتغير	-11.0616
الواح	-11.0619
▁حدثت	-11.0623
▁المعاصرة	-11.0624
باحث	-11.063
▁المحليين	-11.0632
استغلال	-11.0637
▁وصلة	-11.0638
▁محي	-11.0639
▁كثافة	-11.064
فارق	-11.0641
▁128	-11.0642
▁للنادي	-11.0643
خارج	-11.0646
بيشة	-11.0649
2021	-11.0658
0000	-11.0659
سلاح	-11.066
ديو	-11.066
▁37	-11.0666
▁انخفاض	-11.0668
▁بتهم	-11.0669
▁المحتويات	-11.0671
▁جولة	-11.0672
▁احزاب	-11.0673
▁استهلاك	-11.0673
▁الايجابي	-11.0673
▁الشوارع	-11.0673
▁كابيتال	-11.0673
اظهار	-11.0673
▁ايفواري	-11.0673
▁عريعر	-11.0673
▁كالتالي	-11.0674
▁المملوك	-11.0674
▁مروحيات	-11.0674
▁كنديون	-11.0674
▁المتطورة	-11.0674
▁المتصلة	-11.0674
▁وقوع	-11.0674
ass	-11.0674
المناظر	-11.0674
▁المخطوطات	-11.0675
▁مشاري	-11.0675
▁والمع	-11.0676
▁اكسفورد	-11.0676
▁يتجه	-11.0676
▁الاموال	-11.0677
يحتل	-11.0677
▁ستيفن	-11.0677
▁الركاب	-11.0678
▁لاجراء	-11.0678
▁التوازن	-11.0678
لول	-11.0678
▁باطلاق	-11.0678
▁الغلاف	-11.0679
▁للمجتمع	-11.0679
▁1381	-11.068
▁كام	-11.068
▁صدام	-11.068
▁الاختيار	-11.0681
▁قرص	-11.0681
مواكبة	-11.0682
▁العقيل	-11.0682
▁الدلم	-11.0683
▁زواج	-11.0683
ies	-11.0684
▁الجمع	-11.0684
▁كرييس	-11.0684
فضي	-11.0684
align	-11.0686
▁المهاجرين	-11.069
▁الشيعي	-11.0691
▁صلب	-11.0692
▁سلوك	-11.0692
▁كوي	-11.0692
▁مورخو	-11.0694
▁للمستخدمين	-11.0697
▁الطيف	-11.0698
تقنيات	-11.0706
ليسانس	-11.0706
▁لكتاب	-11.0708
▁اسلام	-11.0712
▁مبلغ	-11.0713
▁الارصاد	-11.0714
▁العبيد	-11.0715
▁وياتي	-11.0716
رور	-11.0717
▁يخدم	-11.0717
▁الوان	-11.0719
لمس	-11.0719
اسس	-11.0722
▁اختبارات	-11.0729
▁مناسب	-11.0729
▁العوامل	-11.073
▁يدخل	-11.0735
▁الرفاعي	-11.0736
▁شوال	-11.0736
تكنولوجيا	-11.0736
▁لوصف	-11.0741
▁Ch	-11.0742
▁(17	-11.0749
▁المتبقي	-11.0751
▁البروتوكول	-11.0752
▁الجبهة	-11.0754
مسوول	-11.0756
ساحات	-11.0756
▁الجوهرة	-11.0759
▁الورقية	-11.076
▁ظهران	-11.0763
▁النموذجية	-11.0764
يشغل	-11.0765
▁للخط	-11.0765
ستوطن	-11.0765
▁مشاهير	-11.0767
منافسة	-11.0768
▁النمساوي	-11.0771
▁واحمد	-11.0772
▁فاين	-11.0773
▁باكو	-11.0773
▁Le	-11.0776
▁الاحصاييات	-11.0776
▁وقري	-11.0776
▁جندي	-11.078
نتايج	-11.0785
قلب	-11.0788
▁وانت	-11.079
▁الساحلية	-11.0793
oo	-11.0794
▁فيرجينيا	-11.0798
حرم	-11.08
▁الدرع	-11.0805
▁كيلا	-11.0805
نصب	-11.0813
مصحف	-11.0814
المملكة	-11.0817
▁قياسي	-11.0817
▁شع	-11.0818
تقني	-11.0819
▁خدماتها	-11.0822
دلي	-11.0823
▁سلا	-11.0823
▁السراة	-11.0824
▁العدو	-11.0824
▁الزاوية	-11.0827
▁المتقدم	-11.0827
▁السمات	-11.0829
▁البيض	-11.0831
▁انجازاته	-11.0832
▁وكما	-11.0833
قلاع	-11.0833
ارتفاع	-11.0835
وكل	-11.0837
مسوولية	-11.084
العاب	-11.0843
▁غيني	-11.0844
سعودي	-11.0844
▁مكتبات	-11.0844
حزم	-11.0848
▁الدمج	-11.085
▁<	-11.0852
وشاح	-11.0852
صاص	-11.0853
▁توضيح	-11.0854
▁وعمان	-11.0856
حياة	-11.0857
▁وقرا	-11.0858
بعث	-11.0859
▁الجزايري	-11.0859
حماية	-11.086
▁هايل	-11.0861
▁ميك	-11.0866
تخصيص	-11.087
تزويد	-11.087
تكساس	-11.0871
نيويورك	-11.0871
▁متابعة	-11.0874
con	-11.0879
▁تغلب	-11.0879
اندرو	-11.088
▁اظهرت	-11.0881
ثقب	-11.0881
▁كتل	-11.0883
▁يدل	-11.0888
▁رسام	-11.0889
قدس	-11.0889
حارة	-11.0892
▁سند	-11.0896
▁الحلي	-11.0898
▁الاستوايية	-11.0901
▁البضايع	-11.0901
▁سامسونج	-11.0901
▁الاحتفال	-11.0901
▁الاوقاف	-11.0901
▁وتخزين	-11.0901
رطوبة	-11.0901
▁شيوعا	-11.0901
انتظار	-11.0901
▁السوداء	-11.0901
▁للفضاء	-11.0901
▁لطلاب	-11.0901
بتعث	-11.0901
▁للانتاج	-11.0901
▁دييغو	-11.0901
▁المتجددة	-11.0901
▁الهيدروجين	-11.0901
▁البيطري	-11.0901
▁الاغاني	-11.0901
▁رفيع	-11.0901
▁خيبر	-11.0901
▁الحداثة	-11.0903
▁الرسايل	-11.0903
جاذب	-11.0904
▁الجاسر	-11.0905
▁التشخيص	-11.0906
▁الشديد	-11.0906
ترويج	-11.0907
▁اليدوية	-11.0907
▁الصليب	-11.0907
▁انتهي	-11.0908
لوادي	-11.0909
استجابة	-11.091
▁اطلال	-11.091
SC	-11.0911
▁بقدر	-11.0914
▁نصيب	-11.0917
▁الخن	-11.0919
▁يحقق	-11.092
▁مزيج	-11.0921
▁دام	-11.0922
▁عادت	-11.0924
▁الفطرية	-11.0925
▁2025	-11.0927
▁الفعل	-11.0928
▁التشفير	-11.0931
▁مسطح	-11.0932
لتحق	-11.0933
▁والسياسية	-11.0935
ite	-11.0936
▁القبة	-11.0936
مساعد	-11.0936
▁المعدل	-11.0936
تاخر	-11.0937
▁رسامون	-11.0937
▁برن	-11.0938
▁قلم	-11.094
ah	-11.0941
▁المسلمون	-11.0942
▁وتمثل	-11.0943
بشكل	-11.0943
حمل	-11.0945
▁المقاومة	-11.0945
▁للقطاع	-11.0946
نفاذ	-11.0946
▁الانحراف	-11.0946
▁خارجي	-11.0948
▁المتحدث	-11.0949
ليكس	-11.0952
▁انتشر	-11.0952
▁موريتاني	-11.0955
tra	-11.0956
▁الرطب	-11.0957
▁سينما	-11.0958
▁مريم	-11.0961
▁باللون	-11.0962
▁اسلاميون	-11.0962
▁انشاوها	-11.0964
▁باز	-11.0965
سبق	-11.0965
▁يصف	-11.0966
▁المنصة	-11.0967
▁فعال	-11.0968
بدء	-11.097
ضاء	-11.0975
▁زب	-11.0975
معالج	-11.0975
وهي	-11.0975
▁بعمر	-11.0976
▁وموقع	-11.0981
غيل	-11.0982
▁حمض	-11.0984
▁منشاة	-11.0984
▁اراضيها	-11.0989
▁قيس	-11.0991
صادرات	-11.0991
غيز	-11.0991
نبرغ	-11.0992
▁يوغوسلافي	-11.1
▁الشعار	-11.1001
▁بقوة	-11.1002
▁الرجاء	-11.1004
▁انصار	-11.1004
SS	-11.1006
▁القاعة	-11.1008
▁شديد	-11.101
▁محلي	-11.1014
▁2.5	-11.1017
▁التنظيمية	-11.1018
▁اللغوية	-11.1018
▁الكندي	-11.1018
▁مقسمة	-11.1019
▁الفحص	-11.1019
▁المشهورة	-11.1021
▁الحمد	-11.1022
وجهات	-11.1024
كلاهما	-11.1025
▁اعتقاله	-11.1027
▁البعث	-11.1027
▁سوفيت	-11.1029
كلور	-11.103
800	-11.1032
our	-11.1038
▁النبطية	-11.1041
دوار	-11.1043
▁ساق	-11.1044
▁بالخط	-11.1047
▁تواصل	-11.1052
▁الحمي	-11.1053
▁النفسية	-11.1059
▁مطور	-11.1059
▁دراستها	-11.1059
▁يرد	-11.1066
ian	-11.1069
▁الاموي	-11.1073
▁43	-11.1073
ضلع	-11.1074
▁مرسي	-11.108
▁بوضع	-11.1084
▁اكرا	-11.1086
الاتحاد	-11.1087
GP	-11.1093
▁صن	-11.1098
▁دعاة	-11.1098
▁تدريبية	-11.1101
2013	-11.1102
جبال	-11.1102
رخيص	-11.1106
▁سنا	-11.1107
استخراج	-11.1108
اللغات	-11.1109
▁لجان	-11.1116
تشرف	-11.1117
حجارة	-11.1117
▁توب	-11.1119
▁السويدية	-11.112
حارس	-11.1121
لانضمام	-11.1121
لاحداث	-11.1125
▁كاميرا	-11.1127
وفر	-11.1128
▁عمال	-11.1128
▁منحة	-11.1128
▁المهنة	-11.1128
حاليا	-11.1129
▁باول	-11.1132
▁ملحوظ	-11.1133
▁والثالث	-11.1133
اعتدال	-11.1133
▁العظام	-11.1133
▁دارمشتات	-11.1133
▁المفترض	-11.1133
بكتيريا	-11.1133
▁العمومية	-11.1133
▁باماكو	-11.1133
▁السفينة	-11.1133
▁وتدريب	-11.1133
▁الصفحات	-11.1133
▁غامد	-11.1133
▁توطين	-11.1133
▁يمنح	-11.1133
▁واكمل	-11.1133
▁والابداع	-11.1134
▁بتصميم	-11.1134
▁University	-11.1134
▁للقران	-11.1134
▁بتدريس	-11.1134
▁اجازة	-11.1134
▁المحمدية	-11.1134
▁الاسطول	-11.1134
▁لاسلكي	-11.1134
▁الشافعي	-11.1135
▁للاشارة	-11.1135
▁اخضر	-11.1135
▁الاحوال	-11.1135
▁صادق	-11.1135
▁الحاصل	-11.1135
▁فعالية	-11.1136
حكاية	-11.1136
▁الزرقاء	-11.1136
▁البديل	-11.1137
▁والنقد	-11.1137
▁شقراء	-11.1137
▁1933	-11.1138
▁النوادي	-11.1139
▁اسطول	-11.1139
▁1375	-11.1141
قواعد	-11.1142
▁ازمة	-11.1142
▁كاستاذ	-11.1143
▁معدلات	-11.1144
▁الغاط	-11.1145
▁دلال	-11.1145
▁الحروف	-11.1147
ook	-11.1148
بشر	-11.1148
2001	-11.115
▁الاثل	-11.115
▁ومدرب	-11.115
▁العروس	-11.1154
▁اصيب	-11.1155
▁يستعمل	-11.1158
▁بالفعل	-11.1161
واصلة	-11.1161
تعهد	-11.1165
▁السلبي	-11.1166
ترجمات	-11.1168
رحلات	-11.1168
معاناة	-11.1169
▁صقر	-11.1171
▁الوظيفة	-11.1175
▁(2)	-11.1175
لدرجة	-11.1177
Uni	-11.1181
▁وليبيا	-11.1181
▁ينظم	-11.1182
per	-11.1182
▁الفخرية	-11.1187
▁المحاكم	-11.1188
▁يضع	-11.1188
▁الكاميرا	-11.119
جاع	-11.1192
▁صناعات	-11.1193
▁المفاهيم	-11.1194
▁ميجا	-11.1194
▁واعداد	-11.1197
▁بالاشتراك	-11.12
▁مفتاح	-11.12
▁المحرق	-11.1203
▁كرد	-11.1203
لبنان	-11.1205
سرع	-11.1207
▁ينب	-11.1207
اتصالات	-11.121
▁اللاسلكية	-11.1211
▁المخصصة	-11.1211
غادر	-11.1211
▁الرمز	-11.1212
عهد	-11.1213
▁الاذاعية	-11.1214
▁الصحيفة	-11.1216
▁دفن	-11.1216
▁ادان	-11.1216
▁جاف	-11.1218
احدث	-11.122
▁نظمت	-11.1222
▁المساعدات	-11.1222
▁ايمان	-11.1228
▁العشوايية	-11.1229
بنين	-11.1229
▁تنفيذيون	-11.1231
▁جزيي	-11.1234
▁الاوسمة	-11.1234
غتر	-11.1234
▁المنت	-11.1234
عثر	-11.1239
5)	-11.1243
▁مناصبه	-11.1247
ثبات	-11.1248
▁وورش	-11.1249
▁والمنطقة	-11.125
تتبع	-11.1251
▁واخراج	-11.1251
▁معلوماتية	-11.1262
▁اللاعبون	-11.1264
▁وقتل	-11.1265
▁البترولية	-11.1269
SD	-11.1271
امتحانات	-11.1271
▁موشرات	-11.1271
▁قضي	-11.1272
▁تحقق	-11.1274
▁تلبي	-11.1275
▁طه	-11.1275
ED	-11.1275
تغطي	-11.1278
▁فس	-11.1282
▁جزييا	-11.1284
عشب	-11.1285
▁نهج	-11.1286
روك	-11.1288
معرفة	-11.1289
▁يشرف	-11.1289
مكثف	-11.129
▁مدينتي	-11.1291
▁ورجل	-11.1293
▁منفصلة	-11.1297
▁حولها	-11.1298
▁ومشروع	-11.1299
SE	-11.13
son	-11.1301
ينج	-11.1302
▁نشاطه	-11.1302
▁هاي	-11.1303
لبحوث	-11.1305
▁شبيه	-11.1306
خبز	-11.1311
لفترة	-11.1312
▁سهم	-11.1313
▁السيدة	-11.132
▁وحي	-11.132
يمتد	-11.1322
▁تجديد	-11.1323
▁كيم	-11.1324
تشغيل	-11.1324
حامل	-11.1327
توفي	-11.1328
لمعرفة	-11.1331
▁روسي	-11.1331
▁ومساعد	-11.1336
▁حمي	-11.1343
▁المفاعل	-11.1346
تسعة	-11.1346
▁لحل	-11.1348
▁اديب	-11.1352
▁الكمية	-11.1352
▁جونز	-11.1355
بسبب	-11.1355
ماليزيا	-11.1358
▁نفذت	-11.1358
يتضمن	-11.1358
▁واذا	-11.1359
▁قاضي	-11.1359
▁المحور	-11.1362
لتعريف	-11.1362
1997	-11.1362
مفاوضات	-11.1371
▁التسعينات	-11.1371
▁المزدوج	-11.1371
▁تسويق	-11.1371
▁بمجال	-11.1372
▁مالطا	-11.1372
▁مفوض	-11.1372
▁شاكر	-11.1372
▁بحجم	-11.1372
فلاسفة	-11.1372
▁يخرج	-11.1372
▁DCT	-11.1372
▁وواحد	-11.1372
▁الفعال	-11.1373
▁المواشي	-11.1373
▁وتصميم	-11.1374
▁سياسات	-11.1375
▁ضعف	-11.1375
▁الموازي	-11.1375
حصاة	-11.1375
▁الادخال	-11.1376
▁1437	-11.1376
▁النهار	-11.1377
▁والتسويق	-11.1377
▁1373	-11.1378
▁1398	-11.1378
▁1382	-11.1379
▁الحصر	-11.138
انسجة	-11.138
▁العاص	-11.1381
تحيز	-11.1382
▁للفنان	-11.1382
▁المرسل	-11.1382
▁حاجة	-11.1386
▁السماح	-11.1387
▁انتل	-11.1388
▁يتناول	-11.1388
▁رمي	-11.1388
▁غياب	-11.1389
▁نرويجيون	-11.1391
▁جهاد	-11.1396
▁اثبت	-11.1399
▁المساهمين	-11.1399
▁وجدة	-11.1401
▁الستينيات	-11.1402
1995	-11.1402
▁المواضيع	-11.1405
▁وكيلا	-11.1407
▁الفضل	-11.141
دونالد	-11.141
نبات	-11.1411
▁النتيجة	-11.1413
▁الكلمات	-11.1413
اهمية	-11.1414
اسيا	-11.1414
▁ادارتها	-11.1415
مادة	-11.1417
▁الممارسات	-11.1421
▁النسخ	-11.1424
▁العلامات	-11.1426
▁المسوولين	-11.1429
▁مشاركات	-11.1429
ديس	-11.1429
▁لوكالة	-11.1429
▁الرموز	-11.1432
اديب	-11.1432
▁يقف	-11.1433
▁التجزية	-11.1433
▁ذكية	-11.1438
▁متميز	-11.144
mi	-11.1442
▁اولمبية	-11.1442
▁كوك	-11.1443
ذيب	-11.1443
▁السايد	-11.1444
▁التقاعد	-11.1445
▁واليابان	-11.1445
▁مورد	-11.1445
▁والجزاير	-11.1448
ثمانين	-11.1448
▁الفارسية	-11.1449
بقية	-11.145
احرار	-11.1451
▁الاصابة	-11.1451
مهارة	-11.1454
▁عصا	-11.1454
توجه	-11.1455
▁غلي	-11.1458
▁سبت	-11.1458
▁كاب	-11.1459
▁عازف	-11.1461
شارة	-11.1463
▁المنخفضة	-11.1463
مياة	-11.1465
▁اغتيال	-11.1466
▁الامل	-11.1467
معهد	-11.147
▁الروبوتات	-11.1471
▁وتشجيع	-11.1472
خليج	-11.1482
جوف	-11.1484
▁سياق	-11.1484
▁تبديل	-11.1485
ساح	-11.1486
▁القصص	-11.1486
شاب	-11.1487
▁المشاعر	-11.1488
▁الكتل	-11.1489
راوي	-11.149
▁واكبر	-11.1493
▁حماد	-11.1494
ستير	-11.1495
▁الشرعي	-11.1497
▁تموز	-11.1498
▁ومعهد	-11.1498
قضي	-11.1498
▁ماهر	-11.1499
▁الفايزين	-11.1505
lin	-11.1506
▁براغ	-11.1507
▁المشهور	-11.1507
حادث	-11.1512
حفر	-11.1513
▁لوب	-11.1514
بكالوريوس	-11.1515
بقاء	-11.1516
▁فوزه	-11.1517
▁النبطي	-11.1517
1993	-11.1518
ترتيب	-11.1518
بدو	-11.1518
▁عماد	-11.1518
اطباء	-11.152
▁الافتراضية	-11.1523
▁فايق	-11.1523
ربوع	-11.1524
سنوات	-11.1524
▁وانما	-11.1525
▁فلسطينية	-11.1531
استشاري	-11.1533
احكام	-11.1536
جبهة	-11.1537
ck	-11.1537
▁كوت	-11.1537
▁اندونيسي	-11.1543
▁دواير	-11.1545
▁قبول	-11.1549
اعضاء	-11.155
ess	-11.1551
▁والمركز	-11.1555
▁وثايقية	-11.1557
▁المار	-11.1558
▁بفضل	-11.1561
▁المختص	-11.1562
▁كهربايي	-11.1563
فريد	-11.1563
حقيقة	-11.1571
▁محاكاة	-11.1572
اوعية	-11.1575
est	-11.1576
▁التراب	-11.158
▁التقي	-11.1587
▁وابو	-11.1589
‌	-11.1594
لبرامج	-11.1595
قانون	-11.16
تتضمن	-11.1608
لابطال	-11.161
▁المصرف	-11.1614
▁البسيطة	-11.1615
▁امستردام	-11.1615
▁حنيفة	-11.1615
▁احتياطي	-11.1615
▁المظالم	-11.1615
right	-11.1615
▁والترفيه	-11.1615
▁وامريكا	-11.1615
▁عايشة	-11.1615
▁هامبورغ	-11.1615
عقوبات	-11.1615
▁واصدار	-11.1615
اثنان	-11.1616
اضطرابات	-11.1616
▁اسهامات	-11.1616
داعش	-11.1616
▁الاوقات	-11.1616
▁ضيوف	-11.1616
اخصايي	-11.1616
▁تفاح	-11.1616
▁وحقوق	-11.1616
استكمال	-11.1616
▁تتخذ	-11.1616
▁المنتشرة	-11.1616
▁والعلمية	-11.1616
طموح	-11.1616
▁الباردة	-11.1616
▁والانتاج	-11.1616
▁واجهات	-11.1617
▁قفز	-11.1617
صداقة	-11.1617
▁متوفرة	-11.1618
فصايل	-11.1619
che	-11.162
▁1433	-11.162
▁اتجه	-11.1621
ستوعب	-11.1621
هدد	-11.1621
▁املج	-11.1622
▁1387	-11.1622
▁ومناطق	-11.1623
▁رابع	-11.1624
▁الحضارة	-11.1624
▁انقرة	-11.1625
حور	-11.1628
▁المنكر	-11.163
▁شرا	-11.163
▁للكويت	-11.1631
▁وراس	-11.1631
▁اقوي	-11.1633
▁مخاطر	-11.1634
▁تصحيح	-11.1634
▁والعشرون	-11.1635
▁النشاطات	-11.1639
زوايا	-11.164
▁لثلاث	-11.1642
bi	-11.1642
عيوب	-11.1643
▁واطلق	-11.1645
cy	-11.1645
▁مروان	-11.1646
▁المتميز	-11.1647
▁المقيمين	-11.1649
▁الشطرنج	-11.1651
▁والخارج	-11.1653
▁التفاصيل	-11.1654
-11	-11.1655
▁الاضاءة	-11.1656
▁صوتية	-11.1656
▁اليهود	-11.1656
▁بتونس	-11.166
▁انتحار	-11.1666
▁سمع	-11.1666
▁الفساد	-11.1666
مقاس	-11.1668
النهي	-11.1669
▁العقود	-11.167
تشكل	-11.1675
▁الحارثي	-11.1676
▁وجامع	-11.1676
▁بمرض	-11.1679
▁اليونسكو	-11.1686
▁والميدان	-11.1686
▁امتياز	-11.1688
▁وشهادة	-11.1688
تشارك	-11.1688
▁بعيدا	-11.1688
▁كاحد	-11.1688
اتاحة	-11.169
▁الجافة	-11.1691
توسعة	-11.1691
700	-11.1693
▁والصرف	-11.1695
▁الثابتة	-11.1697
▁والكتب	-11.1698
▁التغييرات	-11.1699
▁البرلمانية	-11.1701
▁بدو	-11.1701
▁ماستر	-11.1701
IA	-11.1704
▁وتقييم	-11.1705
▁الاغراض	-11.1716
▁الشجرة	-11.1716
▁واقام	-11.1718
▁ووصل	-11.1721
DE	-11.1727
▁مميزات	-11.1728
▁الصعب	-11.1733
▁وقدمت	-11.1737
▁اللغوي	-11.1738
▁الغذايي	-11.1738
▁وعاش	-11.174
▁شمسية	-11.1741
CI	-11.1744
AF	-11.1744
استشارات	-11.1745
اجتماع	-11.1745
Sp	-11.1751
منظمات	-11.1751
▁وبرنامج	-11.1752
▁معلق	-11.1752
▁مطورة	-11.1754
0.000	-11.1756
▁قلبية	-11.1759
▁شاهد	-11.176
▁المعتمد	-11.1761
▁قصايده	-11.1764
▁وحيد	-11.1765
▁موظفو	-11.1769
بروتوكول	-11.177
ضغط	-11.177
▁84	-11.177
اختلاف	-11.177
الموافق	-11.1771
رسالة	-11.1772
احرز	-11.1773
ov	-11.1774
1994	-11.1782
▁والمر	-11.1783
ستاند	-11.1787
▁مشاهد	-11.1787
net	-11.1796
سيف	-11.1801
▁جال	-11.1804
▁خريجي	-11.1804
▁والمدير	-11.1807
▁مفاهيم	-11.1807
▁العاشرة	-11.1809
▁77	-11.181
▁اشار	-11.1811
وود	-11.1813
نسخة	-11.1813
تراكم	-11.1813
▁موضوعات	-11.1816
دسة	-11.1816
▁نجح	-11.1818
جزييات	-11.1818
▁مقسم	-11.1818
▁بارزة	-11.182
ساهمت	-11.1822
مرض	-11.1822
▁روز	-11.1822
محكمة	-11.1823
▁مهنية	-11.1823
▁مطر	-11.1824
بيض	-11.1829
▁منسوب	-11.1832
▁وكاتبات	-11.1833
▁المستهلك	-11.1834
وسوف	-11.1837
DR	-11.1839
كارد	-11.1842
▁الاستثمارية	-11.1842
▁(9	-11.1843
تمتع	-11.1848
اسراييل	-11.1856
▁تنص	-11.1858
ستكشف	-11.1858
q	-11.1864
ساق	-11.1864
▁بتنظيم	-11.1865
▁والفرنسية	-11.1865
▁وتصنيع	-11.1865
▁يعقوب	-11.1865
т	-11.1865
▁لتدريب	-11.1865
▁تحميل	-11.1865
▁بروكسل	-11.1865
▁الطابع	-11.1865
▁لحساب	-11.1865
▁الازرق	-11.1865
▁نهيان	-11.1866
▁اكمال	-11.1866
▁القفز	-11.1866
▁السبعينات	-11.1866
▁ازياء	-11.1866
▁زبيدة	-11.1866
▁البرمجية	-11.1866
▁مذكرة	-11.1866
▁وجيزة	-11.1866
▁الشريط	-11.1867
▁مهران	-11.1867
نتصر	-11.1867
▁بخش	-11.1867
▁المقالة	-11.1867
▁رابغ	-11.1867
ید	-11.1868
▁المواهب	-11.1868
▁حدة	-11.1868
▁الليث	-11.187
وغلاس	-11.187
▁اضطر	-11.1873
▁القصور	-11.1875
اخراج	-11.1875
ممثل	-11.1875
▁{	-11.1876
▁المدرج	-11.1876
▁العنصر	-11.1876
▁واعمال	-11.1878
تشريح	-11.1878
▁دكا	-11.188
▁‌	-11.1881
▁اسباب	-11.1881
▁الحروب	-11.1882
▁ارشاد	-11.1883
مجهزة	-11.1886
▁ابنايه	-11.1886
▁التلال	-11.1889
بوابات	-11.189
حزن	-11.1891
قنبلة	-11.1894
▁للمعايير	-11.1894
▁بمعني	-11.1896
▁تشرف	-11.1897
▁تكنولوجي	-11.1897
▁محاضر	-11.1897
▁ولذلك	-11.1899
▁معبد	-11.1899
▁للرييس	-11.1902
▁تعادل	-11.1904
▁بعيد	-11.1905
تسرب	-11.1905
▁52	-11.1908
كسوف	-11.1909
سابقا	-11.191
مطبعة	-11.191
▁ينقسم	-11.1913
▁اوقات	-11.1913
وفرة	-11.1913
▁النقش	-11.1914
تاثير	-11.1915
▁لتكنولوجيا	-11.1916
▁الحوادث	-11.1917
غرام	-11.1919
▁عمرها	-11.1923
يعتقد	-11.1923
ستار	-11.1926
▁مختصر	-11.1926
▁البخاري	-11.1927
▁الاخطاء	-11.193
اللحم	-11.1931
تطلع	-11.1933
ou	-11.1936
rom	-11.1937
اكبر	-11.1938
▁لمنع	-11.1938
توقيت	-11.1943
▁يمنية	-11.1946
ord	-11.1946
ذيل	-11.1948
▁مهتم	-11.195
▁للامير	-11.195
▁عراقية	-11.1955
▁170	-11.1958
▁شكلت	-11.1958
مالك	-11.196
▁واشار	-11.1962
لاتيني	-11.1963
▁الباحثون	-11.1965
▁تشفير	-11.1966
▁الاندونيسية	-11.1968
▁مسيرتها	-11.1972
▁القز	-11.1973
شترك	-11.1975
▁الفرا	-11.1978
▁المقارن	-11.1981
شخصية	-11.1981
▁باحد	-11.1983
▁وتاثير	-11.1985
لرياضة	-11.1985
▁فرعي	-11.1987
ip	-11.1987
▁التفسير	-11.1991
▁تطل	-11.1992
▁محاضرة	-11.1993
▁الوظيفي	-11.1994
▁الفرص	-11.1994
▁معمر	-11.1995
▁المختصة	-11.1995
▁والاجتماعي	-11.1995
▁المسيحي	-11.1997
▁الاوايل	-11.1998
▁العصبي	-11.2002
▁المهن	-11.2003
▁شديدة	-11.2005
▁الجريدة	-11.2005
معروض	-11.2006
شبك	-11.2008
▁سلال	-11.2015
▁ومقدم	-11.2019
▁الحمام	-11.2021
▁التاهل	-11.2022
▁اجمالية	-11.2025
▁مجموعه	-11.2032
▁موظفا	-11.2032
شكر	-11.2037
▁للمدينة	-11.2037
▁الجزييية	-11.2038
▁الامثل	-11.2039
سول	-11.204
▁المراقب	-11.2041
زارع	-11.2045
▁كنت	-11.205
▁انتاجها	-11.2054
▁الاعلانات	-11.2056
ذاكرة	-11.2058
تجميع	-11.2063
ثروة	-11.2068
▁مواقف	-11.2069
▁حسني	-11.2071
▁العرق	-11.2071
▁العارض	-11.2073
▁مضادة	-11.2074
▁ضبط	-11.2075
▁الحاكم	-11.2076
▁الدنا	-11.2078
▁ابان	-11.2079
▁قانوني	-11.2084
جرام	-11.2085
▁المستقبلية	-11.2085
▁فجر	-11.2088
قطار	-11.2089
▁حجة	-11.2089
▁وحر	-11.2095
قوش	-11.2098
▁السمع	-11.2101
حشرات	-11.2103
تناول	-11.2103
▁ارهاب	-11.2104
مقارنة	-11.2104
سمك	-11.211
▁وقيل	-11.2112
بيس	-11.2114
جدول	-11.2115
▁كاثوليك	-11.2122
▁التشريعي	-11.2122
▁برونزية	-11.2122
▁الروابط	-11.2122
▁بالطايف	-11.2122
▁لعلاج	-11.2122
▁اكتسب	-11.2122
▁والبناء	-11.2122
▁طاقته	-11.2122
▁القمح	-11.2122
▁والموتمرات	-11.2122
▁رمال	-11.2122
▁النمط	-11.2123
▁خيول	-11.2123
حكايات	-11.2123
▁العميق	-11.2123
▁الماشية	-11.2123
▁يتوسط	-11.2123
▁فواز	-11.2124
▁تكرار	-11.2124
▁طويق	-11.2124
▁الصديق	-11.2124
▁مفتي	-11.2125
▁الوداد	-11.2125
▁1439	-11.2126
▁خزان	-11.2126
واجهات	-11.2126
▁الكهربايي	-11.2126
كفاءات	-11.2127
▁شبيب	-11.2128
▁1918	-11.2128
▁التمييز	-11.2128
اندونيسيا	-11.2128
غض	-11.2129
▁ضب	-11.2129
▁الجابر	-11.2129
▁1393	-11.2129
▁والبرماييات	-11.2129
▁جغرافية	-11.213
▁منحوت	-11.2131
▁للتطوير	-11.2131
▁الرمل	-11.2132
▁اصفر	-11.2132
▁للمواطنين	-11.2132
▁ويقدم	-11.2136
جعل	-11.2138
▁ومنح	-11.2138
▁اندماج	-11.2138
▁حروب	-11.2139
بشير	-11.2143
▁الستة	-11.2144
تدوين	-11.2145
▁يساهم	-11.2146
ru	-11.2146
خفض	-11.2147
ase	-11.215
▁للبرنامج	-11.2152
▁الميت	-11.2152
▁فريدة	-11.2154
▁Con	-11.2157
ركوب	-11.2157
▁لوزير	-11.2159
استعادة	-11.216
نتقل	-11.2161
▁مرخص	-11.2162
log	-11.2164
▁كابل	-11.2164
تكلف	-11.2164
قلق	-11.2166
▁يصدر	-11.2167
▁نوعية	-11.2168
▁سكني	-11.2169
▁بادية	-11.217
لوجست	-11.217
▁الاستدلال	-11.2174
فيزيايي	-11.2177
▁بوليفيا	-11.2178
4)	-11.2179
▁بريم	-11.2181
▁لنشر	-11.2182
▁بالذكر	-11.2182
▁وتبادل	-11.2183
▁والادارية	-11.2184
▁الخطر	-11.2184
101	-11.2185
▁ممتاز	-11.2187
▁وارتفاع	-11.2187
▁انسحب	-11.2191
▁لحم	-11.2192
ابن	-11.2192
▁يطلب	-11.2193
▁يوني	-11.2195
▁علام	-11.2197
▁الاضافية	-11.2197
AA	-11.2199
ER	-11.22
خيارات	-11.2201
▁تثليث	-11.2202
▁المعجم	-11.2202
▁اخرون	-11.2204
▁القضية	-11.2205
مستودعات	-11.2208
ff	-11.2209
▁السباحة	-11.2209
▁السعد	-11.221
لعايلات	-11.221
▁شتي	-11.221
Pa	-11.2211
▁الخلوي	-11.2215
▁الاحكام	-11.2217
▁الاكل	-11.2217
▁الزيتون	-11.2219
▁مشابهة	-11.2221
▁المميز	-11.2222
▁المصنف	-11.2223
تصفح	-11.2224
▁كهرباء	-11.2225
▁للطب	-11.2225
▁الاصوات	-11.2225
ome	-11.2227
▁الناطق	-11.223
شيح	-11.223
▁سيول	-11.2231
US	-11.2231
Mar	-11.2233
▁والمعروفة	-11.2236
▁اوقف	-11.2239
▁الكنيسة	-11.224
مبتكرة	-11.2242
▁هرم	-11.2242
▁مركب	-11.2244
خصوص	-11.2247
▁الديني	-11.2247
▁البروتينات	-11.2256
▁الحيوانية	-11.2257
تحرير	-11.2262
▁سيدة	-11.2265
ورش	-11.2268
▁لاغراض	-11.227
▁كعب	-11.2271
رينو	-11.2272
▁واسيا	-11.2275
▁بوك	-11.2284
واط	-11.2286
▁دوار	-11.2288
▁شمر	-11.2291
▁الادلة	-11.2292
الاردن	-11.2292
▁ومخرج	-11.2296
▁وثايقي	-11.2297
غناء	-11.23
▁اليوناني	-11.23
▁نادرة	-11.2303
اجمالي	-11.2304
▁وتطبيق	-11.2305
مساندة	-11.2306
ضوء	-11.2306
سعادة	-11.2311
▁انشاوه	-11.2315
▁صوتي	-11.2316
▁بروس	-11.2317
ساو	-11.2318
كف	-11.2319
CP	-11.2322
▁ملاحظة	-11.2322
وسام	-11.2323
درك	-11.2323
▁سيدي	-11.2326
▁جواز	-11.2327
▁معارضة	-11.2328
ربيع	-11.2331
▁القرين	-11.2336
حوض	-11.2337
تيري	-11.2338
▁مليارات	-11.2338
▁تقاعد	-11.2341
▁اعطاء	-11.2343
غالب	-11.2343
روحي	-11.2344
اصابة	-11.2345
▁تعز	-11.2355
▁الاستخدامات	-11.236
حث	-11.2361
▁(22	-11.2363
رغب	-11.2378
▁التشغيلية	-11.238
▁Ho	-11.2382
▁مستخدمي	-11.2382
الهيية	-11.2384
ذبذب	-11.2385
▁Science	-11.2385
▁جيبوتي	-11.2385
▁التمهيدي	-11.2385
▁الصفاقسي	-11.2385
▁باكمله	-11.2385
▁حواسيب	-11.2385
▁مجددا	-11.2385
▁الاصناف	-11.2385
▁مكتوب	-11.2385
▁المبادرات	-11.2385
▁الاسياح	-11.2385
استقطاب	-11.2385
▁الزلفي	-11.2385
▁المهتمين	-11.2385
▁المعاملات	-11.2385
▁ايرادات	-11.2385
▁خفيف	-11.2385
▁الواضح	-11.2385
▁المشكلات	-11.2385
▁احمر	-11.2385
▁المناعة	-11.2386
▁المشكلة	-11.2386
▁الجيزة	-11.2386
/12/	-11.2386
▁ومنتجات	-11.2386
▁خليط	-11.2387
▁لتلبي	-11.2387
▁الفايقة	-11.2387
▁والطيران	-11.2388
▁المتوفرة	-11.2388
▁والمعاهد	-11.2388
▁الاحتياجات	-11.2388
▁بشدة	-11.2388
▁الاتراك	-11.2389
▁المشاة	-11.2389
▁رسول	-11.2389
▁المالكة	-11.2389
تدوير	-11.239
▁خفض	-11.2391
▁الاسلوب	-11.2391
▁الصربي	-11.2391
انخفاض	-11.2391
ادق	-11.2391
▁1394	-11.2392
▁موجة	-11.2392
سنغافورة	-11.2392
[	-11.2393
لوف	-11.2393
ارامكو	-11.2393
ابراهيم	-11.2394
اسيوط	-11.2396
▁الفاصل	-11.2396
▁حاد	-11.2396
▁الحبيب	-11.2397
▁للاحصاء	-11.2397
لارقام	-11.2397
▁ردود	-11.2398
▁والمعارض	-11.2398
DC	-11.24
▁الاصغر	-11.24
كبر	-11.2401
▁واستقر	-11.2402
▁للاست	-11.2403
▁واثار	-11.2405
▁سكاي	-11.2407
▁للاقتصاد	-11.241
▁جيجا	-11.2411
مراعا	-11.2411
▁علاو	-11.2412
▁واسس	-11.2412
▁ويرجع	-11.2413
انهيار	-11.2415
انثي	-11.2418
امارة	-11.2421
▁لموقع	-11.2421
▁القس	-11.2421
▁ينحدر	-11.2422
▁بوصفه	-11.2424
▁الحلقات	-11.2425
▁الفوزان	-11.2426
▁الجنسين	-11.2427
▁والاكاديمية	-11.2428
2018	-11.2428
▁استغلال	-11.243
▁تقلد	-11.243
▁ويمثل	-11.2432
▁جنو	-11.2432
تعبية	-11.2434
▁الطاولة	-11.2435
▁الاستحواذ	-11.2437
▁المنح	-11.2437
▁ابداع	-11.2437
▁الكوميدي	-11.2439
▁المحاصيل	-11.244
▁يمتاز	-11.2441
باشر	-11.2442
عاش	-11.2442
der	-11.2443
كعب	-11.2444
▁النسيج	-11.2445
▁سقط	-11.2447
معادلة	-11.2448
▁قيادي	-11.2449
▁اليونانية	-11.2454
▁وتصل	-11.2454
▁بخط	-11.2454
▁الارجنتيني	-11.2455
ريال	-11.2459
▁المناسب	-11.2459
▁يهتم	-11.2459
▁ذهاب	-11.2467
▁البكر	-11.247
▁ينتشر	-11.2471
▁الخمسة	-11.2474
دليل	-11.2476
▁5000	-11.2477
حصون	-11.2479
▁عما	-11.2481
▁متصلة	-11.2484
▁ولاعب	-11.2486
▁صناع	-11.2487
▁افتراضية	-11.2487
▁اهلها	-11.249
▁اماراتي	-11.2491
ابلاغ	-11.2494
▁اللذ	-11.2494
اقتصاد	-11.2496
▁الميزات	-11.2498
▁140	-11.2503
▁رحمه	-11.2504
▁شريك	-11.2504
▁مسلحة	-11.2504
▁عباسية	-11.2505
لوس	-11.2509
▁المهرجانات	-11.2509
▁نباتي	-11.2513
▁فلما	-11.2517
▁الوظيفية	-11.2518
▁مذكرات	-11.2518
رايس	-11.2521
حاكم	-11.2522
▁فك	-11.2523
▁وجبال	-11.2523
▁الاستقلال	-11.2525
▁موحدة	-11.2526
▁الكفاءة	-11.2526
▁جغرافي	-11.2528
تحصل	-11.2529
▁واضاف	-11.253
▁متميزة	-11.2532
ME	-11.2532
▁الاسكان	-11.2533
▁طبقات	-11.2534
▁التعاونية	-11.2534
▁ضخم	-11.2534
▁الذكي	-11.2536
▁امنية	-11.2538
▁باور	-11.2539
▁كوين	-11.254
▁يريد	-11.2541
▁غاي	-11.2542
▁للشعر	-11.2542
▁شرك	-11.2544
فلسطين	-11.2544
▁الراعي	-11.2544
▁لكونه	-11.2546
حلف	-11.2547
▁طيب	-11.255
زيارات	-11.2552
tr	-11.2553
ive	-11.2554
تضح	-11.2554
▁وتشكل	-11.2555
▁الاسرية	-11.2557
▁الجنس	-11.2557
سيارات	-11.2558
▁بيري	-11.2558
▁اوري	-11.2558
▁160	-11.256
▁الجميع	-11.2567
تقسيم	-11.2582
مطبوع	-11.2584
▁اختار	-11.2585
مواصفات	-11.2588
▁والاتصال	-11.2588
سفارة	-11.2589
▁اعتمادا	-11.2589
▁الاتية	-11.2593
▁المحيطات	-11.2596
▁غازي	-11.26
ورث	-11.2603
لخص	-11.2604
▁الموحدة	-11.2604
مذيع	-11.2615
▁الفعلية	-11.2619
ki	-11.2626
▁2.0	-11.2628
صحيفة	-11.263
▁غالي	-11.2632
لاثار	-11.2634
قمر	-11.2639
▁دوت	-11.2639
▁المتن	-11.2644
▁مقرر	-11.265
تثقيف	-11.2655
▁حزيران	-11.2655
▁لشبونة	-11.2655
▁نينتندو	-11.2655
▁الاستقرار	-11.2655
▁الاستيطان	-11.2655
▁والمنتخب	-11.2655
▁هيوستن	-11.2655
▁اللاحقة	-11.2655
▁الدوايية	-11.2655
شواهد	-11.2655
▁كمهاجم	-11.2655
▁بالاعمال	-11.2655
▁Data	-11.2655
▁والتطبيقات	-11.2655
▁القيروان	-11.2655
▁سويسري	-11.2655
▁الجسيمات	-11.2656
▁مزرعة	-11.2656
▁المصنوع	-11.2656
لاماكن	-11.2656
▁القصايد	-11.2656
▁العريق	-11.2656
▁لاسباب	-11.2656
▁طبرجل	-11.2656
port	-11.2657
ترحيل	-11.2657
تعميم	-11.2657
▁فرحان	-11.2658
▁نيل	-11.2658
▁باجراء	-11.2658
مغطا	-11.2659
تصدي	-11.2659
▁ووالدته	-11.2659
▁1444	-11.2659
▁فوايد	-11.2659
▁الصغار	-11.2659
الالقاب	-11.266
▁للامام	-11.266
اسناد	-11.266
▁المبيعات	-11.2661
▁1929	-11.2661
▁1376	-11.2662
تحريك	-11.2662
▁العقير	-11.2662
▁ناتج	-11.2662
▁كارني	-11.2663
▁الناقل	-11.2663
▁ولعل	-11.2664
▁1389	-11.2664
▁سوداء	-11.2664
▁اربد	-11.2665
▁110	-11.2666
▁قيمتها	-11.2669
اتخاذ	-11.267
▁نيسان	-11.267
هولندا	-11.2671
▁للحزب	-11.2671
▁وتطويرها	-11.2672
▁(23	-11.2672
▁الكلام	-11.2672
▁اثني	-11.2673
يتز	-11.2673
▁والبحر	-11.2673
▁والادوات	-11.2674
▁خبز	-11.2674
ak	-11.2675
▁اخرج	-11.2676
هضبة	-11.2677
▁الفلاح	-11.2679
▁فوكس	-11.268
▁واجتماعي	-11.2684
موهبة	-11.2687
حتمل	-11.2689
▁للمواد	-11.269
▁الحشر	-11.2692
▁السعة	-11.2695
▁تستند	-11.2698
لسماح	-11.2699
▁وسيط	-11.2699
بالاضاف	-11.27
▁عرق	-11.27
▁دورته	-11.2701
قوام	-11.2701
▁تبث	-11.2701
▁والحديث	-11.2704
▁عصام	-11.2704
▁تعطي	-11.2705
رعب	-11.2705
▁بالدمام	-11.2705
▁بطاقات	-11.2713
▁لبنانية	-11.2713
▁الكاس	-11.2714
خام	-11.2715
▁ترج	-11.2715
لهجات	-11.2717
▁قوس	-11.2721
▁(30	-11.2723
▁الاعتراف	-11.2726
ريوس	-11.2726
CT	-11.2728
قضية	-11.2731
▁الناصرية	-11.2732
▁الملف	-11.2733
وساط	-11.2736
▁ميلاد	-11.2737
لاع	-11.2738
▁الهجر	-11.274
منتجعات	-11.274
▁توفيق	-11.2741
▁جافا	-11.2741
▁ونظم	-11.2744
لعاملين	-11.2746
▁المحركات	-11.2747
▁براون	-11.2749
▁التجمع	-11.2751
▁يصب	-11.2752
سوار	-11.2753
▁الضويية	-11.2753
▁الاطباء	-11.2753
▁ابدا	-11.2755
▁وتونس	-11.2757
مخطط	-11.2757
▁لوري	-11.276
▁الاخراج	-11.2762
▁البدر	-11.2763
▁مساهمات	-11.2764
▁الكاين	-11.2764
▁لجمع	-11.2766
▁اكوا	-11.2767
▁ويلعب	-11.277
▁الصحيحة	-11.277
▁القاسمي	-11.2771
1992	-11.2776
▁المطلوب	-11.2777
▁جاو	-11.2779
▁جرام	-11.2779
▁حساس	-11.2781
▁Ex	-11.2787
▁Wi	-11.2792
▁هضاب	-11.2792
▁وقواعد	-11.2794
▁يهودي	-11.2794
▁يراسه	-11.2801
اعلام	-11.2805
▁التجريبي	-11.2805
▁الاوروغواي	-11.2805
▁الاسترالي	-11.2805
▁ياباني	-11.2806
▁ثانوي	-11.2806
▁عدي	-11.2811
▁المحتملة	-11.2814
انظر	-11.2815
▁جلب	-11.2815
مبتكر	-11.2816
▁وشبه	-11.2818
▁معظمها	-11.2819
▁صحاري	-11.2823
▁الاختبارات	-11.2824
sk	-11.2825
▁الكع	-11.2831
▁مجاني	-11.2836
بعض	-11.2838
البحرين	-11.2839
▁معسكر	-11.2841
▁شمل	-11.2843
▁صعوبة	-11.2845
▁جزي	-11.2855
▁تخزينية	-11.2862
▁بطن	-11.2874
▁اليسار	-11.2874
▁شقيقه	-11.2875
▁اصابة	-11.2876
▁وقود	-11.288
1984	-11.2881
اسبانيا	-11.2882
▁1900	-11.2885
▁للمحافظة	-11.2889
ساعة	-11.289
ايزو	-11.2891
▁المناخية	-11.2891
▁حققت	-11.2906
▁القش	-11.2908
▁احادي	-11.2912
▁بنقل	-11.2913
▁مبكرة	-11.2916
qu	-11.2916
سباقات	-11.292
▁الروايي	-11.2921
old	-11.2922
▁لسان	-11.2924
ختبر	-11.2926
جودو	-11.2927
▁بجمع	-11.2932
٢	-11.2933
▁اختراق	-11.2933
▁اسكتلندا	-11.2933
▁اسكتلندي	-11.2933
▁التسعينيات	-11.2933
▁توظيف	-11.2933
▁الاعتقال	-11.2933
▁الاقراص	-11.2933
▁طوابق	-11.2933
▁متجنسون	-11.2933
▁اعتزال	-11.2933
▁الفوتوغرافي	-11.2933
▁تثبيت	-11.2933
▁شوارع	-11.2933
▁كوارث	-11.2933
▁جنرال	-11.2933
▁للمهندسين	-11.2933
▁بالسجن	-11.2933
▁النادرة	-11.2933
▁ومرافق	-11.2933
▁سفينة	-11.2933
▁نخبة	-11.2933
▁المدرسية	-11.2933
▁المشهد	-11.2933
▁تاكيد	-11.2933
▁الضروري	-11.2933
▁زعيم	-11.2933
▁طابع	-11.2933
▁اللوجستية	-11.2933
▁والجامعات	-11.2933
▁الادارات	-11.2933
▁انتصار	-11.2934
▁وصحفي	-11.2934
▁الارشيف	-11.2934
▁التطوعي	-11.2934
▁المقاولات	-11.2934
▁يتخذ	-11.2934
▁تحفيز	-11.2934
▁معدنية	-11.2934
▁موكد	-11.2935
كتيبة	-11.2935
▁المطيري	-11.2935
▁التشكيلة	-11.2935
▁فاصبح	-11.2935
▁تكافل	-11.2935
▁البطحاء	-11.2935
▁المقتنيات	-11.2935
▁النانو	-11.2936
▁الوجود	-11.2936
▁الماجد	-11.2936
▁1443	-11.2936
▁السلمية	-11.2936
▁الدراما	-11.2936
تسيير	-11.2936
ازدهار	-11.2936
▁متفرج	-11.2937
▁يستمر	-11.2938
▁الحريري	-11.2938
▁نبطي	-11.2939
▁بالتدريس	-11.2939
▁سكوت	-11.2939
▁1386	-11.2941
▁1392	-11.2941
▁1440	-11.2941
▁الزيارة	-11.2941
ذاع	-11.2941
▁والجماعة	-11.2942
▁اغاني	-11.2942
▁افكار	-11.2942
▁قباء	-11.2942
▁الاقليم	-11.2942
طحن	-11.2943
جسيم	-11.2943
▁الفنادق	-11.2944
▁لبن	-11.2944
▁اشتغل	-11.2944
▁الماليزي	-11.2946
اطعمة	-11.2947
▁لاعمال	-11.2947
▁الاسمنت	-11.2947
▁الابطال	-11.2947
▁والكيمياء	-11.2948
ستوديو	-11.2948
لاصق	-11.295
▁ميديا	-11.2951
▁الترجيح	-11.2952
لمجموعات	-11.2954
CD	-11.2955
اقتراح	-11.2955
واري	-11.2956
▁التكاليف	-11.2957
▁اموال	-11.2958
▁واقيم	-11.296
▁تجعل	-11.296
دلالة	-11.296
▁للصناعة	-11.2963
عناصر	-11.2964
فاخر	-11.2967
▁باعداد	-11.2969
▁المحلة	-11.2969
▁النظري	-11.297
▁بالدوري	-11.2971
▁يمين	-11.2972
▁ادني	-11.2972
▁والتقنيات	-11.2976
▁لتحليل	-11.2979
▁عمانيون	-11.2982
▁مصنفة	-11.2982
▁نورث	-11.2985
▁النيو	-11.2987
▁الموشرات	-11.2989
ang	-11.299
▁يعان	-11.299
▁للمسجد	-11.2991
▁لمدير	-11.2991
▁متسابق	-11.2991
ترقية	-11.2992
عاء	-11.2993
طاقات	-11.2995
جسم	-11.2997
▁الاحداثيات	-11.2999
المنتجات	-11.2999
▁قبة	-11.3
▁هروب	-11.3002
▁مومن	-11.3009
▁السيف	-11.301
▁والطريق	-11.301
▁حيز	-11.3011
▁واكاديمي	-11.3011
▁An	-11.3015
▁ثقافي	-11.3018
▁المنتجة	-11.3018
▁باست	-11.302
▁مشاركاته	-11.3021
▁الداير	-11.3021
تحليل	-11.3021
go	-11.3028
▁المضادة	-11.303
▁العنب	-11.3031
▁وعرف	-11.3033
حرق	-11.3043
متلازم	-11.3043
▁مدافن	-11.3043
▁تضمنت	-11.3045
▁للعب	-11.3049
احتمالية	-11.3051
▁المواني	-11.3051
▁مضي	-11.3052
ساير	-11.3052
▁تبقي	-11.3062
▁امان	-11.3062
▁سايل	-11.3064
لدوري	-11.3064
▁للمنظمة	-11.3068
▁الحملة	-11.307
لزيادة	-11.3072
▁العقيدة	-11.3074
2010	-11.3076
وقد	-11.3079
معلومات	-11.3087
حاز	-11.3088
▁والثقافي	-11.3092
▁كلما	-11.3095
▁اربعين	-11.3095
-13	-11.3097
▁مسلح	-11.3097
▁الشايع	-11.3097
▁باحثو	-11.3097
نحن	-11.3105
بارك	-11.3112
▁المسلمة	-11.3112
▁موجه	-11.3112
▁اراد	-11.3112
▁محاولات	-11.3112
وكيل	-11.3114
▁وقايد	-11.3114
بايع	-11.3118
▁اللام	-11.3119
▁رومان	-11.3123
مويل	-11.3124
تشجيع	-11.3127
▁احجار	-11.3129
عصر	-11.3133
تقاعد	-11.3134
لصندوق	-11.3136
خفة	-11.3139
كووس	-11.3143
▁ماريا	-11.3143
▁وصور	-11.3148
▁حمدان	-11.315
حساسية	-11.3159
نماذج	-11.3161
خوارزميات	-11.3161
نايب	-11.3162
▁كير	-11.3162
▁كالي	-11.3162
قلعة	-11.3168
التحديات	-11.317
قاضي	-11.3173
▁والدول	-11.3174
ظروف	-11.3175
▁ساند	-11.3176
اغنية	-11.3176
تباين	-11.3178
شوط	-11.3179
▁ميلان	-11.3179
شريف	-11.3181
جراد	-11.3183
▁البعد	-11.3184
▁تجهيز	-11.3184
سوس	-11.3186
ينظر	-11.319
▁التطورات	-11.3193
سرعات	-11.3197
لموسسات	-11.3198
▁المستطيل	-11.3207
▁مونت	-11.3211
احتفاظ	-11.3219
انثروبولوجيا	-11.3219
▁اريتريا	-11.3219
▁استشهاد	-11.3219
▁ايرلندي	-11.3219
▁بنسلفانيا	-11.3219
▁خصيصا	-11.3219
▁للناشيين	-11.3219
▁ميكانيكي	-11.3219
▁والصناعية	-11.3219
انبعاثات	-11.3219
▁تلقاييا	-11.3219
▁مدفوع	-11.3219
▁الحكومات	-11.3219
▁وعاصم	-11.3219
▁ابتكار	-11.3219
style	-11.3219
text	-11.3219
▁الالبوم	-11.3219
▁انقلاب	-11.3219
▁انديانا	-11.3219
▁الشيوخ	-11.3219
App	-11.3219
▁مقدوني	-11.3219
▁للجامعات	-11.3219
▁ويسكن	-11.3219
▁غنايي	-11.3219
▁الفلسفي	-11.3219
مغامرات	-11.3219
▁تسكن	-11.3219
▁تشهد	-11.3219
▁الثمانينات	-11.3219
▁مجهول	-11.3219
▁الكوادر	-11.3219
▁يسجل	-11.3219
▁عريض	-11.322
▁المعقدة	-11.322
▁توقيت	-11.322
▁نمر	-11.322
تاشيرة	-11.322
▁باهيا	-11.322
▁الدويش	-11.322
▁كثيف	-11.3221
▁تستهدف	-11.3221
▁الاسباب	-11.3222
مشيخة	-11.3222
▁مشروب	-11.3222
▁مطبوعة	-11.3222
تصنف	-11.3222
▁الزامل	-11.3222
تكييف	-11.3223
▁صالات	-11.3223
▁المريض	-11.3223
▁1907	-11.3224
وقايع	-11.3224
▁الرواد	-11.3225
دبابات	-11.3225
▁عطا	-11.3226
und	-11.3227
▁التكريم	-11.3227
▁بقوله	-11.3227
▁ويقدر	-11.3229
حمولة	-11.3229
▁سميث	-11.3232
ستيف	-11.3232
▁صادر	-11.3233
▁جوهر	-11.3235
▁نبيل	-11.3235
عبارات	-11.3235
▁1380	-11.3235
▁الحسيني	-11.3236
▁مناجم	-11.3237
▁حرض	-11.3238
ضوي	-11.3238
احترام	-11.3239
طيلة	-11.324
▁المغتربين	-11.324
حفيد	-11.3246
▁قران	-11.3248
▁سنتي	-11.3248
▁الحسني	-11.3248
*	-11.3251
▁داود	-11.3251
ترتبط	-11.3251
▁شك	-11.3252
تجدد	-11.3253
صعيد	-11.3256
▁مستقيم	-11.3257
اعوام	-11.3258
▁المنصات	-11.3259
▁بالبحث	-11.326
▁للعملاء	-11.326
▁رياضيو	-11.3261
بحيرات	-11.3261
ps	-11.3261
▁والحياة	-11.3263
خاطر	-11.3263
▁دخ	-11.3263
▁الفقيه	-11.3264
▁حاجز	-11.3265
▁لتوليد	-11.3266
▁تجريبي	-11.3268
خصصت	-11.327
▁المقبل	-11.3271
▁مدمج	-11.3272
▁نسايية	-11.3273
▁مقالة	-11.3276
▁اسفر	-11.3277
▁هرمز	-11.3277
▁كيمياييون	-11.3277
▁والتربية	-11.3281
▁مبيعات	-11.3282
▁سجلت	-11.3284
-18	-11.3285
توليد	-11.3285
ازالة	-11.3287
▁كاملا	-11.3289
▁اسعار	-11.329
▁المناسبات	-11.3292
▁الميدانية	-11.3295
▁درامية	-11.3297
▁برمجية	-11.3299
تقارب	-11.3301
▁الكثافة	-11.3301
▁وصلي	-11.331
لتقييم	-11.3313
▁القليلة	-11.3313
▁الحقيقة	-11.3323
مهندس	-11.3325
▁الاديب	-11.3326
▁تقول	-11.3331
عاره	-11.3332
بوط	-11.3338
▁ومبني	-11.3339
▁طالبان	-11.3341
▁الشركاء	-11.3344
حمد	-11.3345
▁العمرية	-11.3348
▁الاشتراكية	-11.3348
▁الجهود	-11.3351
صخر	-11.3352
▁واسمه	-11.3353
▁والوطن	-11.3354
oc	-11.3354
▁اماراتية	-11.3357
ant	-11.3357
نوبة	-11.3357
▁فقيه	-11.3359
DM	-11.336
زيج	-11.3361
▁القايد	-11.3364
SO	-11.3368
▁بعيدة	-11.337
ادباء	-11.337
▁الكبار	-11.3375
▁فردي	-11.3377
طلال	-11.3381
▁القصب	-11.3384
iz	-11.3385
رول	-11.3387
▁وتضمن	-11.3388
▁الحضري	-11.3389
رهاب	-11.3395
حجب	-11.3396
▁نووي	-11.3397
▁صيا	-11.3398
▁وساهم	-11.3399
فيزياء	-11.3403
▁وعرضه	-11.3405
ow	-11.3408
تتابع	-11.3408
▁والري	-11.341
man	-11.3411
▁شيد	-11.3418
ture	-11.3425
MD	-11.343
ينتقل	-11.3438
مرجعية	-11.344
لمان	-11.3444
ID	-11.3445
▁1390	-11.3448
▁انشايه	-11.345
▁باير	-11.3451
▁روك	-11.3451
غبار	-11.3457
▁المدون	-11.3458
احمد	-11.346
اجزاء	-11.3465
-6	-11.3467
▁اغني	-11.3478
▁دال	-11.3486
▁للمستخدم	-11.3487
تنزه	-11.3492
تشين	-11.3495
▁ثماني	-11.3498
-9	-11.3502
عبارة	-11.3503
▁للابداع	-11.3513
▁ميكانيكا	-11.3513
استهداف	-11.3513
فحوص	-11.3513
▁الاحسايي	-11.3513
▁الخفجي	-11.3513
▁للصحافة	-11.3513
▁وعشرين	-11.3513
▁الانتصار	-11.3513
▁المزاحمية	-11.3513
▁اصناف	-11.3513
▁المجاردة	-11.3513
▁موبايل	-11.3513
▁الروايات	-11.3513
▁بقعاء	-11.3513
▁الفرسان	-11.3513
▁العنزي	-11.3513
الاستقبال	-11.3513
▁هكتار	-11.3513
▁مقترحة	-11.3513
مونديال	-11.3513
▁الاسيلة	-11.3513
▁مستوصف	-11.3514
▁مفيدة	-11.3514
▁حمراء	-11.3514
▁والهلال	-11.3514
▁صيانة	-11.3514
هزيمة	-11.3514
▁والصناعات	-11.3515
▁واماكن	-11.3515
النهوض	-11.3515
▁بوصة	-11.3516
▁كجم	-11.3516
▁محاضرا	-11.3516
▁اعتنق	-11.3516
حتجز	-11.3516
▁للمناطق	-11.3517
▁قلوب	-11.3517
▁ثامر	-11.3518
++	-11.3518
▁الجدد	-11.3518
▁المتجه	-11.3519
ظن	-11.3519
▁ذراع	-11.352
▁اليوسف	-11.3521
▁1374	-11.3521
▁التبغ	-11.3521
▁المتطلبات	-11.3521
▁1391	-11.3522
▁سانتوس	-11.3522
▁ضباء	-11.3523
▁وهران	-11.3523
▁الجص	-11.3524
▁نعمان	-11.3524
▁1368	-11.3524
▁حمص	-11.3524
▁ايلول	-11.3525
PC	-11.3525
▁واشتهر	-11.3525
▁وهجر	-11.3526
▁1385	-11.3526
▁الزمان	-11.3528
ضياع	-11.3528
▁نفذ	-11.3529
▁نشاتها	-11.353
▁دراما	-11.353
▁الميل	-11.353
▁صفراء	-11.3532
▁متجه	-11.3532
▁ريفي	-11.3532
▁البارزين	-11.3533
غلي	-11.3534
▁امثال	-11.3535
لجماعة	-11.3538
▁نشاطها	-11.3538
بذل	-11.354
▁الحكام	-11.3544
▁Ar	-11.3545
▁يعبر	-11.3545
هبة	-11.3546
▁ترجمت	-11.3547
▁متفرغ	-11.3547
▁المصالح	-11.3548
▁ريت	-11.3549
▁فناء	-11.3549
▁المنجم	-11.355
▁اجرا	-11.355
خوف	-11.3551
▁بالعلوم	-11.3551
اونة	-11.3552
▁معاصر	-11.3554
ايجاد	-11.3556
بورن	-11.3557
▁المصانع	-11.3557
▁العرضيات	-11.3557
fi	-11.356
▁الحلو	-11.3561
▁ركل	-11.3562
▁الكمومية	-11.3565
لمادة	-11.3567
▁اليمين	-11.3571
400	-11.3572
▁وحمل	-11.3573
ستور	-11.3573
▁النازية	-11.3577
▁البركانية	-11.3578
▁الاحتجاجات	-11.3579
▁الثقيلة	-11.358
▁راو	-11.3581
حاولت	-11.3582
وسو	-11.3585
▁الطبيب	-11.3588
▁والترجمة	-11.3588
▁الحمدان	-11.3591
▁ساعدت	-11.3591
▁مقابر	-11.3591
▁السحابة	-11.3592
▁الخفيفة	-11.3592
▁معالي	-11.3593
▁تختص	-11.3593
si	-11.3595
الايمان	-11.3597
جدوي	-11.3598
شعور	-11.3598
▁مكلف	-11.36
▁الخليل	-11.3601
▁العوام	-11.3602
▁مهني	-11.3602
▁بلس	-11.3606
▁فكانت	-11.3606
صقل	-11.3611
▁الجوال	-11.3612
▁الممثلين	-11.3615
▁للمعهد	-11.3618
▁الخلية	-11.362
▁احصايي	-11.362
MO	-11.3621
تاتي	-11.3623
▁المنشور	-11.3623
▁مختصة	-11.3624
لعدم	-11.3625
وصل	-11.3626
▁وصفها	-11.3626
▁زادت	-11.3628
امضي	-11.3628
لهذا	-11.3629
▁كيمياء	-11.3631
▁وموسسات	-11.3631
ستعرض	-11.3632
▁مايية	-11.3636
▁والانظمة	-11.3639
▁الامريكيين	-11.3642
DS	-11.3642
يقطنها	-11.3644
▁شهريا	-11.3645
:00	-11.3646
مظاهرات	-11.3646
▁الشايعة	-11.3647
ويش	-11.3654
جاء	-11.3656
▁السماء	-11.3661
▁المرجعية	-11.3661
عطف	-11.3662
▁وتدرج	-11.3663
▁الصوتي	-11.3665
▁المركب	-11.3667
▁النقدية	-11.3668
▁خلية	-11.3672
رفق	-11.3673
▁القرون	-11.3686
مراجعة	-11.3687
سيطر	-11.3689
▁المنشاة	-11.3696
▁تشاد	-11.3696
▁تجد	-11.3696
▁مستمرة	-11.37
▁فاذ	-11.3701
▁نيوم	-11.3705
هيثم	-11.3706
▁الهولندية	-11.3709
▁ودراسات	-11.3715
▁اكتشفت	-11.3715
▁الاطار	-11.3716
▁يجد	-11.3717
يزو	-11.3725
مواصلات	-11.3728
ظهير	-11.3729
▁والفكر	-11.373
▁كريس	-11.3733
▁والمعروف	-11.3734
السودان	-11.3745
▁القصير	-11.375
▁القريب	-11.3753
▁الصرف	-11.3757
▁والمراجع	-11.3763
كثافة	-11.3774
ance	-11.3779
خطوة	-11.3783
▁دايمة	-11.3783
روبوت	-11.3795
▁مخرجو	-11.3801
شتغل	-11.3804
لرقابة	-11.3805
▁لاحد	-11.3809
رياضيات	-11.3809
▁website	-11.3816
▁ادنبرة	-11.3816
▁الايرادات	-11.3816
▁الفستفالية	-11.3816
▁بتنفيذ	-11.3816
▁دقايق	-11.3816
▁واللاسلكية	-11.3816
▁البكالوريا	-11.3816
▁كورنيل	-11.3816
▁جلاجل	-11.3816
▁وادابها	-11.3816
▁والسياحة	-11.3816
▁بانواع	-11.3816
▁رضوان	-11.3816
▁بالاعدام	-11.3816
ضوضاء	-11.3816
▁اتقان	-11.3816
عقوبة	-11.3816
▁التطبيقي	-11.3816
▁اثينا	-11.3816
▁الحازمي	-11.3816
▁المبادي	-11.3816
▁Ne	-11.3816
▁تلفاز	-11.3816
ختلط	-11.3816
▁العذبة	-11.3817
هندوراس	-11.3817
▁ورجال	-11.3817
▁خليص	-11.3817
مطابع	-11.3817
▁دينامو	-11.3817
▁مشتق	-11.3817
ملامح	-11.3818
▁الميوية	-11.3818
▁المتاحف	-11.3818
▁كنانة	-11.3818
▁فوربس	-11.3818
▁المصلين	-11.3818
سيارة	-11.3818
خيوط	-11.3818
▁للسكان	-11.3819
▁صخرة	-11.3819
▁الشعوب	-11.382
رقاقة	-11.382
تدهور	-11.3821
▁1378	-11.3822
تشيلي	-11.3823
▁شهير	-11.3823
▁الربيعي	-11.3823
▁دادان	-11.3824
▁الحقبة	-11.3824
▁شباط	-11.3825
▁وتمتلك	-11.3825
▁اعالي	-11.3825
▁الادوار	-11.3825
▁الزبير	-11.3826
▁ادريس	-11.3826
▁مجموعتين	-11.3826
▁الرابط	-11.3826
▁والمعالم	-11.3828
▁الواسع	-11.3831
▁الخيري	-11.3831
▁هبوط	-11.3831
طفولة	-11.3832
▁(28	-11.3832
مغادرة	-11.3834
▁يلتقي	-11.3834
▁1885	-11.3836
▁موعد	-11.3839
لاوراق	-11.3839
▁محتمل	-11.384
▁واقتصادي	-11.3841
حسين	-11.3847
ليالي	-11.3847
▁السياق	-11.3848
▁السليماني	-11.3849
▁كرسي	-11.385
▁متقاعد	-11.385
▁وبطول	-11.3853
▁الحنفي	-11.3853
▁للبحر	-11.3854
▁رضي	-11.3855
ثانية	-11.3856
▁يتاهل	-11.3857
▁Ro	-11.3858
▁ويراس	-11.3858
▁تسميته	-11.3859
لاداء	-11.3862
▁للحج	-11.3864
▁باستمرار	-11.3865
▁والاقليمية	-11.3866
▁المطلوبين	-11.3866
▁المسرحيات	-11.3867
▁والمشاريع	-11.3868
▁مطالب	-11.3868
نظير	-11.3868
▁بلدا	-11.3868
▁مسفر	-11.3868
▁المتمثل	-11.3868
▁تضمين	-11.387
▁ادخل	-11.387
▁للمكتب	-11.3871
▁للنظام	-11.3873
مقربة	-11.3873
▁جرير	-11.3873
▁للتعاون	-11.3875
▁للجميع	-11.3876
▁المرمي	-11.3881
▁يميل	-11.3884
▁المدة	-11.3885
▁المستهدفة	-11.3886
NC	-11.3886
▁لويزيانا	-11.3886
▁الفخارية	-11.3887
▁الثغر	-11.3887
▁سامية	-11.389
▁اعتزل	-11.3895
▁احس	-11.3897
▁الرياسية	-11.3898
▁اللوحة	-11.3898
▁(24	-11.3898
▁وارتفاعه	-11.3899
▁ساس	-11.3901
طايرات	-11.3903
Sh	-11.3903
كتاب	-11.3905
▁مماثلة	-11.3906
▁وتوثيق	-11.3906
▁النوي	-11.3907
▁مناسبات	-11.3909
▁الاغنية	-11.3909
▁الوكيل	-11.3912
▁للمساعدة	-11.3914
عساف	-11.3915
▁العدوي	-11.3917
▁التحقيقات	-11.3918
▁الجينية	-11.3919
▁كفر	-11.392
▁المتوفي	-11.392
▁الجانبين	-11.3922
▁العنف	-11.3923
تعدي	-11.3924
▁والمانيا	-11.3924
رحب	-11.3926
▁Ac	-11.3927
▁بدوي	-11.3929
اداء	-11.3931
▁المصحف	-11.3934
ثورات	-11.394
▁الصوف	-11.3944
▁الناشر	-11.3949
▁الشعاب	-11.395
مسالك	-11.3951
▁لاخر	-11.3958
▁اوتو	-11.3959
BA	-11.3963
▁للعبة	-11.3963
▁يختص	-11.3963
▁التسوق	-11.3965
ide	-11.3968
الدمام	-11.3974
▁التخرج	-11.3984
ضب	-11.3994
▁معالجات	-11.3995
حراسة	-11.3995
الحرب	-11.4
▁الاندونيسي	-11.4
▁العشوايي	-11.4
▁عياد	-11.4002
▁ميرك	-11.401
هجوم	-11.4013
NS	-11.4017
▁وعرضها	-11.4021
صرح	-11.4024
▁دراسي	-11.4027
لفترات	-11.403
اثراء	-11.4032
ary	-11.4033
▁المصنعة	-11.4035
لكل	-11.4035
▁العمار	-11.4037
▁هاف	-11.4039
▁مايي	-11.4041
▁التكامل	-11.4044
SN	-11.4045
▁ديني	-11.4054
▁بييي	-11.4057
-12	-11.4057
▁سايق	-11.4057
▁جلد	-11.4058
▁الالتزام	-11.4059
بولو	-11.406
لتقي	-11.4061
▁سوني	-11.4061
▁اقتصاديات	-11.4061
معادن	-11.4063
DA	-11.4064
▁حددت	-11.4066
دبلوم	-11.4071
حفز	-11.4084
GA	-11.4094
▁الموظف	-11.4098
▁انتخابه	-11.41
بريطاني	-11.41
▁المعمار	-11.4102
قوافل	-11.4105
▁الصحيح	-11.4105
رمين	-11.4107
▁السويس	-11.4109
رجو	-11.4109
▁براي	-11.4112
لابتعاث	-11.4116
▁الربط	-11.4116
حيوانية	-11.4117
▁فورم	-11.4117
▁بلان	-11.4119
▁Se	-11.4122
منصة	-11.4126
р	-11.4128
▁الخبيثة	-11.4128
▁تشخيص	-11.4128
▁سريلانكا	-11.4128
▁كوبنهاغن	-11.4128
▁والتنظيم	-11.4128
▁والماجستير	-11.4128
اللاذقية	-11.4128
▁لمنتخب	-11.4128
▁الاحتياطي	-11.4128
▁الكثبان	-11.4128
استخلاص	-11.4128
ترعرع	-11.4128
بالفارسية	-11.4128
▁السقاف	-11.4128
▁للافراد	-11.4128
▁الافلاج	-11.4128
الاستعداد	-11.4128
▁المعارك	-11.4128
▁يسبب	-11.4128
▁للكاتب	-11.4129
▁يوكد	-11.4129
▁الفتاح	-11.4129
▁تنزانيا	-11.4129
▁اباتشي	-11.4129
▁والقروية	-11.413
مرزوق	-11.413
▁الكلاسيكية	-11.413
▁مدعوم	-11.413
▁حجازي	-11.413
اشباه	-11.413
▁الميزاني	-11.4131
▁الهمداني	-11.4131
▁الاعيان	-11.4131
▁الشنان	-11.4131
▁الفضية	-11.4132
▁مجانا	-11.4132
نافورة	-11.4132
▁ياسين	-11.4133
شجيرات	-11.4133
▁القنصل	-11.4133
▁عريق	-11.4134
▁1351	-11.4135
▁1912	-11.4136
▁التاكيد	-11.4137
▁البسام	-11.4137
▁ضرية	-11.4137
▁القرشي	-11.4137
▁رحلته	-11.4137
▁للموارد	-11.4138
▁تولت	-11.4138
▁ومورخ	-11.4138
▁حضارة	-11.4139
▁ارثر	-11.4139
▁محب	-11.414
▁اعظم	-11.414
جذع	-11.414
▁1388	-11.414
▁توسعت	-11.4141
ack	-11.4143
▁العيسي	-11.4145
تكرر	-11.4145
▁مكشوف	-11.4145
▁الظهر	-11.4145
▁ومحاضر	-11.4146
▁احتلال	-11.4148
▁لتشمل	-11.4149
▁كعضو	-11.415
▁تقاعده	-11.4151
▁قطب	-11.4155
▁البناي	-11.4157
▁ناد	-11.4158
▁المصفوفة	-11.4158
حاب	-11.4159
▁سيهات	-11.416
احاديث	-11.4162
لغرض	-11.4162
▁استهدف	-11.4163
▁نهار	-11.4163
▁قراءته	-11.4164
▁مجمل	-11.4165
▁والابحاث	-11.4166
تقوية	-11.4168
▁ويصب	-11.4171
▁اماراتيون	-11.4171
تدرج	-11.4172
▁ارتفع	-11.4172
▁الانماط	-11.4172
▁الحضاري	-11.4172
,000,000	-11.4173
نساب	-11.4177
▁اخن	-11.4178
▁منحني	-11.418
▁وتراس	-11.4181
سعد	-11.4185
▁والمسوول	-11.4186
البرازيل	-11.4188
▁المعاصرين	-11.419
فعالية	-11.4192
▁وزاري	-11.4193
سيناريو	-11.4194
تقييم	-11.42
▁واستراليا	-11.4201
▁القتالية	-11.4203
▁والشعر	-11.4203
▁لعبد	-11.4207
▁اوسع	-11.4209
معجم	-11.4209
int	-11.4211
▁القوافل	-11.4216
مليار	-11.4217
▁الدولتين	-11.4218
▁خد	-11.4222
كليف	-11.4225
قابس	-11.4225
▁نيت	-11.4227
▁3.5	-11.4229
▁ثمود	-11.423
▁ضويية	-11.423
▁بالمحافظة	-11.4232
▁الغناء	-11.4234
▁المساندة	-11.4234
▁تذكر	-11.4236
جميل	-11.4237
فرش	-11.4242
▁خبرات	-11.4245
هيكل	-11.4247
▁البان	-11.4247
▁لنفس	-11.4247
قاسي	-11.4248
▁ومعلومات	-11.4248
▁الاستجابة	-11.425
▁الليبية	-11.425
ast	-11.4252
▁كاميرات	-11.4252
▁الكهوف	-11.4253
▁بصرية	-11.4255
▁تصنع	-11.4257
بطل	-11.4259
▁حدد	-11.4265
▁الموسسين	-11.4269
▁بتسجيل	-11.4271
▁Ge	-11.4273
">	-11.4277
▁الارهابية	-11.4277
▁يسع	-11.4277
راقب	-11.428
▁الجماعات	-11.4282
▁كلام	-11.4284
▁الفرصة	-11.4287
▁الحاكمة	-11.4288
▁ونشرها	-11.4296
▁شري	-11.4303
▁طلبت	-11.4304
صفر	-11.4305
لانظمة	-11.4305
▁والانشطة	-11.4311
▁وكتابات	-11.4327
لعايلة	-11.433
▁بصري	-11.4335
▁فلكي	-11.4335
زدهر	-11.4346
شوري	-11.4347
▁بوست	-11.4351
▁الهندسي	-11.4351
▁متاح	-11.4352
▁الحفظ	-11.4354
ابتدايي	-11.4363
▁العادي	-11.4363
غذاء	-11.4364
▁مخرجات	-11.4368
▁اقليمية	-11.4372
▁هرب	-11.4373
لاحصاء	-11.4373
▁برص	-11.4378
-2010	-11.4381
▁النحاس	-11.4388
▁المشغل	-11.4389
ستغل	-11.439
RE	-11.4394
روان	-11.4397
لحجاج	-11.44
بارد	-11.4403
وارض	-11.4403
▁عديد	-11.4406
▁We	-11.4407
صحيح	-11.441
▁1910	-11.4412
كسب	-11.4419
▁وقطاع	-11.4421
ريكس	-11.4422
▁عصب	-11.4429
one	-11.443
وسايط	-11.4432
تفصيل	-11.4432
توقيع	-11.4432
استراتيجية	-11.4433
تشتهر	-11.4434
مصمم	-11.4434
مقالات	-11.4435
تقويم	-11.4435
بلاغ	-11.4436
▁قاضيا	-11.4436
لوحة	-11.4437
▁الاسري	-11.4438
▁الموسمية	-11.4439
لتوحيد	-11.4439
خادم	-11.4442
ضاد	-11.4443
مساجد	-11.4444
لانواع	-11.4447
tor	-11.4449
IEEE	-11.4451
استعاضة	-11.4451
▁التراويح	-11.4451
▁تدريجيا	-11.4451
▁للفروسية	-11.4451
▁لوكسمبورغ	-11.4451
امتلاك	-11.4451
▁التفجير	-11.4451
اوروغوياني	-11.4451
▁وتاهيل	-11.4451
مراوغة	-11.4451
▁سهولة	-11.4451
جمباز	-11.4451
▁تضاريس	-11.4451
▁تدمير	-11.4451
▁لاكمال	-11.4451
▁والواقع	-11.4451
▁المجاهدين	-11.4451
▁العنود	-11.4451
▁تحطم	-11.4451
▁الخيول	-11.4451
▁ضروري	-11.4451
▁التسلية	-11.4451
ستقلال	-11.4451
▁القنفذة	-11.4451
▁رفيق	-11.4451
▁معتزل	-11.4452
▁ادناه	-11.4452
▁المرتفعة	-11.4452
▁كراتشي	-11.4452
▁الاصيل	-11.4452
▁التنافسية	-11.4452
▁المطبوعة	-11.4452
▁اشتراك	-11.4452
div	-11.4453
▁الفتيات	-11.4453
▁القديس	-11.4453
▁التجميل	-11.4455
▁تعبير	-11.4455
▁اوسطي	-11.4456
▁الدموية	-11.4456
حرايق	-11.4456
▁نيجري	-11.4456
▁الانطلاق	-11.4457
▁1908	-11.4457
▁كارلوس	-11.4457
▁الهبوط	-11.4457
▁تنورة	-11.4458
لتاريخ	-11.4458
▁الاصفر	-11.4459
▁الفاتح	-11.4459
▁القعدة	-11.4459
غامض	-11.4459
▁المشي	-11.4459
▁المكاتب	-11.4459
▁اتباع	-11.4459
▁نواة	-11.446
▁فاتح	-11.446
▁فضية	-11.446
ضارب	-11.446
▁الكبد	-11.446
▁1371	-11.4461
محادثات	-11.4463
مخزون	-11.4463
▁وسكان	-11.4464
▁1379	-11.4464
▁الصفراء	-11.4466
▁رياح	-11.4466
▁الصوي	-11.4467
▁زكي	-11.4467
خواص	-11.4467
▁رووس	-11.4468
▁بالتجزية	-11.447
▁سبيع	-11.4471
▁واشهر	-11.4472
▁وتمويل	-11.4473
معادلات	-11.4473
▁محاط	-11.4474
▁شمع	-11.4476
▁المتخصصين	-11.4477
▁استعمل	-11.4478
▁المتزامن	-11.448
▁جنود	-11.448
▁يوتا	-11.448
▁الخريطة	-11.4482
▁المخدرات	-11.4484
الجهات	-11.4485
▁القصوي	-11.4485
▁حيفا	-11.4486
بتعد	-11.4487
▁الدراجات	-11.4488
▁للصحة	-11.449
▁الالاف	-11.4491
▁قنصل	-11.4494
لعموم	-11.4494
▁وعمليات	-11.45
ثانوية	-11.4506
▁الصاروخي	-11.4506
موقع	-11.451
▁رييسيا	-11.451
▁القصصية	-11.4512
-2009	-11.4515
▁طابقا	-11.4516
mp	-11.4517
▁نجحت	-11.4517
▁والتجارية	-11.4517
▁الرباعي	-11.452
▁الهز	-11.452
▁بالبطولة	-11.452
الحواسيب	-11.4521
-2011	-11.4522
▁الندوات	-11.4522
سيادة	-11.4523
▁مقطع	-11.4523
▁يتصل	-11.4523
مهمة	-11.4527
▁الرمي	-11.4528
▁البندقية	-11.4528
▁التقديرية	-11.4528
▁الزيد	-11.4529
▁الابراج	-11.453
طبيب	-11.4536
▁طف	-11.4538
فروع	-11.4539
▁والامنية	-11.4539
▁بالمدرسة	-11.454
▁الابداعية	-11.4541
▁يطل	-11.4541
▁الاستكشاف	-11.4541
▁مظهر	-11.4542
▁يعيشون	-11.4542
كابتن	-11.4552
▁عشوايية	-11.4555
▁تسلم	-11.4557
▁احتلت	-11.4558
2019	-11.456
▁الوسام	-11.4561
▁للاجهزة	-11.4563
▁والوصول	-11.4565
▁مرتفعات	-11.4568
▁2500	-11.4568
▁الحرارية	-11.4573
▁التجميع	-11.4573
الجزيرة	-11.4574
تونس	-11.4576
▁منتظمة	-11.4577
بدايع	-11.458
▁قانونية	-11.4586
▁شيعي	-11.4599
استعلام	-11.4606
-15	-11.4607
وساطة	-11.4607
▁ارضي	-11.4609
▁ويبدا	-11.4612
▁بطبق	-11.4615
▁تجاريا	-11.4616
1983	-11.4618
▁خليجية	-11.462
▁اخوان	-11.462
▁يوغوسلافيا	-11.4623
حذر	-11.4627
هذا	-11.4627
▁مقل	-11.463
▁Pr	-11.4631
اندريه	-11.4632
نتظر	-11.4646
▁واعد	-11.4649
BI	-11.465
▁المنظم	-11.4651
▁السويدي	-11.4653
▁بلانك	-11.4654
▁سود	-11.4655
▁منتظم	-11.4656
▁والثانوي	-11.4657
▁النسايي	-11.4657
1980	-11.4658
كهيد	-11.466
▁افتراضي	-11.466
مجرد	-11.466
▁Ra	-11.4661
▁مشابه	-11.4662
▁رمادي	-11.4664
▁الليبي	-11.4665
كيل	-11.4666
▁الجوهر	-11.467
فسر	-11.4672
▁المنخفض	-11.4673
اعطاء	-11.4674
▁الخطط	-11.4685
CE	-11.4685
▁احتل	-11.4685
حالات	-11.4687
▁قدرته	-11.4688
▁الاثر	-11.4691
حبس	-11.4695
مقبس	-11.4697
استخبارات	-11.4697
اعتراف	-11.4698
▁عموم	-11.4699
har	-11.4703
سوسن	-11.4709
▁اوكراني	-11.4713
▁الدنماركية	-11.4715
عظم	-11.4719
▁استثمارات	-11.472
1996	-11.4731
عراب	-11.4734
▁لوح	-11.4735
▁الغد	-11.4737
▁بخت	-11.4748
DI	-11.4752
سلوب	-11.4756
▁المتر	-11.4759
▁خطاط	-11.4766
قرعة	-11.4771
▁للعلم	-11.4772
لهواتف	-11.4773
▁داو	-11.4773
مفاهيم	-11.4775
▁والفيديو	-11.4778
▁الدنماركي	-11.4779
▁امس	-11.4779
استشعار	-11.4781
▁الكونغرس	-11.4784
▁كوينزلاند	-11.4784
▁مقتنيات	-11.4784
▁مكسيكو	-11.4784
بالفرنسية	-11.4784
▁مفاتيح	-11.4784
▁Offic	-11.4784
▁دبی	-11.4784
▁طفولته	-11.4784
▁البابطين	-11.4784
▁عصور	-11.4784
▁لصفوف	-11.4784
▁الانحدار	-11.4784
▁وتسويق	-11.4784
▁كثبان	-11.4784
▁الطاقم	-11.4784
▁النفايات	-11.4784
▁العثيم	-11.4784
▁الليزر	-11.4784
▁الايتام	-11.4784
▁للتصميم	-11.4784
ضرايب	-11.4784
▁فيكتوريا	-11.4784
زغبة	-11.4785
▁والمباني	-11.4785
▁الموزعة	-11.4785
باراغواي	-11.4785
▁النيجر	-11.4785
▁تكتل	-11.4785
▁تصدير	-11.4785
▁المسماة	-11.4785
▁السوفياتي	-11.4785
اطباق	-11.4785
▁اللولو	-11.4785
▁تعقيد	-11.4785
▁فلبيني	-11.4785
▁الرالي	-11.4785
▁وانتهي	-11.4787
خصوم	-11.4787
▁ابناوه	-11.4787
▁وكثير	-11.4787
▁يستضيف	-11.4787
كارثة	-11.4787
▁متفرقة	-11.4788
سفوح	-11.4788
بشناق	-11.4788
▁وروايي	-11.4788
عولمة	-11.4789
تسريع	-11.4789
محراب	-11.4789
▁وكذا	-11.479
▁by	-11.479
▁الترخيص	-11.479
▁قمم	-11.479
▁الخزان	-11.479
▁والسياسة	-11.4793
▁موضي	-11.4793
▁سلبي	-11.4793
حتضن	-11.4794
▁بمنح	-11.4795
▁السليم	-11.4795
بصمة	-11.4796
موذن	-11.4796
▁لعمليات	-11.4797
▁للكيمياء	-11.4797
وكروم	-11.4798
▁يدور	-11.4799
▁لاطلاق	-11.4799
▁استحدث	-11.48
سعر	-11.4802
السهول	-11.4804
لتعلم	-11.4804
▁للحوسبة	-11.4804
محافل	-11.4804
-2000	-11.4805
▁الانفاق	-11.4806
▁الجبار	-11.4806
▁والتعلم	-11.4807
▁اسبوعيا	-11.4808
▁يوناني	-11.4808
▁وضمان	-11.4809
▁المنتزه	-11.481
مدفعية	-11.4811
سهرة	-11.4812
فسكي	-11.4813
ob	-11.4813
▁المقابر	-11.4815
▁ومكة	-11.4819
1988	-11.4819
▁ترابي	-11.4821
احتساب	-11.4822
ستاد	-11.4822
▁سرور	-11.4823
▁اعطي	-11.4824
▁فدان	-11.4826
▁المستهلكين	-11.4827
▁يقود	-11.4828
▁بنجاح	-11.4829
▁بالمسجد	-11.483
▁التصويت	-11.4837
روافد	-11.4847
▁مخيم	-11.4848
لتنمية	-11.4849
▁السبعينيات	-11.4852
▁الاعشاب	-11.4852
نهايي	-11.4856
تيكو	-11.4857
▁موهل	-11.4857
▁وكندا	-11.4859
التقاط	-11.4865
واشنطن	-11.4867
ضابط	-11.4867
الكثير	-11.487
سبتمبر	-11.487
▁يوضع	-11.4872
وافقت	-11.4872
يحيط	-11.4875
▁اتخذ	-11.4876
▁ببرنامج	-11.4878
▁التوجه	-11.488
▁360	-11.488
▁المواصلات	-11.4882
▁والتطور	-11.4883
▁تاين	-11.4885
▁الخشبية	-11.4885
سميت	-11.4886
▁التباين	-11.4888
▁للبطولة	-11.4892
استكشاف	-11.4892
▁المذيع	-11.4894
منزل	-11.4894
▁العباس	-11.4895
▁بالموقع	-11.49
So	-11.4903
▁السياح	-11.4905
▁ترجع	-11.4906
▁شيدت	-11.4908
ملاحظة	-11.4908
مبلغ	-11.4911
▁كافية	-11.4911
▁البقاء	-11.4912
اجمل	-11.4916
الموارد	-11.4917
▁مقام	-11.4918
بنادق	-11.492
▁الهول	-11.4921
▁للموسسة	-11.4929
تعارض	-11.4932
▁والمساعدة	-11.4933
▁1.2	-11.4939
▁اعتقال	-11.494
▁امور	-11.4942
▁واخو	-11.4943
فاعلات	-11.4947
▁سلس	-11.4951
▁والدتها	-11.4954
طاط	-11.4954
سحالي	-11.4956
▁الخيالية	-11.4956
▁تلال	-11.4959
▁سوفت	-11.4959
DB	-11.496
ضاري	-11.496
▁مختص	-11.496
▁الجداول	-11.4963
2020	-11.4964
▁زوار	-11.497
نسج	-11.4975
▁لطلب	-11.4983
هارد	-11.4986
▁سمر	-11.4986
▁وبسع	-11.4991
▁(26	-11.4992
سلك	-11.5
▁الصحراوي	-11.5002
▁الحراري	-11.501
▁استر	-11.5017
مبني	-11.502
▁كلغ	-11.502
1975	-11.5025
شهداء	-11.5026
▁زراعي	-11.5028
▁جيني	-11.5029
900	-11.5033
المانيا	-11.5041
احصاءات	-11.5045
ذوب	-11.5047
▁الموس	-11.5048
وزير	-11.507
▁المحرك	-11.5076
تاكل	-11.5076
1987	-11.5081
ng	-11.5085
▁نحت	-11.5086
▁المنشا	-11.509
لفنادق	-11.5093
▁450	-11.5094
تمدد	-11.5094
تبني	-11.5095
▁متصل	-11.5096
نجز	-11.5099
▁عمد	-11.51
يعمل	-11.5101
اييل	-11.5106
كشاف	-11.5107
لتسويق	-11.5111
1981	-11.5123
▁المنزلي	-11.5127
к	-11.5129
٣	-11.5129
ھ	-11.5129
▁World	-11.5129
▁الاسكتلندي	-11.5129
▁الكومنولث	-11.5129
▁نيوكاسل	-11.5129
كولورادو	-11.5129
▁ايرباص	-11.5129
▁زملايه	-11.5129
▁موتورز	-11.5129
▁الترشيح	-11.5129
▁المدفوع	-11.5129
▁لاختبار	-11.5129
▁مومباي	-11.5129
ناسيونال	-11.5129
▁اسطواني	-11.5129
▁للمسلمين	-11.5129
▁الوديعة	-11.5129
▁تصغير	-11.5129
▁والثلاثين	-11.5129
▁المفوض	-11.5129
▁المتطرف	-11.5129
▁الاوليمبية	-11.5129
▁بيركلي	-11.5129
▁الناشط	-11.5129
▁والتطبيقية	-11.5129
وظيفته	-11.5129
الاعتداء	-11.5129
▁يفصل	-11.513
▁ملبورن	-11.513
▁السيليكون	-11.513
▁متطورة	-11.513
▁تحكيم	-11.513
▁يدويا	-11.513
حذف	-11.513
▁الابواب	-11.513
▁الحنبلي	-11.513
▁سبورتينغ	-11.513
▁الزمالك	-11.513
تساقط	-11.513
▁التكرار	-11.513
▁ادرجت	-11.5131
▁بتمويل	-11.5131
▁وتشكيلات	-11.5131
/7/	-11.5131
ماكولات	-11.5131
▁طابقين	-11.5131
▁تبالة	-11.5131
▁تورنغ	-11.5132
▁والنساء	-11.5132
▁بالمغرب	-11.5132
▁الخيمة	-11.5132
▁مدراء	-11.5132
يلعب	-11.5133
▁الموجهة	-11.5133
▁جلسات	-11.5133
سوريا	-11.5133
▁الكعبة	-11.5134
▁المنتصف	-11.5134
▁1372	-11.5135
▁الكوارث	-11.5135
▁المجهر	-11.5135
▁1902	-11.5135
▁يتراس	-11.5136
نقاط	-11.5136
▁والتصنيع	-11.5136
▁الدواء	-11.5137
▁الارتباط	-11.5137
علاقة	-11.5138
تخفيض	-11.5138
TE	-11.5139
يكمل	-11.5141
مراحل	-11.5141
▁جهد	-11.5142
▁واعلامي	-11.5142
▁الزايد	-11.5142
▁القادة	-11.5143
▁مانع	-11.5143
مستوطنات	-11.5144
▁حسان	-11.5144
المرتفعات	-11.5144
▁عطية	-11.5145
▁الانباء	-11.5146
Inter	-11.5146
▁وسكن	-11.5147
▁اثبات	-11.5147
▁الخريف	-11.5147
▁التبريد	-11.5149
▁اداب	-11.5149
فحم	-11.5155
▁الاستعمار	-11.5155
كتلة	-11.5157
▁شارل	-11.5159
▁بالوكالة	-11.516
▁اعترف	-11.516
مقومات	-11.516
ليلي	-11.5162
▁فاعل	-11.5163
▁اوضح	-11.5163
▁المراد	-11.5164
▁ويذكر	-11.5166
▁المكلف	-11.5167
▁ينشر	-11.5167
ساحل	-11.5167
▁القطبية	-11.5169
▁ترفيهية	-11.5169
طيور	-11.5169
▁والعلماء	-11.5169
▁نجديون	-11.517
▁زامبيا	-11.5172
▁زمان	-11.5173
▁نمت	-11.5174
▁تساهم	-11.5175
▁بالطريق	-11.5176
▁وتدير	-11.5184
FA	-11.5184
فقر	-11.5185
▁الدعوي	-11.5186
▁العمودي	-11.5187
جالية	-11.5188
▁والتكنولوجي	-11.5188
▁تقود	-11.5189
▁ايطاليون	-11.5194
▁بلاك	-11.5195
▁(21	-11.5195
▁متوقع	-11.5201
▁يرمز	-11.5201
▁ومعلم	-11.5204
▁استضاف	-11.5205
▁التوثيق	-11.5205
▁للقضاء	-11.5205
عزيز	-11.5206
▁التلوث	-11.5207
اثناء	-11.5211
▁معاوية	-11.5212
▁تكتب	-11.5213
▁البروفيسور	-11.5214
يمكن	-11.5215
▁تعين	-11.5217
▁الفصول	-11.5218
▁عباد	-11.5219
▁ثقافيا	-11.5219
▁الريث	-11.522
▁يديه	-11.5221
▁موثر	-11.5223
قراط	-11.5224
بقايا	-11.5225
صندوق	-11.5226
▁بمستوي	-11.5228
▁والشبكات	-11.5233
▁ملازم	-11.5234
▁والاقتصادي	-11.5234
▁النايب	-11.5238
المهارات	-11.524
▁الاستعلام	-11.5243
▁فلاح	-11.5245
▁اختصاصات	-11.5247
▁التفاعلية	-11.525
▁اخبارية	-11.5251
ron	-11.5255
▁للاذاعة	-11.5262
الهند	-11.5265
سليمان	-11.5266
تتناول	-11.5269
▁الصومالية	-11.5273
▁الكشفية	-11.5274
▁اوامر	-11.5275
▁نسبته	-11.5276
فيديو	-11.5281
علماء	-11.5283
▁الطرفين	-11.529
لبس	-11.5292
▁ايلي	-11.5297
خوض	-11.5298
تسوية	-11.5302
لجهات	-11.531
▁ارس	-11.5313
▁قبر	-11.5316
▁جيولوجي	-11.5325
▁خمسين	-11.5327
▁شجر	-11.5328
▁تحف	-11.5332
▁الاردنيين	-11.5335
▁ارسلت	-11.5336
▁ومنع	-11.5338
▁4000	-11.534
;"	-11.5344
جرف	-11.5347
▁المحافظ	-11.5348
▁الموالي	-11.535
▁اختف	-11.5352
▁البرق	-11.5354
▁واثر	-11.5354
فندق	-11.5358
▁الضويي	-11.5359
▁10000	-11.5362
ناقص	-11.5363
▁محمول	-11.5363
▁Li	-11.5363
▁لاجل	-11.5365
▁زمني	-11.5376
▁مهاجم	-11.5379
طاس	-11.5379
▁خيار	-11.538
▁خول	-11.5382
▁الالمان	-11.5386
▁رفضت	-11.5387
▁الواصل	-11.5397
نخفض	-11.5398
بروفيسور	-11.5398
تعود	-11.5405
-2013	-11.5406
لازمة	-11.5408
تمديد	-11.5413
▁بوليفي	-11.5416
الغطاء	-11.5425
▁القاسم	-11.5425
مسارات	-11.543
ton	-11.5433
ناصر	-11.5435
▁تخص	-11.5436
ريتش	-11.5438
▁هند	-11.544
الملك	-11.5446
▁تايم	-11.545
▁نجل	-11.5451
رويس	-11.5457
ime	-11.546
▁الجميل	-11.5467
▁للمجموعة	-11.5471
صحفيين	-11.5472
لاختيار	-11.5474
القرن	-11.5475
▁الموشر	-11.5479
الجزاير	-11.5483
الانسان	-11.5484
с	-11.5486
Google	-11.5486
بنسيلفانيا	-11.5486
پ	-11.5486
ڤ	-11.5486
←	-11.5486
▁البهاكله	-11.5486
▁التذكاري	-11.5486
▁الجاهزة	-11.5486
▁الضيافة	-11.5486
▁انطونيو	-11.5486
▁اوبلاست	-11.5486
▁قابضة	-11.5486
▁كامبردج	-11.5486
▁لاستقبال	-11.5486
'''	-11.5486
▁بالتعليم	-11.5486
▁ضواحي	-11.5486
▁النيجيري	-11.5486
▁تجربته	-11.5486
▁العرعر	-11.5486
▁والتكريمات	-11.5486
بكالوريس	-11.5486
▁الجفالي	-11.5486
▁زيارته	-11.5486
▁حكومات	-11.5486
▁رسالته	-11.5486
▁وانواع	-11.5486
▁اخترع	-11.5486
▁الكرواتي	-11.5486
▁ترامب	-11.5486
▁جاهز	-11.5486
تفاوض	-11.5486
▁رياسته	-11.5486
▁المستعملة	-11.5487
▁المصايدة	-11.5487
▁كارولينا	-11.5487
▁المصلحة	-11.5487
▁لينيوس	-11.5487
ميكروبيولوجي	-11.5487
▁بحاج	-11.5487
▁اوسلو	-11.5487
▁والعسكري	-11.5487
خصوبة	-11.5487
▁العسيري	-11.5487
حضانة	-11.5488
▁خصوصية	-11.5488
▁اوهايو	-11.5488
▁المواسم	-11.5488
حوكمة	-11.5489
▁بترول	-11.5489
▁غراندي	-11.5489
▁الاعارة	-11.5489
▁يواجه	-11.5489
▁احترف	-11.549
▁بمرور	-11.549
▁الجنايية	-11.549
▁انتهاك	-11.5491
▁غاما	-11.5491
▁الحايز	-11.5491
ذبح	-11.5491
مخاوف	-11.5492
▁1903	-11.5492
▁والصيانة	-11.5492
▁السايق	-11.5492
▁الوفاء	-11.5492
▁1441	-11.5492
▁ملياردير	-11.5492
▁جيزان	-11.5493
▁تعلو	-11.5493
تنشيط	-11.5494
▁جلسة	-11.5494
▁صعود	-11.5495
▁رباح	-11.5495
فولاذ	-11.5495
lar	-11.5495
▁الاعدام	-11.5495
▁الانتخابية	-11.5497
▁ونشرت	-11.5497
▁الواحة	-11.5498
▁جسور	-11.5498
▁المويه	-11.5499
▁السادة	-11.55
▁الشفا	-11.55
▁صافي	-11.55
▁جدد	-11.55
البرودة	-11.5501
▁كمستشار	-11.5502
▁نظريات	-11.5502
▁باربع	-11.5503
▁واطلاق	-11.5503
▁نمساويون	-11.5503
اجابة	-11.5505
▁للشحن	-11.5505
▁الانضمام	-11.5505
رموز	-11.5506
▁متزايد	-11.5507
▁الخريجين	-11.5508
▁للدكتور	-11.5511
▁المسبق	-11.5513
▁ونظرا	-11.5513
▁المطبخ	-11.5514
لتف	-11.5514
▁واصدر	-11.5516
▁للبنك	-11.5517
▁مجسم	-11.5518
▁التحسين	-11.5519
▁وليام	-11.552
▁المفتاح	-11.5521
▁الموقت	-11.5521
هواة	-11.5523
▁يمنع	-11.5523
▁محقق	-11.5525
استقال	-11.5526
▁دوس	-11.5526
▁البلازما	-11.5526
▁الزكاة	-11.5526
تيسير	-11.5528
محافظات	-11.5528
▁للعمليات	-11.5528
صواريخ	-11.5529
غزو	-11.5531
▁النهر	-11.5531
▁يبقي	-11.5538
شفافية	-11.5539
1%	-11.5542
▁فصيل	-11.5544
▁للبلاد	-11.5544
Do	-11.5545
▁الثقافات	-11.5546
▁التوصيل	-11.5551
▁الضباط	-11.5552
لكثير	-11.5552
الممرات	-11.5552
▁مطير	-11.5553
قوز	-11.5554
▁لتشغيل	-11.5555
▁احسن	-11.5557
▁الخصوص	-11.5564
▁المنشورات	-11.5568
▁يحضر	-11.5575
▁والرياضية	-11.5576
▁الاستشعار	-11.5582
▁النزاع	-11.5583
▁تقيم	-11.5584
▁والقطاع	-11.5586
▁السرب	-11.5586
▁المورخين	-11.5588
جزيي	-11.5589
▁اختارت	-11.5591
لسياسة	-11.5592
سراج	-11.5594
▁السعر	-11.5594
سقوط	-11.5594
ماساتشوستس	-11.5594
9%	-11.5602
▁نسخته	-11.5604
▁سلالات	-11.5607
▁الحصون	-11.5608
▁الهرم	-11.5609
▁المميزات	-11.561
▁ادين	-11.561
ابريل	-11.5612
▁ضف	-11.5617
▁جرش	-11.5623
حشد	-11.5633
▁مولودي	-11.5633
دكتور	-11.5638
الاطلاع	-11.5638
TL	-11.5645
▁للفن	-11.5645
▁للجمهور	-11.5647
اينز	-11.5654
▁مساهم	-11.5656
غضب	-11.5658
مستجد	-11.5658
FS	-11.5661
▁الجانبية	-11.5664
ابراج	-11.5668
▁المنيا	-11.5673
تدافع	-11.5675
فوهة	-11.5678
ضطر	-11.5678
عدام	-11.5687
▁750	-11.5704
▁مرفق	-11.571
▁وذكرت	-11.5712
▁مكن	-11.572
جغرافيا	-11.5722
اي‌	-11.5724
▁الاذاعي	-11.5729
▁الهاشمي	-11.5729
▁هندسي	-11.5732
حديد	-11.5733
▁مولود	-11.5734
▁المسلح	-11.5736
▁صخري	-11.5737
مضت	-11.5739
رياض	-11.5742
▁المضاد	-11.5754
ستشهد	-11.5754
السويد	-11.5763
▁ناي	-11.5767
فيضانات	-11.5772
بندقية	-11.5773
ارينا	-11.5776
مرفا	-11.5782
▁السمر	-11.5788
▁الاشتراكي	-11.5801
بلاء	-11.5806
اصابته	-11.5814
▁1200	-11.5817
▁هولندي	-11.582
▁التزام	-11.5825
▁تتج	-11.583
تزايد	-11.5831
تعتمد	-11.5834
▁سلف	-11.5843
فاعلية	-11.5843
لتعداد	-11.5846
▁جعلت	-11.5847
لوحدات	-11.5848
مقاعد	-11.5854
▁اونتاريو	-11.5857
▁شنغهاي	-11.5857
▁كارلسروه	-11.5857
▁للتطبيق	-11.5857
▁مصفوفات	-11.5857
تصويب	-11.5857
▁2021–22	-11.5857
▁اطروحته	-11.5857
▁المفاتيح	-11.5857
▁فانكوفر	-11.5857
نيوجيرسي	-11.5857
▁كوسوفو	-11.5857
▁الاحزاب	-11.5857
▁الحناكية	-11.5857
▁ومكاتب	-11.5857
▁واختبار	-11.5857
▁خوسيه	-11.5857
▁الثمانينيات	-11.5857
▁طولكرم	-11.5857
▁حسام	-11.5857
▁الجهراء	-11.5857
▁العبودي	-11.5857
▁بارسال	-11.5857
▁غذايي	-11.5857
▁وناشط	-11.5857
▁مونتريال	-11.5857
▁امدادات	-11.5857
▁تفصل	-11.5857
بالالمانية	-11.5857
▁للطرق	-11.5857
▁عاطف	-11.5857
▁تفاهم	-11.5857
▁الادريسي	-11.5857
▁رفحاء	-11.5857
▁اوباما	-11.5857
▁هانوفر	-11.5857
▁المغلقة	-11.5857
▁وروسيا	-11.5857
▁الجهني	-11.5857
▁واستطاع	-11.5857
▁والطالبات	-11.5857
▁المروحية	-11.5857
▁اوقاف	-11.5857
ازدياد	-11.5857
▁الادراك	-11.5857
▁تقرر	-11.5857
لاحياء	-11.5857
▁البكال	-11.5858
النواحي	-11.5858
▁يلقب	-11.5858
▁الوديان	-11.5858
▁غضون	-11.5858
▁(2014)	-11.5858
▁الالباني	-11.5859
▁اشترت	-11.5859
▁المنستير	-11.5859
▁والفعاليات	-11.5859
▁اختلف	-11.586
▁المشورة	-11.586
▁صحافة	-11.5861
▁ونجح	-11.5861
▁السدحان	-11.5861
▁قاتل	-11.5861
▁والطين	-11.5862
▁المطاف	-11.5862
▁بولندي	-11.5862
قاسم	-11.5862
▁التوحد	-11.5862
▁والكليات	-11.5863
وغرافيا	-11.5863
▁ميزاني	-11.5863
لتصدير	-11.5864
تتويج	-11.5864
▁تشييد	-11.5864
▁طريف	-11.5864
ايتلاف	-11.5864
▁البيشي	-11.5865
au	-11.5865
▁1383	-11.5866
صدمة	-11.5868
توابع	-11.5868
ذروة	-11.5868
▁سلع	-11.5869
▁للكهرباء	-11.5871
▁الحاير	-11.5871
▁الارشاد	-11.5871
▁شداد	-11.5872
▁1370	-11.5872
▁رايع	-11.5873
▁بقيق	-11.5873
▁جملة	-11.5874
شبيه	-11.5875
▁المحاور	-11.5875
ترقيم	-11.5877
▁الدروس	-11.5878
▁للعراق	-11.5879
▁القفل	-11.588
▁الانتحار	-11.5882
استمرار	-11.5883
▁نصيف	-11.5884
▁والوثايق	-11.5885
New	-11.5886
تسجل	-11.5886
▁اسراييليون	-11.5888
خصايص	-11.5889
▁والاهلي	-11.589
▁باكستانيون	-11.589
▁كلاود	-11.5891
▁بالانترنت	-11.5892
تبدا	-11.5892
▁سعته	-11.5893
علامة	-11.5894
▁المشفر	-11.5895
مستقل	-11.5896
محيط	-11.5897
شريحة	-11.5898
▁لحزب	-11.5898
مباريات	-11.5901
تراجم	-11.5902
▁عبور	-11.5902
دواير	-11.5902
▁الخصوصية	-11.5903
▁بالعاصمة	-11.5904
▁يستقبل	-11.5906
▁العكسي	-11.5907
▁La	-11.5907
التشريعات	-11.5909
ترميز	-11.5913
قبول	-11.5913
▁ايرس	-11.5914
▁ينسب	-11.5917
▁الجنسي	-11.5918
احجار	-11.5919
▁175	-11.5923
▁والمعرفة	-11.5924
▁لجعل	-11.5926
وجبة	-11.5928
▁التشكيليين	-11.5928
▁والسلامة	-11.5928
gen	-11.5935
▁التهديدات	-11.5936
▁مقبل	-11.5938
روبرت	-11.5938
لقاحات	-11.5939
▁والتواصل	-11.5941
▁المشرق	-11.5941
شقق	-11.5942
▁اذاعية	-11.5942
Sc	-11.5943
▁توثيقية	-11.5944
▁صغره	-11.5945
▁الطهي	-11.5948
1974	-11.5949
طفاء	-11.5951
▁1.1	-11.5954
▁المدربين	-11.5961
▁المعدة	-11.5963
4.5	-11.5964
▁سلمي	-11.5969
صهر	-11.5971
▁يصنع	-11.5971
▁منهجية	-11.5972
صعوبة	-11.5976
▁لتشكيل	-11.5977
اغلاق	-11.5977
▁للقرية	-11.5977
فوس	-11.5978
سويسرا	-11.5979
المناصب	-11.5982
▁سراي	-11.5986
ملفات	-11.5991
▁المكثف	-11.5994
2003	-11.5996
عجز	-11.5998
▁اجا	-11.6003
▁البيانية	-11.6006
▁رمل	-11.6018
▁الاخلاقي	-11.6026
فصول	-11.6026
6%	-11.6028
▁للبيع	-11.6029
اهميتها	-11.6031
نبثق	-11.6032
EP	-11.6039
▁عواد	-11.6048
▁الفايد	-11.6049
فتوي	-11.6051
ناحي	-11.6054
▁اوجه	-11.6055
▁قريش	-11.6059
▁يعين	-11.6061
شوان	-11.6065
شيع	-11.6068
مصدر	-11.6079
▁Qu	-11.6089
قدوم	-11.6089
خماسي	-11.609
ملتقي	-11.609
لمعلومات	-11.6099
واكب	-11.6103
▁دوران	-11.6104
▁التكيف	-11.6108
▁اشارت	-11.6108
مسح	-11.611
▁اللاسلكي	-11.6113
▁الثابت	-11.6113
▁المحدد	-11.6118
▁اللازم	-11.612
ثقل	-11.6126
▁رتب	-11.6128
يوفر	-11.6141
▁المخصص	-11.6143
▁اريك	-11.6145
عثمان	-11.6157
▁المحدود	-11.6158
▁البيرو	-11.6168
عيادة	-11.6171
▁اراب	-11.6175
بدون	-11.6178
▁العمود	-11.6181
لاسماء	-11.6187
صوفيا	-11.6189
▁Br	-11.6196
▁ترفيه	-11.6197
نسيج	-11.6203
▁الرملي	-11.6215
ريتز	-11.6221
▁كورت	-11.6223
لضعف	-11.6226
▁الميكرو	-11.6231
تحكي	-11.6232
لانتقال	-11.6235
▁سلو	-11.6236
▁جام	-11.6236
▁كيك	-11.6237
الغاء	-11.624
▁International	-11.6241
▁الاجسام	-11.6241
▁الخثعمي	-11.6241
▁الزهايمر	-11.6241
▁القبرصي	-11.6241
▁المكتوبة	-11.6241
▁اليزابيث	-11.6241
▁بتطبيق	-11.6241
▁برشلونة	-11.6241
▁غلاسكو	-11.6241
▁فيلادلفيا	-11.6241
▁ويسكونسن	-11.6241
▁الضجيج	-11.6241
▁المساواة	-11.6241
تركمانستان	-11.6241
▁اوكسفورد	-11.6241
▁بمدارس	-11.6241
▁المنافذ	-11.6241
▁اوغندا	-11.6241
▁وثقافية	-11.6241
▁ارمينيا	-11.6241
▁رونالد	-11.6241
▁لتمكين	-11.6241
موسوعات	-11.6241
▁الحايط	-11.6241
▁ومدارس	-11.6241
اختطاف	-11.6241
▁المشايخ	-11.6241
▁ارباح	-11.6241
▁جهينة	-11.6241
▁للباحثين	-11.6241
اقتحام	-11.6241
▁خرساني	-11.6241
دردشة	-11.6241
▁رماح	-11.6241
▁ودبلوماسي	-11.6241
▁الشتوية	-11.6241
▁التلفاز	-11.6241
▁وشقيق	-11.6241
▁اجانب	-11.6242
▁تسقط	-11.6242
▁بروناي	-11.6242
▁الغنايي	-11.6242
▁بالمياه	-11.6242
▁كنتاكي	-11.6242
▁شراكات	-11.6242
احتوايه	-11.6242
▁الربحية	-11.6242
▁طريب	-11.6242
▁ظفار	-11.6242
▁وانتخب	-11.6242
▁المعتاد	-11.6242
▁(1997)	-11.6242
▁ماكسويل	-11.6242
تفاوت	-11.6243
▁يرسل	-11.6243
انعكاس	-11.6243
▁لتمويل	-11.6244
▁اخيرا	-11.6244
▁عايض	-11.6244
▁المنحوت	-11.6244
▁النواة	-11.6244
▁يونكس	-11.6245
الجرانيت	-11.6245
▁الشبيب	-11.6245
▁خضر	-11.6245
▁للبيية	-11.6245
▁الحمود	-11.6246
▁1923	-11.6246
▁ومعاهد	-11.6247
▁الطوال	-11.6247
▁مجاور	-11.6247
▁الاكتتاب	-11.6247
▁التنموي	-11.6248
مواضع	-11.6248
▁1906	-11.6248
بركلي	-11.6248
تجاه	-11.6249
▁جبريل	-11.6249
▁اعيان	-11.6249
جذاب	-11.6249
▁بلغراد	-11.625
▁انضمامه	-11.625
▁حصان	-11.625
لاحقا	-11.625
▁1369	-11.6251
▁جونسون	-11.6251
تخريج	-11.6252
▁ابجد	-11.6252
▁مجرة	-11.6252
ميادين	-11.6255
▁التغذية	-11.6255
1969	-11.6255
يشهد	-11.6257
▁واصول	-11.6257
اثاث	-11.6257
▁الصغري	-11.6258
اليابان	-11.6262
▁واداري	-11.6263
▁درمان	-11.6264
▁كهف	-11.6265
▁للموسيقي	-11.6265
▁الانوار	-11.6265
▁اشترك	-11.6265
▁نزار	-11.6265
▁الاشهر	-11.6266
نكس	-11.6266
▁240	-11.6266
▁مقبول	-11.6267
▁ويشارك	-11.6268
▁والعمليات	-11.6269
▁للموقع	-11.627
▁طبعة	-11.6271
▁واصلاح	-11.6271
▁المضغوط	-11.6272
▁غولد	-11.6272
▁والحوسبة	-11.6273
▁والموسيقي	-11.6274
▁والمحيط	-11.6277
▁صلات	-11.6278
تزود	-11.6278
▁التقديم	-11.6279
بطارية	-11.6279
رايحة	-11.628
▁بالانقراض	-11.628
▁المسطح	-11.6282
كفاية	-11.6284
▁للحياة	-11.6284
▁القوس	-11.6286
▁شدة	-11.6288
عوامل	-11.6288
▁للمشاريع	-11.629
▁كامير	-11.6291
▁الكويكبات	-11.6291
▁المصورة	-11.6293
▁المدمج	-11.6296
▁يوضح	-11.6296
اللجنة	-11.6299
▁ثمودية	-11.6299
▁الجيري	-11.6302
▁ايقاع	-11.6303
▁سلوفينيا	-11.6303
وخذ	-11.6304
▁الجندي	-11.6304
خيط	-11.6305
ترينيداد	-11.6306
▁شاهين	-11.6308
▁بالمانيا	-11.631
▁اليهودية	-11.6312
تبين	-11.6313
▁للتحكم	-11.6315
▁والدعم	-11.6317
▁زيدان	-11.6317
▁يحك	-11.6318
▁وولف	-11.6319
مضيق	-11.6319
▁مجموعته	-11.6322
▁والالعاب	-11.6324
▁التشيكية	-11.6328
▁للعيش	-11.6332
بنوك	-11.6332
سلاف	-11.6335
1977	-11.6336
▁مصب	-11.6336
يثان	-11.634
▁لمرض	-11.6343
▁والدولي	-11.6344
▁المنطقية	-11.6346
خلوة	-11.6347
▁تمرير	-11.6347
▁الطف	-11.6348
سيتم	-11.6349
الكسي	-11.6358
▁هزم	-11.636
فلو	-11.6362
▁تضع	-11.6364
فرط	-11.6369
اسعد	-11.637
her	-11.6371
▁ذاك	-11.6372
علامات	-11.6376
دواوين	-11.6378
صالون	-11.6378
اغسطس	-11.6379
البرمجيات	-11.6383
رسوميات	-11.6386
▁ماضي	-11.6387
المساهمة	-11.6389
الهييات	-11.6394
نطبق	-11.6397
سرقة	-11.6398
▁المفقود	-11.6398
الثمودية	-11.6399
جريان	-11.6401
▁واجب	-11.6407
▁فوري	-11.6409
زوارق	-11.6412
عذب	-11.6417
لمزيد	-11.6417
▁خدمته	-11.6422
استعان	-11.6429
مقهي	-11.6431
▁الرمح	-11.6432
▁للادب	-11.6438
توايم	-11.644
رفد	-11.6443
يشرف	-11.6443
▁ميكرو	-11.6451
جيز	-11.6459
تطابق	-11.646
▁الفوري	-11.6473
▁الحاد	-11.648
مغناطيسية	-11.648
وعد	-11.6481
فيز	-11.6491
▁صنفت	-11.6492
▁امتحان	-11.6494
منتديات	-11.6501
▁القطب	-11.6504
اجلاء	-11.651
ger	-11.6512
وحش	-11.6512
▁عشوايي	-11.6513
يساوي	-11.6519
▁ضويي	-11.6521
غاثة	-11.6522
وصاف	-11.6522
ترابط	-11.6523
▁بكونه	-11.6527
▁القليل	-11.6528
▁والصحف	-11.653
ندوات	-11.6532
▁وانجب	-11.6536
حامية	-11.6537
رلين	-11.654
▁850	-11.6541
▁رمزي	-11.6541
▁سبل	-11.6556
▁الجيني	-11.6559
▁المقدم	-11.6561
صباح	-11.6566
وكان	-11.6567
▁المتخصص	-11.6567
جرعة	-11.6572
▁النحت	-11.6573
توثيق	-11.658
1978	-11.6582
ral	-11.6583
شهادة	-11.6587
TU	-11.6589
▁الاحتراف	-11.6597
▁كروي	-11.6606
▁كامب	-11.6614
كشوف	-11.6622
عبادة	-11.6625
▁للبلد	-11.6631
مسمي	-11.6632
لحضور	-11.6633
▁كيد	-11.6635
افتراض	-11.6635
▁نيس	-11.6636
~	-11.6641
نيومكسيكو	-11.6641
▁Group	-11.6641
▁National	-11.6641
▁استحواذ	-11.6641
▁الاختراق	-11.6641
▁البرونزية	-11.6641
▁الشنقيطي	-11.6641
▁الممتلكات	-11.6641
▁ايسلندا	-11.6641
▁ديبورتيف	-11.6641
▁الكولومبي	-11.6641
▁خضوري	-11.6641
▁استرليني	-11.6641
▁الارباح	-11.6641
▁الانقلاب	-11.6641
▁البقيع	-11.6641
تفكك	-11.6641
▁العذراء	-11.6641
▁المكتشف	-11.6641
▁التلقايي	-11.6641
▁الحقايق	-11.6641
▁للافلام	-11.6641
▁حقايق	-11.6641
▁لتاسيس	-11.6641
▁المصمك	-11.6641
▁زلزال	-11.6641
بورتوريكو	-11.6641
تلفزة	-11.6641
▁المعتدل	-11.6641
▁ابتكر	-11.6641
▁سواحل	-11.6641
▁خصبة	-11.6641
▁للزوار	-11.6641
▁والباحثين	-11.6641
▁الشراكات	-11.6641
▁يصنف	-11.6641
▁الغابون	-11.6641
▁الضيوف	-11.6641
▁والمحلية	-11.6641
▁الخصم	-11.6641
▁وخسر	-11.6642
▁اجواء	-11.6642
▁جونيور	-11.6642
▁المرخصة	-11.6642
▁كوفيد	-11.6642
محاذاة	-11.6642
▁لتصميم	-11.6642
▁عردة	-11.6642
▁ناشية	-11.6642
▁سفح	-11.6642
▁البلغاري	-11.6642
▁(2001)	-11.6642
▁موجز	-11.6642
▁والنقوش	-11.6642
__	-11.6642
▁(2000)	-11.6642
▁لموسم	-11.6642
▁مفصل	-11.6643
▁الخطوات	-11.6643
▁زهران	-11.6643
▁للطلبة	-11.6643
▁الفيفا	-11.6643
▁(2016)	-11.6643
شغف	-11.6643
▁مضيف	-11.6643
▁منتشرة	-11.6643
▁الحصين	-11.6643
▁كريستيان	-11.6644
اعصاب	-11.6644
▁اخطار	-11.6644
▁مزايا	-11.6644
▁المشروب	-11.6644
▁اسيلة	-11.6644
▁بجودة	-11.6644
▁الدنيا	-11.6644
▁غيلان	-11.6645
▁تنزيل	-11.6645
▁وبيانات	-11.6646
لالة	-11.6646
▁يزور	-11.6646
press	-11.6646
▁شهاب	-11.6647
▁ناجي	-11.6648
▁دالاس	-11.6648
▁للاسلام	-11.6648
اسطورة	-11.6649
▁وتجارة	-11.6649
تدبير	-11.6649
▁جينوم	-11.6649
▁اتمام	-11.665
▁التوظيف	-11.665
▁اربيل	-11.6651
▁التعادل	-11.6651
▁كريست	-11.6652
▁ومزارع	-11.6652
▁واكد	-11.6653
▁النعام	-11.6654
▁التنفس	-11.6655
▁ماركوس	-11.6655
▁حصار	-11.6655
استراحة	-11.6656
▁1896	-11.6656
▁سيراليوني	-11.666
▁البستان	-11.666
▁نسوي	-11.6662
▁لاربع	-11.6662
الملاريا	-11.6662
▁الاقارب	-11.6662
▁روبن	-11.6663
▁المقبول	-11.6663
▁802	-11.6663
▁1360	-11.6663
▁الخبير	-11.6665
▁صوفي	-11.6668
▁ويبدو	-11.667
تعذيب	-11.667
تلوث	-11.6671
▁قرش	-11.6672
▁ويصبح	-11.6674
▁مازن	-11.6677
▁عميل	-11.6682
▁لاعداد	-11.6683
▁للرياضيات	-11.6685
▁ينقل	-11.6687
▁اجتمع	-11.6688
▁حزبيا	-11.6688
▁السبل	-11.6689
▁الامكان	-11.6689
▁للاكاديمية	-11.6689
▁تمهيد	-11.669
بساط	-11.669
▁ويقول	-11.669
فخر	-11.6691
▁قارة	-11.6691
SF	-11.6692
▁سكت	-11.6692
▁الصياد	-11.6695
▁عمومية	-11.6696
▁عصبية	-11.6697
لاقمار	-11.6698
▁للاشراف	-11.6698
▁يكشف	-11.67
▁اتلي	-11.6703
▁يبحث	-11.6704
▁سبيس	-11.6705
غنم	-11.6707
فجوة	-11.6711
/13	-11.6711
سباق	-11.6713
▁مسافر	-11.6713
▁Po	-11.6714
▁للشاعر	-11.6716
معيار	-11.6717
لتغذية	-11.6717
غرق	-11.672
▁للمدن	-11.6723
متوافقة	-11.6732
▁احي	-11.6735
▁المتواجد	-11.6737
▁ادو	-11.6743
▁التنس	-11.6744
نخرط	-11.6745
▁يدعو	-11.6749
خاطب	-11.6758
طهي	-11.6762
▁نبت	-11.6763
لامانة	-11.6767
▁الاطر	-11.6771
ملحقات	-11.6777
▁سنتر	-11.6778
▁والجبل	-11.6782
سمان	-11.6783
لدخول	-11.6791
حنين	-11.6793
اكتوبر	-11.6796
▁اليغري	-11.68
ka	-11.6806
كويت	-11.6809
gu	-11.6811
▁ابرزهم	-11.6816
▁تعقد	-11.682
▁1300	-11.6823
لجبيل	-11.6826
OD	-11.6831
تشير	-11.6832
▁مويد	-11.6832
محاولات	-11.6833
▁الكود	-11.6834
غازي	-11.6849
▁بمجموع	-11.6852
▁المولي	-11.6853
▁وغرف	-11.6853
Jo	-11.6856
▁انطلاقته	-11.6857
لقانون	-11.6861
تغلب	-11.6866
عايلة	-11.6866
▁العشري	-11.6876
▁دبا	-11.6878
xx	-11.6881
مرادف	-11.6883
▁والموسس	-11.6891
الموسم	-11.6893
▁280	-11.6893
▁1.3	-11.6901
▁السكني	-11.6931
▁لمواطني	-11.6931
▁الاشتراك	-11.6932
فاز	-11.6934
خيف	-11.6935
▁صيغ	-11.6941
▁العقيد	-11.6942
خازن	-11.6945
▁اتخذت	-11.6947
توتر	-11.6954
ممارسات	-11.6957
لذكاء	-11.6957
▁ونشاته	-11.6958
دماج	-11.6958
▁رطب	-11.6962
▁وتتم	-11.6963
▁الامتحان	-11.6965
محاصيل	-11.697
▁النقي	-11.6973
▁متابع	-11.6973
عراق	-11.6974
LL	-11.6979
▁سمن	-11.6982
متوفي	-11.6982
حوسبة	-11.6983
ريث	-11.6991
جراء	-11.6992
fa	-11.6998
▁الجاف	-11.6999
تشريعات	-11.7
مرير	-11.7002
لمختلف	-11.7005
عشرون	-11.7007
افسون	-11.7009
▁كمهندس	-11.7009
▁المحمي	-11.701
▁ماليزي	-11.7025
غسيل	-11.7033
[...]
