{
  "version": "1.0",
  "truncation": null,
  "padding": null,
  "added_tokens": [
    {
      "id": 0,
      "content": "[UNK]",
      "single_word": false,
      "lstrip": false,
      "rstrip": false,
      "normalized": false,
      "special": true
    },
    {
      "id": 1,
      "content": "[CLS]",
      "single_word": false,
      "lstrip": false,
      "rstrip": false,
      "normalized": false,
      "special": true
    },
    {
      "id": 2,
      "content": "[SEP]",
      "single_word": false,
      "lstrip": false,
      "rstrip": false,
      "normalized": false,
      "special": true
    },
    {
      "id": 3,
      "content": "[PAD]",
      "single_word": false,
      "lstrip": false,
      "rstrip": false,
      "normalized": false,
      "special": true
    },
    {
      "id": 4,
      "content": "[MASK]",
      "single_word": false,
      "lstrip": false,
      "rstrip": false,
      "normalized": false,
      "special": true
    }
  ],
  "normalizer": null,
  "pre_tokenizer": {
    "type": "Whitespace"
  },
  "post_processor": null,
  "decoder": null,
  "model": {
    "type": "BPE",
    "dropout": null,
    "unk_token": "[UNK]",
    "continuing_subword_prefix": null,
    "end_of_word_suffix": null,
    "fuse_unk": false,
    "byte_fallback": false,
    "ignore_merges": false,
    "vocab": {
      "[UNK]": 0,
      "[CLS]": 1,
      "[SEP]": 2,
      "[PAD]": 3,
      "[MASK]": 4,
      "!": 5,
      "\"": 6,
      "#": 7,
      "$": 8,
      "%": 9,
      "&": 10,
      "'": 11,
      "(": 12,
      ")": 13,
      "*": 14,
      "+": 15,
      ",": 16,
      "-": 17,
      ".": 18,
      "/": 19,
      "0": 20,
      "1": 21,
      "2": 22,
      "3": 23,
      "4": 24,
      "5": 25,
      "6": 26,
      "7": 27,
      "8": 28,
      "9": 29,
      ":": 30,
      ";": 31,
      "<": 32,
      "=": 33,
      ">": 34,
      "?": 35,
      "@": 36,
      "A": 37,
      "B": 38,
      "C": 39,
      "D": 40,
      "E": 41,
      "F": 42,
      "G": 43,
      "H": 44,
      "I": 45,
      "J": 46,
      "K": 47,
      "L": 48,
      "M": 49,
      "N": 50,
      "O": 51,
      "P": 52,
      "Q": 53,
      "R": 54,
      "S": 55,
      "T": 56,
      "U": 57,
      "V": 58,
      "W": 59,
      "X": 60,
      "Y": 61,
      "Z": 62,
      "[": 63,
      "\\": 64,
      "]": 65,
      "^": 66,
      "_": 67,
      "`": 68,
      "a": 69,
      "b": 70,
      "c": 71,
      "d": 72,
      "e": 73,
      "f": 74,
      "g": 75,
      "h": 76,
      "i": 77,
      "j": 78,
      "k": 79,
      "l": 80,
      "m": 81,
      "n": 82,
      "o": 83,
      "p": 84,
      "q": 85,
      "r": 86,
      "s": 87,
      "t": 88,
      "u": 89,
      "v": 90,
      "w": 91,
      "x": 92,
      "y": 93,
      "z": 94,
      "{": 95,
      "|": 96,
      "}": 97,
      "~": 98,
      "¡": 99,
      "¢": 100,
      "£": 101,
      "¤": 102,
      "¥": 103,
      "¦": 104,
      "§": 105,
      "¨": 106,
      "©": 107,
      "«": 108,
      "¬": 109,
      "®": 110,
      "¯": 111,
      "°": 112,
      "±": 113,
      "²": 114,
      "³": 115,
      "´": 116,
      "¶": 117,
      "·": 118,
      "¸": 119,
      "¹": 120,
      "»": 121,
      "½": 122,
      "¾": 123,
      "À": 124,
      "Ä": 125,
      "Å": 126,
      "É": 127,
      "Ð": 128,
      "Ö": 129,
      "×": 130,
      "Ø": 131,
      "Ü": 132,
      "ß": 133,
      "à": 134,
      "á": 135,
      "â": 136,
      "ä": 137,
      "å": 138,
      "ç": 139,
      "è": 140,
      "é": 141,
      "ê": 142,
      "í": 143,
      "ï": 144,
      "ð": 145,
      "ñ": 146,
      "ò": 147,
      "ó": 148,
      "ô": 149,
      "ö": 150,
      "÷": 151,
      "ø": 152,
      "ü": 153,
      "ý": 154,
      "ā": 155,
      "Ă": 156,
      "ă": 157,
      "Ą": 158,
      "ą": 159,
      "ć": 160,
      "Ď": 161,
      "ď": 162,
      "đ": 163,
      "ğ": 164,
      "ġ": 165,
      "ģ": 166,
      "ĥ": 167,
      "ħ": 168,
      "Ĩ": 169,
      "ī": 170,
      "į": 171,
      "İ": 172,
      "ı": 173,
      "Ĺ": 174,
      "Ļ": 175,
      "ļ": 176,
      "Ľ": 177,
      "ŀ": 178,
      "ń": 179,
      "ņ": 180,
      "ň": 181,
      "ŋ": 182,
      "Ō": 183,
      "ō": 184,
      "Ŏ": 185,
      "ŏ": 186,
      "Ő": 187,
      "ő": 188,
      "œ": 189,
      "Ŗ": 190,
      "ŗ": 191,
      "ř": 192,
      "ś": 193,
      "Ŝ": 194,
      "ş": 195,
      "Š": 196,
      "š": 197,
      "ţ": 198,
      "ŧ": 199,
      "ƈ": 200,
      "Ɛ": 201,
      "ƒ": 202,
      "ƥ": 203,
      "ƪ": 204,
      "Ǧ": 205,
      "Ǿ": 206,
      "ǿ": 207,
      "Ȭ": 208,
      "ȱ": 209,
      "Ɉ": 210,
      "ɉ": 211,
      "ɑ": 212,
      "ɱ": 213,
      "ʃ": 214,
      "ˆ": 215,
      "ˉ": 216,
      "ː": 217,
      "˘": 218,
      "˚": 219,
      "˛": 220,
      "̄": 221,
      "̅": 222,
      "̇": 223,
      "̋": 224,
      "̌": 225,
      "̐": 226,
      "̜": 227,
      "̝": 228,
      "̣": 229,
      "̥": 230,
      "̨": 231,
      "̩": 232,
      "̯": 233,
      "̲": 234,
      "̳": 235,
      "̴": 236,
      "̶": 237,
      "̷": 238,
      "͡": 239,
      "ά": 240,
      "έ": 241,
      "ή": 242,
      "ί": 243,
      "α": 244,
      "β": 245,
      "ε": 246,
      "η": 247,
      "ι": 248,
      "ξ": 249,
      "ρ": 250,
      "σ": 251,
      "υ": 252,
      "ω": 253,
      "ϋ": 254,
      "ό": 255,
      "ώ": 256,
      "Є": 257,
      "Ј": 258,
      "Ќ": 259,
      "Д": 260,
      "Я": 261,
      "в": 262,
      "е": 263,
      "з": 264,
      "и": 265,
      "к": 266,
      "м": 267,
      "н": 268,
      "с": 269,
      "т": 270,
      "я": 271,
      "ђ": 272,
      "є": 273,
      "ѕ": 274,
      "ј": 275,
      "ѵ": 276,
      "ғ": 277,
      "Ҝ": 278,
      "Ң": 279,
      "ӎ": 280,
      "ә": 281,
      "ֻ": 282,
      "ּ": 283,
      "־": 284,
      "ו": 285,
      "ט": 286,
      "פ": 287,
      "،": 288,
      "؛": 289,
      "؟": 290,
      "ء": 291,
      "آ": 292,
      "أ": 293,
      "ؤ": 294,
      "إ": 295,
      "ئ": 296,
      "ا": 297,
      "ب": 298,
      "ة": 299,
      "ت": 300,
      "ث": 301,
      "ج": 302,
      "ح": 303,
      "خ": 304,
      "د": 305,
      "ذ": 306,
      "ر": 307,
      "ز": 308,
      "س": 309,
      "ش": 310,
      "ص": 311,
      "ض": 312,
      "ط": 313,
      "ظ": 314,
      "ع": 315,
      "غ": 316,
      "ـ": 317,
      "ف": 318,
      "ق": 319,
      "ك": 320,
      "ل": 321,
      "م": 322,
      "ن": 323,
      "ه": 324,
      "و": 325,
      "ى": 326,
      "ي": 327,
      "ً": 328,
      "ٌ": 329,
      "ٍ": 330,
      "َ": 331,
      "ُ": 332,
      "ِ": 333,
      "ّ": 334,
      "ْ": 335,
      "ٓ": 336,
      "ٔ": 337,
      "٠": 338,
      "١": 339,
      "٢": 340,
      "٣": 341,
      "٤": 342,
      "٥": 343,
      "٦": 344,
      "٧": 345,
      "٨": 346,
      "٩": 347,
      "٪": 348,
      "٫": 349,
      "٬": 350,
      "٭": 351,
      "ٰ": 352,
      "ٱ": 353,
      "ٹ": 354,
      "ٺ": 355,
      "ٻ": 356,
      "ټ": 357,
      "ٽ": 358,
      "پ": 359,
      "ڀ": 360,
      "ڃ": 361,
      "چ": 362,
      "ڈ": 363,
      "ډ": 364,
      "ڌ": 365,
      "ږ": 366,
      "ژ": 367,
      "ښ": 368,
      "ڛ": 369,
      "ڜ": 370,
      "ڣ": 371,
      "ڤ": 372,
      "ک": 373,
      "ڪ": 374,
      "ڬ": 375,
      "گ": 376,
      "ڳ": 377,
      "ڵ": 378,
      "ڶ": 379,
      "ڷ": 380,
      "ڼ": 381,
      "ھ": 382,
      "ہ": 383,
      "ۃ": 384,
      "ۆ": 385,
      "ۈ": 386,
      "ۉ": 387,
      "ۊ": 388,
      "ۋ": 389,
      "ی": 390,
      "ے": 391,
      "۔": 392,
      "ۖ": 393,
      "ۗ": 394,
      "ۚ": 395,
      "ۣ": 396,
      "ۦ": 397,
      "۩": 398,
      "۰": 399,
      "۱": 400,
      "۲": 401,
      "۶": 402,
      "ۼ": 403,
      "۾": 404,
      "॥": 405,
      "ஐ": 406,
      "ஓ": 407,
      "ஜ": 408,
      "ಠ": 409,
      "฿": 410,
      "๑": 411,
      "๓": 412,
      "ღ": 413,
      "ᗩ": 414,
      "ᗰ": 415,
      "ᶤ": 416,
      "Ḋ": 417,
      "ḯ": 418,
      "Ḿ": 419,
      "ḿ": 420,
      "Ṁ": 421,
      "ṃ": 422,
      "ṇ": 423,
      "Ṓ": 424,
      "ṓ": 425,
      "ṥ": 426,
      "ẋ": 427,
      "ẳ": 428,
      "ỉ": 429,
      "ọ": 430,
      "Ἣ": 431,
      "‎": 432,
      "–": 433,
      "—": 434,
      "‗": 435,
      "†": 436,
      "‡": 437,
      "•": 438,
      "…": 439,
      "‫": 440,
      "‬": 441,
      "″": 442,
      "‹": 443,
      "›": 444,
      "‼": 445,
      "‿": 446,
      "₦": 447,
      "₪": 448,
      "€": 449,
      "₯": 450,
      "⃣": 451,
      "℅": 452,
      "ℒ": 453,
      "ℓ": 454,
      "™": 455,
      "ℯ": 456,
      "ℴ": 457,
      "⅙": 458,
      "←": 459,
      "↑": 460,
      "→": 461,
      "↓": 462,
      "↩": 463,
      "↪": 464,
      "⇓": 465,
      "∀": 466,
      "∂": 467,
      "√": 468,
      "∞": 469,
      "∴": 470,
      "≈": 471,
      "⊱": 472,
      "⋆": 473,
      "⋋": 474,
      "⋌": 475,
      "⌒": 476,
      "⌚": 477,
      "⏰": 478,
      "⏹": 479,
      "┋": 480,
      "▁": 481,
      "░": 482,
      "▒": 483,
      "▓": 484,
      "▪": 485,
      "▫": 486,
      "▱": 487,
      "►": 488,
      "▼": 489,
      "▽": 490,
      "◃": 491,
      "◄": 492,
      "◅": 493,
      "●": 494,
      "◕": 495,
      "◤": 496,
      "◥": 497,
      "◦": 498,
      "☀": 499,
      "☁": 500,
      "★": 501,
      "☇": 502,
      "☕": 503,
      "☝": 504,
      "☹": 505,
      "☺": 506,
      "☻": 507,
      "♀": 508,
      "♂": 509,
      "♡": 510,
      "♥": 511,
      "♦": 512,
      "♫": 513,
      "♾": 514,
      "⚕": 515,
      "⚜": 516,
      "⚫": 517,
      "⚽": 518,
      "⛵": 519,
      "✂": 520,
      "✅": 521,
      "✈": 522,
      "✊": 523,
      "✋": 524,
      "✌": 525,
      "✍": 526,
      "✔": 527,
      "✖": 528,
      "✗": 529,
      "✨": 530,
      "✪": 531,
      "✼": 532,
      "✿": 533,
      "❄": 534,
      "❌": 535,
      "❓": 536,
      "❗": 537,
      "❞": 538,
      "❤": 539,
      "❥": 540,
      "➕": 541,
      "➡": 542,
      "⬅": 543,
      "⬇": 544,
      "⬛": 545,
      "⭐": 546,
      "⭕": 547,
      "【": 548,
      "゚": 549,
      "ツ": 550,
      "ㄒ": 551,
      "ㅋ": 552,
      "下": 553,
      "人": 554,
      "公": 555,
      "司": 556,
      "圖": 557,
      "在": 558,
      "工": 559,
      "年": 560,
      "彡": 561,
      "懶": 562,
      "日": 563,
      "月": 564,
      "次": 565,
      "爐": 566,
      "片": 567,
      "視": 568,
      "论": 569,
      "谈": 570,
      "资": 571,
      "赞": 572,
      "載": 573,
      "需": 574,
      "頻": 575,
      "ꋬ": 576,
      "눇": 577,
      "눉": 578,
      "미": 579,
      "백": 580,
      "스": 581,
      "터": 582,
      "퇇": 583,
      "ﬗ": 584,
      "ﭠ": 585,
      "ﭬ": 586,
      "ﮔ": 587,
      "ﮧ": 588,
      "ﮩ": 589,
      "ﮭ": 590,
      "ﮯ": 591,
      "﮼": 592,
      "ﯗ": 593,
      "ﯙ": 594,
      "ﯚ": 595,
      "﴾": 596,
      "﴿": 597,
      "ﷲ": 598,
      "ﷺ": 599,
      "ﷻ": 600,
      "﷼": 601,
      "️": 602,
      "ﺀ": 603,
      "ﺂ": 604,
      "ﺄ": 605,
      "ﺍ": 606,
      "ﺎ": 607,
      "ﺑ": 608,
      "ﺒ": 609,
      "ﺔ": 610,
      "ﺗ": 611,
      "ﺟ": 612,
      "ﺠ": 613,
      "ﺢ": 614,
      "ﺣ": 615,
      "ﺤ": 616,
      "ﺧ": 617,
      "ﺫ": 618,
      "ﺭ": 619,
      "ﺮ": 620,
      "ﺰ": 621,
      "ﺳ": 622,
      "ﺴ": 623,
      "ﺻ": 624,
      "ﻃ": 625,
      "ﻋ": 626,
      "ﻌ": 627,
      "ﻓ": 628,
      "ﻕ": 629,
      "ﻗ": 630,
      "ﻘ": 631,
      "ﻙ": 632,
      "ﻚ": 633,
      "ﻝ": 634,
      "ﻞ": 635,
      "ﻟ": 636,
      "ﻠ": 637,
      "ﻡ": 638,
      "ﻢ": 639,
      "ﻣ": 640,
      "ﻤ": 641,
      "ﻥ": 642,
      "ﻦ": 643,
      "ﻧ": 644,
      "ﻨ": 645,
      "ﻪ": 646,
      "ﻫ": 647,
      "ﻬ": 648,
      "ﻭ": 649,
      "ﻮ": 650,
      "ﻰ": 651,
      "ﻱ": 652,
      "ﻲ": 653,
      "ﻳ": 654,
      "ﻴ": 655,
      "ﻵ": 656,
      "ﻷ": 657,
      "ﻻ": 658,
      "�": 659,
      "🅰": 660,
      "🆕": 661,
      "🆚": 662,
      "🇦": 663,
      "🇧": 664,
      "🇨": 665,
      "🇪": 666,
      "🇭": 667,
      "🇮": 668,
      "🇱": 669,
      "🇲": 670,
      "🇳": 671,
      "🇶": 672,
      "🇷": 673,
      "🇸": 674,
      "🇾": 675,
      "🌊": 676,
      "🌎": 677,
      "🌘": 678,
      "🌙": 679,
      "🌚": 680,
      "🌝": 681,
      "🌞": 682,
      "🌟": 683,
      "🌠": 684,
      "🌡": 685,
      "🌧": 686,
      "🌨": 687,
      "🌱": 688,
      "🌴": 689,
      "🌶": 690,
      "🌷": 691,
      "🌸": 692,
      "🌹": 693,
      "🌺": 694,
      "🌻": 695,
      "🌾": 696,
      "🌿": 697,
      "🍃": 698,
      "🍍": 699,
      "🍒": 700,
      "🍔": 701,
      "🍖": 702,
      "🍗": 703,
      "🍟": 704,
      "🍤": 705,
      "🍪": 706,
      "🍫": 707,
      "🍰": 708,
      "🎀": 709,
      "🎁": 710,
      "🎈": 711,
      "🎞": 712,
      "🎠": 713,
      "🎡": 714,
      "🎢": 715,
      "🎤": 716,
      "🎥": 717,
      "🎧": 718,
      "🎵": 719,
      "🎶": 720,
      "🎼": 721,
      "🏀": 722,
      "🏆": 723,
      "🏋": 724,
      "🏔": 725,
      "🏖": 726,
      "🏝": 727,
      "🏻": 728,
      "🏼": 729,
      "🏽": 730,
      "🏾": 731,
      "🐄": 732,
      "🐈": 733,
      "🐉": 734,
      "🐏": 735,
      "🐑": 736,
      "🐟": 737,
      "🐢": 738,
      "🐦": 739,
      "🐬": 740,
      "🐵": 741,
      "👀": 742,
      "👇": 743,
      "👈": 744,
      "👉": 745,
      "👊": 746,
      "👌": 747,
      "👍": 748,
      "👎": 749,
      "👏": 750,
      "👑": 751,
      "👨": 752,
      "👩": 753,
      "👬": 754,
      "💃": 755,
      "💋": 756,
      "💎": 757,
      "💐": 758,
      "💓": 759,
      "💔": 760,
      "💕": 761,
      "💖": 762,
      "💗": 763,
      "💘": 764,
      "💙": 765,
      "💚": 766,
      "💛": 767,
      "💜": 768,
      "💝": 769,
      "💞": 770,
      "💟": 771,
      "💡": 772,
      "💪": 773,
      "💫": 774,
      "💯": 775,
      "📅": 776,
      "📆": 777,
      "📚": 778,
      "📣": 779,
      "📺": 780,
      "🔝": 781,
      "🔥": 782,
      "🔪": 783,
      "🔮": 784,
      "🔴": 785,
      "🔸": 786,
      "🕊": 787,
      "🕚": 788,
      "🖤": 789,
      "🖥": 790,
      "😀": 791,
      "😁": 792,
      "😂": 793,
      "😄": 794,
      "😅": 795,
      "😆": 796,
      "😈": 797,
      "😉": 798,
      "😊": 799,
      "😋": 800,
      "😌": 801,
      "😍": 802,
      "😎": 803,
      "😏": 804,
      "😐": 805,
      "😓": 806,
      "😔": 807,
      "😕": 808,
      "😘": 809,
      "😛": 810,
      "😜": 811,
      "😟": 812,
      "😠": 813,
      "😢": 814,
      "😣": 815,
      "😥": 816,
      "😩": 817,
      "😪": 818,
      "😫": 819,
      "😬": 820,
      "😭": 821,
      "😮": 822,
      "😰": 823,
      "😱": 824,
      "😳": 825,
      "😴": 826,
      "😹": 827,
      "😻": 828,
      "😿": 829,
      "🙁": 830,
      "🙂": 831,
      "🙄": 832,
      "🙅": 833,
      "🙆": 834,
      "🙇": 835,
      "🙈": 836,
      "🙉": 837,
      "🙊": 838,
      "🙌": 839,
      "🙎": 840,
      "🙏": 841,
      "🚀": 842,
      "🚨": 843,
      "🚴": 844,
      "🚶": 845,
      "🛑": 846,
      "🛒": 847,
      "🛶": 848,
      "🤍": 849,
      "🤎": 850,
      "🤑": 851,
      "🤓": 852,
      "🤔": 853,
      "🤗": 854,
      "🤝": 855,
      "🤣": 856,
      "🤤": 857,
      "🤧": 858,
      "🤨": 859,
      "🤩": 860,
      "🤭": 861,
      "🤲": 862,
      "🤳": 863,
      "🤷": 864,
      "🥇": 865,
      "🥤": 866,
      "🥧": 867,
      "🥰": 868,
      "🥲": 869,
      "🥳": 870,
      "🥴": 871,
      "🥵": 872,
      "🥺": 873,
      "🦋": 874,
      "🦌": 875,
      "🦒": 876,
      "🧇": 877,
      "🧐": 878,
      "🧡": 879,
      "🧸": 880,
      "🧿": 881,
      "ال": 882,
      "ان": 883,
      "..": 884,
      "من": 885,
      "ها": 886,
      "ما": 887,
      "في": 888,
      "لي": 889,
      "لا": 890,
      "ين": 891,
      "الم": 892,
      "ار": 893,
      "له": 894,
      "وا": 895,
      "ون": 896,
      "ري": 897,
      "ات": 898,
      "بي": 899,
      "نا": 900,
      "را": 901,
      "عل": 902,
      "ول": 903,
      "ير": 904,
      "وال": 905,
      "هه": 906,
      "دي": 907,
      "وي": 908,
      "عن": 909,
      "ام": 910,
      "ور": 911,
      "ــ": 912,
      "على": 913,
      "اب": 914,
      "كل": 915,
      "الله": 916,
      "اس": 917,
      "وم": 918,
      "اا": 919,
      "بع": 920,
      "اي": 921,
      "مع": 922,
      "هم": 923,
      "الس": 924,
      "كم": 925,
      "تي": 926,
      "بال": 927,
      "وق": 928,
      "يا": 929,
      "ذا": 930,
      "الع": 931,
      "مي": 932,
      "بس": 933,
      "الح": 934,
      "وت": 935,
      "لك": 936,
      "علي": 937,
      "الي": 938,
      "اح": 939,
      "ست": 940,
      "ني": 941,
      "اع": 942,
      "بر": 943,
      "لل": 944,
      "وج": 945,
      "الت": 946,
      "بد": 947,
      "وع": 948,
      "مر": 949,
      "أن": 950,
      "اخ": 951,
      "تر": 952,
      "شي": 953,
      "وو": 954,
      "كان": 955,
      "تح": 956,
      "وه": 957,
      "ود": 958,
      "وف": 959,
      "كن": 960,
      "اد": 961,
      "مت": 962,
      "اف": 963,
      "اني": 964,
      "مد": 965,
      "هههه": 966,
      "يد": 967,
      "وح": 968,
      "كر": 969,
      "انا": 970,
      "اء": 971,
      "رف": 972,
      "الد": 973,
      "به": 974,
      "بت": 975,
      "يت": 976,
      "...": 977,
      "شر": 978,
      "قد": 979,
      "بن": 980,
      "الج": 981,
      "بعد": 982,
      "الأ": 983,
      "خل": 984,
      "قل": 985,
      "سي": 986,
      "ولا": 987,
      "الا": 988,
      "الف": 989,
      "كي": 990,
      "ــــ": 991,
      "وب": 992,
      "اللي": 993,
      "وس": 994,
      "صل": 995,
      "ته": 996,
      "طل": 997,
      "لم": 998,
      "الك": 999,
      "بل": 1000,
      "الش": 1001,
      "تع": 1002,
      "با": 1003,
      "مح": 1004,
      "مل": 1005,
      "يي": 1006,
      "طي": 1007,
      "كت": 1008,
      "حي": 1009,
      "قي": 1010,
      "جد": 1011,
      "....": 1012,
      "مه": 1013,
      "راح": 1014,
      "وض": 1015,
      "اج": 1016,
      "رج": 1017,
      "الخ": 1018,
      "مس": 1019,
      "الص": 1020,
      "او": 1021,
      "الب": 1022,
      "كون": 1023,
      "اه": 1024,
      "اااا": 1025,
      "حد": 1026,
      "الق": 1027,
      "ائ": 1028,
      "عند": 1029,
      "الن": 1030,
      "عر": 1031,
      "حت": 1032,
      "عي": 1033,
      "تق": 1034,
      "رب": 1035,
      "هذا": 1036,
      "اض": 1037,
      "مة": 1038,
      "ذي": 1039,
      "كث": 1040,
      "فيه": 1041,
      "مش": 1042,
      "--": 1043,
      "20": 1044,
      "بار": 1045,
      "غير": 1046,
      "لو": 1047,
      "الر": 1048,
      "فر": 1049,
      "زي": 1050,
      "وش": 1051,
      "هي": 1052,
      "فس": 1053,
      "قة": 1054,
      "انه": 1055,
      "اص": 1056,
      "عد": 1057,
      "هو": 1058,
      "قول": 1059,
      "وان": 1060,
      "حس": 1061,
      "جي": 1062,
      "مات": 1063,
      "اش": 1064,
      "بين": 1065,
      "لام": 1066,
      "اله": 1067,
      "يع": 1068,
      "ده": 1069,
      "عم": 1070,
      "ية": 1071,
      "عبد": 1072,
      "بح": 1073,
      "تس": 1074,
      "قه": 1075,
      "وص": 1076,
      "است": 1077,
      "مو": 1078,
      "ذه": 1079,
      "عني": 1080,
      "تها": 1081,
      "؟؟": 1082,
      "المن": 1083,
      "وأ": 1084,
      "!!": 1085,
      "بة": 1086,
      "دق": 1087,
      "قط": 1088,
      "يوم": 1089,
      "تن": 1090,
      "يم": 1091,
      "خص": 1092,
      "مج": 1093,
      "فه": 1094,
      "وك": 1095,
      "تك": 1096,
      "صر": 1097,
      "إن": 1098,
      "هر": 1099,
      "رياض": 1100,
      "لها": 1101,
      "تف": 1102,
      "دة": 1103,
      "الى": 1104,
      "اك": 1105,
      "خد": 1106,
      "قال": 1107,
      "هههههههه": 1108,
      "ورة": 1109,
      "مث": 1110,
      "تج": 1111,
      "الط": 1112,
      "الث": 1113,
      "يح": 1114,
      "لة": 1115,
      "فون": 1116,
      "والله": 1117,
      "ودي": 1118,
      "زوج": 1119,
      "يس": 1120,
      "سن": 1121,
      "اط": 1122,
      "يه": 1123,
      "رة": 1124,
      "انت": 1125,
      "أخ": 1126,
      "عه": 1127,
      "10": 1128,
      "ره": 1129,
      "يعني": 1130,
      "لى": 1131,
      "ضل": 1132,
      "لس": 1133,
      "اً": 1134,
      "تد": 1135,
      "فت": 1136,
      "عب": 1137,
      "قبل": 1138,
      "رس": 1139,
      "أس": 1140,
      "بيت": 1141,
      "عليه": 1142,
      "فيها": 1143,
      "لت": 1144,
      "يف": 1145,
      "طلع": 1146,
      "كثر": 1147,
      "بك": 1148,
      "اق": 1149,
      "ولي": 1150,
      "رك": 1151,
      "اليوم": 1152,
      "الغ": 1153,
      "اول": 1154,
      "شان": 1155,
      "11": 1156,
      "بط": 1157,
      "أو": 1158,
      "ــــــــ": 1159,
      "ارة": 1160,
      "هل": 1161,
      "عة": 1162,
      "نفس": 1163,
      "واحد": 1164,
      "وووو": 1165,
      "اذا": 1166,
      "جمي": 1167,
      "لكن": 1168,
      "لات": 1169,
      "حتى": 1170,
      "يل": 1171,
      "وضوع": 1172,
      "رر": 1173,
      "ايفون": 1174,
      "بها": 1175,
      "دين": 1176,
      "محمد": 1177,
      "أي": 1178,
      "كانت": 1179,
      "وفي": 1180,
      "وما": 1181,
      "رق": 1182,
      "مام": 1183,
      "وقع": 1184,
      "نس": 1185,
      "الرياض": 1186,
      "00": 1187,
      "از": 1188,
      "مم": 1189,
      "رح": 1190,
      "وز": 1191,
      "تص": 1192,
      "غل": 1193,
      "عودي": 1194,
      "co": 1195,
      "----": 1196,
      "لح": 1197,
      "كنت": 1198,
      "اللهم": 1199,
      "سم": 1200,
      "اري": 1201,
      "خلي": 1202,
      "ht": 1203,
      "بعض": 1204,
      "تش": 1205,
      "رد": 1206,
      "ظر": 1207,
      "قدر": 1208,
      "لف": 1209,
      "//": 1210,
      "صد": 1211,
      "شاء": 1212,
      "هنا": 1213,
      "وط": 1214,
      "التي": 1215,
      "ناس": 1216,
      "تم": 1217,
      "مثل": 1218,
      "يييي": 1219,
      "هذه": 1220,
      "وات": 1221,
      "فع": 1222,
      "بق": 1223,
      "آآ": 1224,
      "وهو": 1225,
      "com": 1226,
      "لان": 1227,
      "الز": 1228,
      "يش": 1229,
      "وهي": 1230,
      "tp": 1231,
      "ريق": 1232,
      "جر": 1233,
      "er": 1234,
      "لون": 1235,
      "http": 1236,
      "://": 1237,
      "أنا": 1238,
      "وري": 1239,
      "يني": 1240,
      "كيف": 1241,
      "عشان": 1242,
      "يكون": 1243,
      "والم": 1244,
      "خير": 1245,
      "ريم": 1246,
      "يار": 1247,
      "تخ": 1248,
      "باب": 1249,
      "لهم": 1250,
      "كة": 1251,
      "فى": 1252,
      "ذكر": 1253,
      "عار": 1254,
      "حل": 1255,
      "زل": 1256,
      "نت": 1257,
      "مست": 1258,
      "زم": 1259,
      "بو": 1260,
      "وانا": 1261,
      "ومن": 1262,
      "وني": 1263,
      "ديد": 1264,
      "ذلك": 1265,
      "علم": 1266,
      "اة": 1267,
      "وقت": 1268,
      "ريال": 1269,
      "كات": 1270,
      "عت": 1271,
      "ربي": 1272,
      "مره": 1273,
      "وين": 1274,
      "يق": 1275,
      "تت": 1276,
      "حق": 1277,
      "حب": 1278,
      "الاس": 1279,
      "واج": 1280,
      "لما": 1281,
      "إلى": 1282,
      "راء": 1283,
      "يج": 1284,
      "صح": 1285,
      "السعودي": 1286,
      "كس": 1287,
      "بش": 1288,
      "12": 1289,
      "الإ": 1290,
      "لق": 1291,
      "هد": 1292,
      "ويت": 1293,
      "عليكم": 1294,
      "اااااااا": 1295,
      "صار": 1296,
      "امل": 1297,
      "قص": 1298,
      "خر": 1299,
      "رض": 1300,
      "الان": 1301,
      "جن": 1302,
      "شك": 1303,
      "أم": 1304,
      "||": 1305,
      "ابي": 1306,
      "لين": 1307,
      "الموضوع": 1308,
      "خخ": 1309,
      "بب": 1310,
      "قلت": 1311,
      "عاد": 1312,
      "وار": 1313,
      "المس": 1314,
      "احد": 1315,
      "جل": 1316,
      "عليها": 1317,
      "شوي": 1318,
      "سل": 1319,
      "كثير": 1320,
      "ضح": 1321,
      "وبعد": 1322,
      "طبع": 1323,
      "جميع": 1324,
      "رائ": 1325,
      "خط": 1326,
      "تحت": 1327,
      "خالد": 1328,
      "افضل": 1329,
      "لكم": 1330,
      "عبدالله": 1331,
      "وره": 1332,
      "مبار": 1333,
      "شيء": 1334,
      "يمكن": 1335,
      "عرف": 1336,
      "جدا": 1337,
      "واق": 1338,
      "حر": 1339,
      "لأن": 1340,
      "غرف": 1341,
      "مني": 1342,
      "عندي": 1343,
      "بنات": 1344,
      "مق": 1345,
      "جم": 1346,
      "طة": 1347,
      "ساع": 1348,
      "انك": 1349,
      "راس": 1350,
      "هذي": 1351,
      "بخ": 1352,
      "بير": 1353,
      "الذي": 1354,
      "دخل": 1355,
      "وَ": 1356,
      "ww": 1357,
      "بنت": 1358,
      "صف": 1359,
      "عا": 1360,
      "شف": 1361,
      "im": 1362,
      "قدم": 1363,
      "حن": 1364,
      "مط": 1365,
      "........": 1366,
      "ولكن": 1367,
      "طلب": 1368,
      "اتي": 1369,
      "فين": 1370,
      "زين": 1371,
      "ليه": 1372,
      "وجه": 1373,
      "منه": 1374,
      "يص": 1375,
      "حمد": 1376,
      "ضي": 1377,
      "عليك": 1378,
      "واس": 1379,
      "sh": 1380,
      "جز": 1381,
      "وصل": 1382,
      "ثم": 1383,
      "2011": 1384,
      "وله": 1385,
      "تب": 1386,
      "ميز": 1387,
      ",,": 1388,
      "يب": 1389,
      "السلام": 1390,
      "قر": 1391,
      "فل": 1392,
      "تكون": 1393,
      "ند": 1394,
      "وخ": 1395,
      "يقول": 1396,
      "انها": 1397,
      "اخر": 1398,
      "بص": 1399,
      "مين": 1400,
      "حة": 1401,
      "وجود": 1402,
      "الل": 1403,
      "وة": 1404,
      "خت": 1405,
      "الة": 1406,
      "وى": 1407,
      "ميل": 1408,
      "لله": 1409,
      "ثاني": 1410,
      "حبي": 1411,
      "ونه": 1412,
      "اكثر": 1413,
      "لال": 1414,
      "نف": 1415,
      "ضر": 1416,
      "سع": 1417,
      "ندق": 1418,
      "اره": 1419,
      "المش": 1420,
      "كه": 1421,
      "ليش": 1422,
      "مكان": 1423,
      "كتب": 1424,
      "**": 1425,
      "در": 1426,
      "فيصل": 1427,
      "ويه": 1428,
      "حط": 1429,
      "وبر": 1430,
      "يست": 1431,
      "منى": 1432,
      "عين": 1433,
      "صب": 1434,
      "الناس": 1435,
      "ملا": 1436,
      "مها": 1437,
      "ريد": 1438,
      "صور": 1439,
      "طر": 1440,
      "شوف": 1441,
      "خذ": 1442,
      "عمل": 1443,
      "جه": 1444,
      "بالم": 1445,
      "فهد": 1446,
      "كذا": 1447,
      "مان": 1448,
      "الحين": 1449,
      "فقط": 1450,
      "الما": 1451,
      "روح": 1452,
      "زيز": 1453,
      "مرة": 1454,
      "كما": 1455,
      "بدون": 1456,
      "منها": 1457,
      "img": 1458,
      "إذا": 1459,
      "عام": 1460,
      "جع": 1461,
      "يات": 1462,
      "وكل": 1463,
      "طيب": 1464,
      "الات": 1465,
      "موع": 1466,
      "ذن": 1467,
      "سر": 1468,
      "ممكن": 1469,
      "قت": 1470,
      "her": 1471,
      "لاث": 1472,
      "اث": 1473,
      "ابو": 1474,
      "أنت": 1475,
      "اخذ": 1476,
      "الشر": 1477,
      "اعد": 1478,
      "وقف": 1479,
      "jp": 1480,
      "تست": 1481,
      "فضل": 1482,
      "jpg": 1483,
      "الثاني": 1484,
      "ولة": 1485,
      "امي": 1486,
      "أك": 1487,
      "إلا": 1488,
      "المدين": 1489,
      "كلم": 1490,
      "الرح": 1491,
      "أل": 1492,
      "خلا": 1493,
      "اسب": 1494,
      "نه": 1495,
      "شخص": 1496,
      "osh": 1497,
      "قالت": 1498,
      "يط": 1499,
      "خاص": 1500,
      "الشي": 1501,
      "مار": 1502,
      "--------": 1503,
      "لية": 1504,
      "الحمد": 1505,
      "نظ": 1506,
      "اهم": 1507,
      "ترا": 1508,
      "img10": 1509,
      "herosh": 1510,
      "طري": 1511,
      "لازم": 1512,
      "واع": 1513,
      "قام": 1514,
      "الاخ": 1515,
      "لأ": 1516,
      "بأ": 1517,
      "دع": 1518,
      "غي": 1519,
      "ينا": 1520,
      "مك": 1521,
      "المدينة": 1522,
      "شعر": 1523,
      "البيت": 1524,
      "بيع": 1525,
      "افة": 1526,
      "حه": 1527,
      "دا": 1528,
      "طبعا": 1529,
      "الام": 1530,
      "اما": 1531,
      "وجد": 1532,
      "فة": 1533,
      "قلب": 1534,
      "سعر": 1535,
      "شه": 1536,
      "شهر": 1537,
      "العزيز": 1538,
      "مال": 1539,
      "مض": 1540,
      "يرة": 1541,
      "نص": 1542,
      "in": 1543,
      "هههههههههههههههه": 1544,
      "،،": 1545,
      "احب": 1546,
      "ماي": 1547,
      "تقول": 1548,
      "تنا": 1549,
      "ولد": 1550,
      "معه": 1551,
      "وها": 1552,
      "ليل": 1553,
      "تين": 1554,
      "موقع": 1555,
      "لنا": 1556,
      "علا": 1557,
      "انتي": 1558,
      "فوق": 1559,
      "وحده": 1560,
      "حيث": 1561,
      "أت": 1562,
      "to": 1563,
      "خي": 1564,
      "قلبي": 1565,
      "14": 1566,
      "آن": 1567,
      "ورح": 1568,
      "زن": 1569,
      "كله": 1570,
      "سك": 1571,
      "كره": 1572,
      "وفر": 1573,
      "بيه": 1574,
      "ورا": 1575,
      "ضا": 1576,
      "نها": 1577,
      "المهم": 1578,
      "وية": 1579,
      "شن": 1580,
      "لع": 1581,
      "رغ": 1582,
      "ad": 1583,
      "طول": 1584,
      "اسم": 1585,
      "ماء": 1586,
      "تعرف": 1587,
      "حسن": 1588,
      "للا": 1589,
      "حظ": 1590,
      "ونها": 1591,
      "ريب": 1592,
      "ــــــــــــــــ": 1593,
      "منا": 1594,
      "رام": 1595,
      "ارات": 1596,
      "فق": 1597,
      "السي": 1598,
      "أح": 1599,
      "اغ": 1600,
      "عج": 1601,
      "كلها": 1602,
      "حين": 1603,
      "سب": 1604,
      "مص": 1605,
      "اية": 1606,
      "تري": 1607,
      "العالم": 1608,
      "المط": 1609,
      "ـــ": 1610,
      "__": 1611,
      "حلو": 1612,
      "عط": 1613,
      "السعودية": 1614,
      "200": 1615,
      "ايه": 1616,
      "استخد": 1617,
      "بكل": 1618,
      "موا": 1619,
      "خلال": 1620,
      "غط": 1621,
      "أنه": 1622,
      "ظهر": 1623,
      "المد": 1624,
      "المنورة": 1625,
      "الهلال": 1626,
      "المبار": 1627,
      "ثلاث": 1628,
      "فية": 1629,
      "هناك": 1630,
      "رت": 1631,
      "يره": 1632,
      "ياء": 1633,
      "طبي": 1634,
      "المست": 1635,
      "تدى": 1636,
      "مباراة": 1637,
      "يك": 1638,
      "الساع": 1639,
      "فض": 1640,
      "رأ": 1641,
      "ترك": 1642,
      "an": 1643,
      "طف": 1644,
      "فتح": 1645,
      "قب": 1646,
      "خلص": 1647,
      "داخ": 1648,
      "كرة": 1649,
      "نفسي": 1650,
      "عمر": 1651,
      "المج": 1652,
      "الوقت": 1653,
      "or": 1654,
      "سمع": 1655,
      "ينه": 1656,
      "دري": 1657,
      "نج": 1658,
      "الذ": 1659,
      "اكل": 1660,
      "الرحمن": 1661,
      "بنا": 1662,
      "اليه": 1663,
      "فظ": 1664,
      "موضوع": 1665,
      "المح": 1666,
      "الكل": 1667,
      "نيا": 1668,
      "اته": 1669,
      "ar": 1670,
      "ديه": 1671,
      "ينة": 1672,
      "مري": 1673,
      "طه": 1674,
      "الها": 1675,
      "عنه": 1676,
      "15": 1677,
      "الرا": 1678,
      "امه": 1679,
      "فتر": 1680,
      "ممت": 1681,
      "دون": 1682,
      "صغير": 1683,
      "الرج": 1684,
      "اعرف": 1685,
      "سان": 1686,
      "اقول": 1687,
      "شار": 1688,
      "الار": 1689,
      "فيك": 1690,
      "بيض": 1691,
      "تل": 1692,
      "al": 1693,
      "نز": 1694,
      "بات": 1695,
      "بني": 1696,
      "تركي": 1697,
      "وضع": 1698,
      "ضيع": 1699,
      "بشكل": 1700,
      "ايش": 1701,
      "احس": 1702,
      "زيد": 1703,
      "شو": 1704,
      "ارج": 1705,
      "وبركات": 1706,
      "نق": 1707,
      "جاب": 1708,
      "كا": 1709,
      "نورة": 1710,
      "أبو": 1711,
      "ميها": 1712,
      "فات": 1713,
      "؟؟؟؟": 1714,
      "صوت": 1715,
      "خلاص": 1716,
      "راحة": 1717,
      "وهذا": 1718,
      "بلا": 1719,
      "كلام": 1720,
      "زق": 1721,
      "بري": 1722,
      "بغ": 1723,
      "برا": 1724,
      "نين": 1725,
      "أكثر": 1726,
      "نع": 1727,
      "آخر": 1728,
      "راحه": 1729,
      "المت": 1730,
      "أحد": 1731,
      "السيار": 1732,
      "www": 1733,
      "الفندق": 1734,
      "ضحك": 1735,
      "إلي": 1736,
      "واء": 1737,
      "شاف": 1738,
      "طريق": 1739,
      "اريخ": 1740,
      "اها": 1741,
      "وسط": 1742,
      "الكويت": 1743,
      "رررر": 1744,
      "))": 1745,
      "شركة": 1746,
      "النا": 1747,
      "شئ": 1748,
      "وانت": 1749,
      "بالنس": 1750,
      "عبدالعزيز": 1751,
      "حم": 1752,
      "<<": 1753,
      "ئي": 1754,
      "دائ": 1755,
      "كبي": 1756,
      "ورحمة": 1757,
      "30": 1758,
      "واد": 1759,
      "آل": 1760,
      "وكان": 1761,
      "وبركاته": 1762,
      "((": 1763,
      "برنا": 1764,
      "بعدين": 1765,
      "وووووووو": 1766,
      "if": 1767,
      "ou": 1768,
      "رات": 1769,
      "الملك": 1770,
      "الباب": 1771,
      "اختي": 1772,
      "وير": 1773,
      "جديد": 1774,
      "ايام": 1775,
      "لن": 1776,
      "فيد": 1777,
      "الية": 1778,
      "ضع": 1779,
      "19": 1780,
      "سه": 1781,
      "باشر": 1782,
      "عنده": 1783,
      "يخ": 1784,
      "قات": 1785,
      "بالك": 1786,
      "غر": 1787,
      "ئة": 1788,
      "وقال": 1789,
      "يده": 1790,
      "دد": 1791,
      "صدق": 1792,
      "ملك": 1793,
      "كبير": 1794,
      "العربي": 1795,
      "lo": 1796,
      "بية": 1797,
      "ميهاف": 1798,
      "رير": 1799,
      "صحي": 1800,
      "والس": 1801,
      "بسر": 1802,
      "بم": 1803,
      "نوع": 1804,
      "ًا": 1805,
      "وظ": 1806,
      "نة": 1807,
      "لد": 1808,
      "يعرف": 1809,
      "دية": 1810,
      "أول": 1811,
      "يييييييي": 1812,
      "es": 1813,
      "بـ": 1814,
      "رية": 1815,
      "آآآآ": 1816,
      "بالرياض": 1817,
      "طلعت": 1818,
      "شفت": 1819,
      "13": 1820,
      "تغ": 1821,
      "سالم": 1822,
      "شد": 1823,
      ".....": 1824,
      "صبا": 1825,
      "ليس": 1826,
      "ونا": 1827,
      "25": 1828,
      "أه": 1829,
      "بج": 1830,
      "ريبا": 1831,
      "ضاء": 1832,
      "ويل": 1833,
      "معي": 1834,
      "!!!!": 1835,
      "راق": 1836,
      "اذ": 1837,
      "صالح": 1838,
      "up": 1839,
      "الحل": 1840,
      "اعل": 1841,
      "حص": 1842,
      "ائل": 1843,
      "ورد": 1844,
      "ارس": 1845,
      "افر": 1846,
      "فيني": 1847,
      "ملي": 1848,
      "جيب": 1849,
      "طان": 1850,
      "السيارة": 1851,
      "ااا": 1852,
      "تبي": 1853,
      "كور": 1854,
      "امس": 1855,
      "عندما": 1856,
      "شكل": 1857,
      "راً": 1858,
      "الخاص": 1859,
      "نية": 1860,
      "قطع": 1861,
      "بان": 1862,
      "ابع": 1863,
      "كمل": 1864,
      "برنامج": 1865,
      "هاز": 1866,
      "خصوص": 1867,
      "تني": 1868,
      "ديث": 1869,
      "وتر": 1870,
      "شش": 1871,
      "عز": 1872,
      "ديل": 1873,
      "خدمة": 1874,
      "جة": 1875,
      "واذا": 1876,
      "بنفس": 1877,
      "بارك": 1878,
      "شغ": 1879,
      "سعود": 1880,
      "بشر": 1881,
      "جوال": 1882,
      "كتور": 1883,
      "صير": 1884,
      "جا": 1885,
      "الض": 1886,
      "الأم": 1887,
      "ابن": 1888,
      "الغرف": 1889,
      "رقم": 1890,
      "ثير": 1891,
      "فك": 1892,
      "at": 1893,
      "ترى": 1894,
      "ممتاز": 1895,
      "ربع": 1896,
      "العا": 1897,
      "gif": 1898,
      "وسلم": 1899,
      "وعلى": 1900,
      "حسب": 1901,
      "عندك": 1902,
      "صلا": 1903,
      "موجود": 1904,
      "وبعدين": 1905,
      "اعت": 1906,
      "سوي": 1907,
      "صدي": 1908,
      "الموقع": 1909,
      "مسك": 1910,
      "البنات": 1911,
      "تط": 1912,
      "عش": 1913,
      "جميل": 1914,
      "الرس": 1915,
      "أب": 1916,
      "ارت": 1917,
      "واب": 1918,
      "أج": 1919,
      "ابه": 1920,
      "07": 1921,
      "en": 1922,
      "خخخخ": 1923,
      "16": 1924,
      "منك": 1925,
      "عنها": 1926,
      "on": 1927,
      "05": 1928,
      "ناء": 1929,
      "جدي": 1930,
      "جداً": 1931,
      "داي": 1932,
      "لانه": 1933,
      "عود": 1934,
      "مبر": 1935,
      "ومات": 1936,
      "زة": 1937,
      "وهم": 1938,
      "الاول": 1939,
      "زوجي": 1940,
      "اشوف": 1941,
      "سوف": 1942,
      "والد": 1943,
      "الدنيا": 1944,
      "مباشر": 1945,
      "تهم": 1946,
      "فا": 1947,
      "هههههه": 1948,
      "الجمي": 1949,
      "سلم": 1950,
      "واصل": 1951,
      "يتم": 1952,
      "مز": 1953,
      "منهم": 1954,
      "عرض": 1955,
      "18": 1956,
      "سى": 1957,
      "خبر": 1958,
      "شع": 1959,
      "عندهم": 1960,
      "لاق": 1961,
      "أفضل": 1962,
      "أخذ": 1963,
      "صلى": 1964,
      "كلة": 1965,
      "تقريبا": 1966,
      "حول": 1967,
      "24": 1968,
      "عشر": 1969,
      "وراح": 1970,
      "طريقة": 1971,
      "قية": 1972,
      "ذر": 1973,
      "واح": 1974,
      "احمد": 1975,
      "وبي": 1976,
      "ph": 1977,
      "بته": 1978,
      "داخل": 1979,
      "النصر": 1980,
      "للي": 1981,
      "عليهم": 1982,
      "وفق": 1983,
      "سبح": 1984,
      "صي": 1985,
      "نان": 1986,
      "حال": 1987,
      "يعطي": 1988,
      "الاب": 1989,
      "بإ": 1990,
      "سس": 1991,
      "اسعار": 1992,
      "اهل": 1993,
      "هيم": 1994,
      "ذهب": 1995,
      "الوح": 1996,
      "ابل": 1997,
      "طيع": 1998,
      "يصير": 1999,
      "مون": 2000,
      "واني": 2001,
      "اتمنى": 2002,
      "رائع": 2003,
      "زيت": 2004,
      "ولو": 2005,
      "بلغ": 2006,
      "مخ": 2007,
      "البا": 2008,
      "زه": 2009,
      "ياة": 2010,
      "والي": 2011,
      "ولات": 2012,
      "نن": 2013,
      "الأس": 2014,
      "حاد": 2015,
      "فريق": 2016,
      "الكلام": 2017,
      "2012": 2018,
      "نفسه": 2019,
      ">>": 2020,
      "دور": 2021,
      "ارب": 2022,
      "كلا": 2023,
      "ؤال": 2024,
      "وآ": 2025,
      "علينا": 2026,
      "وأن": 2027,
      "الاست": 2028,
      "أخر": 2029,
      "03": 2030,
      "أش": 2031,
      "يته": 2032,
      "رش": 2033,
      "الساعة": 2034,
      "جلس": 2035,
      "بالله": 2036,
      "مكن": 2037,
      "re": 2038,
      "تما": 2039,
      "ارك": 2040,
      "الاح": 2041,
      "am": 2042,
      "فندق": 2043,
      "بواس": 2044,
      "عادي": 2045,
      "ريه": 2046,
      "البط": 2047,
      "اهد": 2048,
      "واقع": 2049,
      "راض": 2050,
      "رجع": 2051,
      "بحث": 2052,
      "زا": 2053,
      "يارب": 2054,
      "سلي": 2055,
      "وذ": 2056,
      "الفي": 2057,
      "نادي": 2058,
      "جدة": 2059,
      "السوق": 2060,
      "عبدالرحمن": 2061,
      "هلا": 2062,
      "راج": 2063,
      "المباراة": 2064,
      "حيل": 2065,
      "الموا": 2066,
      "th": 2067,
      "جاج": 2068,
      "وبال": 2069,
      "لمن": 2070,
      "لكل": 2071,
      "المق": 2072,
      "القر": 2073,
      "عق": 2074,
      "ايق": 2075,
      "ائق": 2076,
      "تروح": 2077,
      "حية": 2078,
      "لاني": 2079,
      "فهم": 2080,
      "وعه": 2081,
      "عبر": 2082,
      "وء": 2083,
      "يبي": 2084,
      "يوجد": 2085,
      "لج": 2086,
      "هن": 2087,
      "الشعر": 2088,
      "سعودي": 2089,
      "ومه": 2090,
      "الخير": 2091,
      "بواسطة": 2092,
      "البر": 2093,
      "ديم": 2094,
      "أما": 2095,
      "قم": 2096,
      "تشوف": 2097,
      "تبر": 2098,
      "طب": 2099,
      "يض": 2100,
      "ايد": 2101,
      "الظ": 2102,
      "مى": 2103,
      "سط": 2104,
      "مَ": 2105,
      "انات": 2106,
      "المنتدى": 2107,
      "إنه": 2108,
      "شوق": 2109,
      "حبيب": 2110,
      "سعد": 2111,
      "شري": 2112,
      "قيقة": 2113,
      "صة": 2114,
      "يالله": 2115,
      "البي": 2116,
      "فلا": 2117,
      "شت": 2118,
      "31": 2119,
      "شباب": 2120,
      "متى": 2121,
      "سنة": 2122,
      "اسبوع": 2123,
      "تاج": 2124,
      "ذات": 2125,
      "طقة": 2126,
      "الأول": 2127,
      "تمام": 2128,
      "رون": 2129,
      "كرا": 2130,
      "جان": 2131,
      "دم": 2132,
      "حاول": 2133,
      "معنا": 2134,
      "بدأ": 2135,
      "خلود": 2136,
      "ظيم": 2137,
      "غرفة": 2138,
      "أنها": 2139,
      "مدة": 2140,
      "وائ": 2141,
      ":-": 2142,
      "لاً": 2143,
      "والف": 2144,
      "إني": 2145,
      "كري": 2146,
      "افه": 2147,
      "دخلت": 2148,
      "ثر": 2149,
      "أست": 2150,
      "دت": 2151,
      "الخط": 2152,
      "27": 2153,
      "الحب": 2154,
      "البنت": 2155,
      "وكم": 2156,
      "الآن": 2157,
      "بما": 2158,
      "معة": 2159,
      "بسبب": 2160,
      "غفر": 2161,
      "مب": 2162,
      "جيد": 2163,
      "واللي": 2164,
      "الكثير": 2165,
      "مهم": 2166,
      "الاع": 2167,
      "بث": 2168,
      "نفسك": 2169,
      "17": 2170,
      "الدوري": 2171,
      "امة": 2172,
      "الصور": 2173,
      "معك": 2174,
      "ايف": 2175,
      "انية": 2176,
      "الكريم": 2177,
      "50": 2178,
      "وتي": 2179,
      "شكرا": 2180,
      "منت": 2181,
      "يرا": 2182,
      "والح": 2183,
      "فف": 2184,
      "الخل": 2185,
      "كرت": 2186,
      "قق": 2187,
      "كام": 2188,
      "حتاج": 2189,
      "ذب": 2190,
      "ناصر": 2191,
      "الحر": 2192,
      "حياتي": 2193,
      "والت": 2194,
      "بالس": 2195,
      "خدم": 2196,
      "علشان": 2197,
      "عالم": 2198,
      "نحن": 2199,
      "load": 2200,
      "أق": 2201,
      "طار": 2202,
      "سنه": 2203,
      "شكله": 2204,
      "اخت": 2205,
      "----------------": 2206,
      "دائما": 2207,
      "مُ": 2208,
      "التح": 2209,
      "!!!": 2210,
      "رع": 2211,
      "المص": 2212,
      "بداية": 2213,
      "دف": 2214,
      "واي": 2215,
      "؟؟؟": 2216,
      "أبي": 2217,
      "العن": 2218,
      "ووو": 2219,
      "وأنا": 2220,
      "أع": 2221,
      "ياه": 2222,
      "الشخص": 2223,
      "جب": 2224,
      "شكر": 2225,
      "zn": 2226,
      "سا": 2227,
      "جراح": 2228,
      "حيات": 2229,
      "يلا": 2230,
      "الشباب": 2231,
      "تض": 2232,
      "وغ": 2233,
      "وعة": 2234,
      "مطعم": 2235,
      "شلون": 2236,
      "واست": 2237,
      "عية": 2238,
      "معل": 2239,
      "m5": 2240,
      "ابد": 2241,
      "ودة": 2242,
      "ساعة": 2243,
      "كريم": 2244,
      "ولم": 2245,
      "دخ": 2246,
      "يجي": 2247,
      "صباح": 2248,
      "نادق": 2249,
      "انة": 2250,
      "ومي": 2251,
      "اعر": 2252,
      "عندها": 2253,
      "img105": 2254,
      "اللا": 2255,
      "واخ": 2256,
      "تذكر": 2257,
      "سري": 2258,
      "مميز": 2259,
      "اللح": 2260,
      "بسرعه": 2261,
      "04": 2262,
      "انس": 2263,
      "حساب": 2264,
      "صه": 2265,
      "غرب": 2266,
      "ابرا": 2267,
      "بدر": 2268,
      "البحر": 2269,
      "upload": 2270,
      "بأن": 2271,
      "جام": 2272,
      "جالس": 2273,
      "حصل": 2274,
      "m5zn": 2275,
      "سنوات": 2276,
      "باقي": 2277,
      "نقل": 2278,
      "فرح": 2279,
      "بعدها": 2280,
      "اكيد": 2281,
      "والا": 2282,
      "معها": 2283,
      "تحس": 2284,
      "زيا": 2285,
      "اااااااااااااااا": 2286,
      "ابراهيم": 2287,
      "صلي": 2288,
      "ساعه": 2289,
      "مية": 2290,
      "اخوي": 2291,
      "ختلف": 2292,
      "مرت": 2293,
      "غيره": 2294,
      "طبعاً": 2295,
      "مرك": 2296,
      "عندنا": 2297,
      "احسن": 2298,
      "ادر": 2299,
      "اده": 2300,
      "as": 2301,
      "100": 2302,
      "23": 2303,
      "وسي": 2304,
      "رجة": 2305,
      "اسه": 2306,
      "فقد": 2307,
      "قلي": 2308,
      "الجز": 2309,
      "وبين": 2310,
      "يغ": 2311,
      "عمري": 2312,
      "حمل": 2313,
      "****": 2314,
      "بالنسبة": 2315,
      "فعل": 2316,
      "uploads": 2317,
      "هات": 2318,
      "وجل": 2319,
      "الفر": 2320,
      "المكان": 2321,
      "ed": 2322,
      "بتها": 2323,
      "عدد": 2324,
      "لـ": 2325,
      "الـ": 2326,
      "مدينة": 2327,
      "سعيد": 2328,
      "واه": 2329,
      "العمل": 2330,
      "مساء": 2331,
      "ويس": 2332,
      "بره": 2333,
      "واف": 2334,
      "سيارات": 2335,
      "طلق": 2336,
      "بخير": 2337,
      "نفسها": 2338,
      "صدر": 2339,
      "تأ": 2340,
      "ليال": 2341,
      "ريح": 2342,
      "شيخ": 2343,
      "ادة": 2344,
      "العربية": 2345,
      "تقدر": 2346,
      "فار": 2347,
      "لدي": 2348,
      "وايد": 2349,
      "ايل": 2350,
      "الدع": 2351,
      "................": 2352,
      "بوع": 2353,
      "متك": 2354,
      "وفيق": 2355,
      "الكي": 2356,
      "بعيد": 2357,
      "انواع": 2358,
      "وقد": 2359,
      "الدمام": 2360,
      "باس": 2361,
      "لاحظ": 2362,
      "ابق": 2363,
      "وسم": 2364,
      "le": 2365,
      "حبيت": 2366,
      "راي": 2367,
      "بالت": 2368,
      "حرك": 2369,
      "وبه": 2370,
      "التع": 2371,
      "يحب": 2372,
      "نعم": 2373,
      "ابتس": 2374,
      "شنو": 2375,
      "oo": 2376,
      "يام": 2377,
      "جار": 2378,
      "شفى": 2379,
      "سية": 2380,
      "لأنه": 2381,
      "ئه": 2382,
      "اهدة": 2383,
      "ربة": 2384,
      "لاء": 2385,
      "واضح": 2386,
      "التر": 2387,
      "يشوف": 2388,
      "صحيح": 2389,
      "المر": 2390,
      "الخد": 2391,
      "وث": 2392,
      "نيه": 2393,
      "ههههه": 2394,
      "اكم": 2395,
      "ومع": 2396,
      "شا": 2397,
      "طالع": 2398,
      "يجب": 2399,
      "سام": 2400,
      "مجموع": 2401,
      "مكت": 2402,
      "كلمة": 2403,
      "ادري": 2404,
      "باح": 2405,
      "ميم": 2406,
      "بروح": 2407,
      "حك": 2408,
      "ياً": 2409,
      "تحمل": 2410,
      "مشار": 2411,
      "خمس": 2412,
      "عيد": 2413,
      "بقى": 2414,
      "قيق": 2415,
      "مافي": 2416,
      "الفريق": 2417,
      "??": 2418,
      "ياب": 2419,
      "اكبر": 2420,
      "نظر": 2421,
      "هلي": 2422,
      "متع": 2423,
      "استخدام": 2424,
      "____": 2425,
      "سمعت": 2426,
      "وام": 2427,
      "ايا": 2428,
      "ثانيه": 2429,
      "أغ": 2430,
      "جما": 2431,
      "حدث": 2432,
      "خرج": 2433,
      "مؤ": 2434,
      "يطلع": 2435,
      "بدا": 2436,
      "يتها": 2437,
      "الطري": 2438,
      "الجميع": 2439,
      "أص": 2440,
      "فـ": 2441,
      "يز": 2442,
      "الخلي": 2443,
      "حلوه": 2444,
      "خاصة": 2445,
      "السيارات": 2446,
      "يمه": 2447,
      "تحب": 2448,
      "مته": 2449,
      "اير": 2450,
      "سف": 2451,
      "سلا": 2452,
      "ظه": 2453,
      "قيه": 2454,
      "اون": 2455,
      "البن": 2456,
      "):": 2457,
      "22": 2458,
      "الإن": 2459,
      "بسيط": 2460,
      "قرب": 2461,
      "صاحب": 2462,
      "الزوج": 2463,
      "ديت": 2464,
      "راءة": 2465,
      "خفي": 2466,
      "انو": 2467,
      "اعم": 2468,
      "فرق": 2469,
      "عدم": 2470,
      "تز": 2471,
      "قسم": 2472,
      "ابة": 2473,
      "كبيرة": 2474,
      "أني": 2475,
      "اسي": 2476,
      "تحد": 2477,
      "بلس": 2478,
      "دار": 2479,
      "بسم": 2480,
      "الأمير": 2481,
      "oto": 2482,
      "بيد": 2483,
      "64": 2484,
      "افي": 2485,
      "بتاريخ": 2486,
      "طبيعي": 2487,
      "طفال": 2488,
      "السياره": 2489,
      "الاي": 2490,
      "اهر": 2491,
      "رغد": 2492,
      "حث": 2493,
      "زواج": 2494,
      "َّ": 2495,
      "الثالث": 2496,
      "تغل": 2497,
      "القط": 2498,
      "::": 2499,
      "زر": 2500,
      "صارت": 2501,
      "قدام": 2502,
      "حاج": 2503,
      "ماس": 2504,
      "مضان": 2505,
      "is": 2506,
      "لابس": 2507,
      "عنى": 2508,
      "كامل": 2509,
      "حبيبي": 2510,
      "هـ": 2511,
      "باي": 2512,
      "نقط": 2513,
      "أد": 2514,
      "نزل": 2515,
      "وكي": 2516,
      "it": 2517,
      "الكم": 2518,
      "بالح": 2519,
      "راحت": 2520,
      "اخرى": 2521,
      "الشيخ": 2522,
      "صديق": 2523,
      "ادم": 2524,
      "جيل": 2525,
      "تجي": 2526,
      "لكي": 2527,
      "جاء": 2528,
      "تعب": 2529,
      "اجل": 2530,
      "عنا": 2531,
      "نبي": 2532,
      "الطبي": 2533,
      "29": 2534,
      "اسمه": 2535,
      "ايضا": 2536,
      "عيون": 2537,
      "photo": 2538,
      "et": 2539,
      "البل": 2540,
      "وحدة": 2541,
      "ميه": 2542,
      "الاش": 2543,
      "رسول": 2544,
      "0000": 2545,
      "ch": 2546,
      "جلي": 2547,
      "حنا": 2548,
      "ضمن": 2549,
      "قري": 2550,
      "الاف": 2551,
      "ومة": 2552,
      "اسوي": 2553,
      "العم": 2554,
      "فترة": 2555,
      "أر": 2556,
      "تى": 2557,
      "كلهم": 2558,
      "نى": 2559,
      "ماشاء": 2560,
      "ليب": 2561,
      "دعاء": 2562,
      "طلال": 2563,
      "احة": 2564,
      "il": 2565,
      "ويا": 2566,
      "ويش": 2567,
      "اولا": 2568,
      "مغ": 2569,
      "الرد": 2570,
      "ملابس": 2571,
      "ot": 2572,
      "اقدر": 2573,
      "طوي": 2574,
      "العام": 2575,
      "تبين": 2576,
      "صاح": 2577,
      "ماراح": 2578,
      "يدخل": 2579,
      "دل": 2580,
      "شة": 2581,
      "وقيت": 2582,
      "رغم": 2583,
      "35": 2584,
      "الجام": 2585,
      "بض": 2586,
      "تَ": 2587,
      "رحت": 2588,
      "عات": 2589,
      "نش": 2590,
      "ائي": 2591,
      "النها": 2592,
      "محد": 2593,
      "أقول": 2594,
      "ترنت": 2595,
      "صيد": 2596,
      "ve": 2597,
      "مرا": 2598,
      "وبة": 2599,
      "حات": 2600,
      "لبس": 2601,
      "ملكة": 2602,
      "وغير": 2603,
      "رفع": 2604,
      "محل": 2605,
      "غلط": 2606,
      "ظل": 2607,
      "قنا": 2608,
      "القلب": 2609,
      "عمي": 2610,
      "شرح": 2611,
      "رمضان": 2612,
      "طور": 2613,
      "يخلي": 2614,
      "منتدى": 2615,
      "مصر": 2616,
      "مثلا": 2617,
      "الكر": 2618,
      "انهم": 2619,
      "الأن": 2620,
      "ديات": 2621,
      "وده": 2622,
      "اكت": 2623,
      "انته": 2624,
      "الحس": 2625,
      "جاسم": 2626,
      "قاع": 2627,
      "قريب": 2628,
      "راسه": 2629,
      "نست": 2630,
      "ونة": 2631,
      "تطلع": 2632,
      "ضافة": 2633,
      "توا": 2634,
      "تغير": 2635,
      "فاي": 2636,
      "نور": 2637,
      "جاه": 2638,
      "وإ": 2639,
      "الدكتور": 2640,
      "عروض": 2641,
      "26": 2642,
      "صال": 2643,
      "يدي": 2644,
      "اخي": 2645,
      "تو": 2646,
      "ويتي": 2647,
      "حيم": 2648,
      "مارات": 2649,
      "عص": 2650,
      "سير": 2651,
      "متر": 2652,
      "حبيبتي": 2653,
      "جس": 2654,
      "راب": 2655,
      "تسوي": 2656,
      "شغل": 2657,
      "ضيف": 2658,
      "الجديد": 2659,
      "^^": 2660,
      "la": 2661,
      "صورة": 2662,
      ":\"": 2663,
      "عبار": 2664,
      "علق": 2665,
      "السعر": 2666,
      "جسم": 2667,
      "فيهم": 2668,
      "التق": 2669,
      "افظ": 2670,
      "ملع": 2671,
      "ساره": 2672,
      "بالي": 2673,
      "وقالت": 2674,
      "كار": 2675,
      "لغ": 2676,
      "مواضيع": 2677,
      "الرجال": 2678,
      "تعلي": 2679,
      "فال": 2680,
      "لاي": 2681,
      "جمع": 2682,
      "09": 2683,
      "21": 2684,
      "طين": 2685,
      "منطقة": 2686,
      "وتع": 2687,
      "مفت": 2688,
      "للح": 2689,
      "وصيل": 2690,
      "كف": 2691,
      "امر": 2692,
      "مدري": 2693,
      "النس": 2694,
      "واقف": 2695,
      "منكم": 2696,
      "العظيم": 2697,
      "سيه": 2698,
      "تعالى": 2699,
      "سبب": 2700,
      "شاي": 2701,
      "لمدة": 2702,
      "لمين": 2703,
      "سيارة": 2704,
      "البشر": 2705,
      "دوري": 2706,
      "عض": 2707,
      "غس": 2708,
      "اتصل": 2709,
      "بوك": 2710,
      "ذاب": 2711,
      "صلح": 2712,
      "تحتاج": 2713,
      "ماذا": 2714,
      "ركز": 2715,
      "جعل": 2716,
      "جلست": 2717,
      "بالكويت": 2718,
      "مادري": 2719,
      "مرات": 2720,
      "دات": 2721,
      "التص": 2722,
      "زوجها": 2723,
      "28": 2724,
      "طن": 2725,
      "منذ": 2726,
      "رجال": 2727,
      "نح": 2728,
      "الصف": 2729,
      "بيل": 2730,
      "التف": 2731,
      "مباريات": 2732,
      "نزلت": 2733,
      "نك": 2734,
      "ولك": 2735,
      "el": 2736,
      "ماجد": 2737,
      "ياج": 2738,
      "ـي": 2739,
      "امري": 2740,
      "المشار": 2741,
      "تخب": 2742,
      "يمكنك": 2743,
      "الحياة": 2744,
      "سلطان": 2745,
      "غى": 2746,
      "المؤ": 2747,
      "اتك": 2748,
      "مرض": 2749,
      "مشاهدة": 2750,
      "بالنسبه": 2751,
      "st": 2752,
      "تاب": 2753,
      "شراء": 2754,
      "الواحد": 2755,
      "والحمد": 2756,
      "الشهر": 2757,
      "صرت": 2758,
      "تحدث": 2759,
      "النار": 2760,
      "عادة": 2761,
      "جهاز": 2762,
      "العلا": 2763,
      "OO": 2764,
      "ظم": 2765,
      "اليت": 2766,
      "مرح": 2767,
      "ولين": 2768,
      "اقل": 2769,
      "دها": 2770,
      "دموع": 2771,
      "مما": 2772,
      "هذ": 2773,
      "الوز": 2774,
      "هاب": 2775,
      "واتي": 2776,
      "عرفت": 2777,
      "الدي": 2778,
      "الخبر": 2779,
      "وصلت": 2780,
      "ألك": 2781,
      "ورت": 2782,
      "المع": 2783,
      "قيقه": 2784,
      "مشكلة": 2785,
      "الذين": 2786,
      "اتها": 2787,
      "غلا": 2788,
      "وكانت": 2789,
      "ارد": 2790,
      "متها": 2791,
      "99": 2792,
      "شرب": 2793,
      "وقل": 2794,
      "لانها": 2795,
      "شق": 2796,
      "احنا": 2797,
      "بتس": 2798,
      "واجه": 2799,
      "08": 2800,
      "الفه": 2801,
      "وبعدها": 2802,
      "عَ": 2803,
      "مافيه": 2804,
      "رين": 2805,
      "كبر": 2806,
      "اااااا": 2807,
      "أمام": 2808,
      "النوم": 2809,
      "راسها": 2810,
      "img102": 2811,
      "دك": 2812,
      "ورك": 2813,
      "الجهاز": 2814,
      "قلوب": 2815,
      "عيش": 2816,
      "الزواج": 2817,
      "نوره": 2818,
      "رجل": 2819,
      "لط": 2820,
      "يوفق": 2821,
      "سكر": 2822,
      "لعب": 2823,
      "موب": 2824,
      "الليل": 2825,
      "مممم": 2826,
      "سوا": 2827,
      "العل": 2828,
      "وسف": 2829,
      "زيون": 2830,
      "؟!": 2831,
      "ألف": 2832,
      "ظيف": 2833,
      "مشي": 2834,
      "زمان": 2835,
      "لقاء": 2836,
      "جاي": 2837,
      "سوق": 2838,
      "الآ": 2839,
      "اللون": 2840,
      "ويات": 2841,
      "استع": 2842,
      "المنتج": 2843,
      "خصص": 2844,
      "الساعه": 2845,
      "النت": 2846,
      "اقة": 2847,
      "دى": 2848,
      "موت": 2849,
      "تيجة": 2850,
      "سيد": 2851,
      "لاب": 2852,
      "الاتحاد": 2853,
      "34": 2854,
      "وإن": 2855,
      "اشتري": 2856,
      "روا": 2857,
      "هاي": 2858,
      "ديو": 2859,
      "ميس": 2860,
      "يدها": 2861,
      "وليس": 2862,
      "......": 2863,
      "مبروك": 2864,
      "طيه": 2865,
      "رسة": 2866,
      "بصراحه": 2867,
      "06": 2868,
      "ag": 2869,
      "وون": 2870,
      "والأ": 2871,
      "الجوال": 2872,
      "خصوصا": 2873,
      "الدعاء": 2874,
      "تجد": 2875,
      "فرا": 2876,
      "ينها": 2877,
      "صاب": 2878,
      "زعل": 2879,
      "2010": 2880,
      "عيني": 2881,
      "لاين": 2882,
      "ارض": 2883,
      "بالع": 2884,
      "بتوقيت": 2885,
      "يقولون": 2886,
      "><": 2887,
      "يقدم": 2888,
      "ليك": 2889,
      "راشد": 2890,
      "مركز": 2891,
      "تقدم": 2892,
      "شارع": 2893,
      "مناس": 2894,
      "لللل": 2895,
      "رجه": 2896,
      "مشاعل": 2897,
      "ضيوف": 2898,
      "الحمدلله": 2899,
      "مجموعة": 2900,
      "الاد": 2901,
      "وجهه": 2902,
      "محتر": 2903,
      "الصورة": 2904,
      "الثلاث": 2905,
      "طع": 2906,
      "الحمام": 2907,
      "نوم": 2908,
      "الوص": 2909,
      "المخ": 2910,
      "اريد": 2911,
      "غلب": 2912,
      "وطبع": 2913,
      "ab": 2914,
      "ـه": 2915,
      "الارض": 2916,
      "داد": 2917,
      "منتج": 2918,
      "زوجته": 2919,
      "أنك": 2920,
      "تحميل": 2921,
      "الأرض": 2922,
      "أكيد": 2923,
      "سار": 2924,
      "وبس": 2925,
      "راف": 2926,
      "خلف": 2927,
      "خلق": 2928,
      "دقائق": 2929,
      "سواء": 2930,
      "غري": 2931,
      "الور": 2932,
      "والع": 2933,
      "الجمعة": 2934,
      "اصيل": 2935,
      "لحن": 2936,
      "ــــــــــــــــــــــــــــــــ": 2937,
      "زز": 2938,
      "كأس": 2939,
      "الهم": 2940,
      "برو": 2941,
      "للبيع": 2942,
      "اوي": 2943,
      "شهد": 2944,
      "القي": 2945,
      "معاه": 2946,
      "احلى": 2947,
      "عيونها": 2948,
      "em": 2949,
      "سة": 2950,
      "ضغط": 2951,
      "المملكة": 2952,
      "الشري": 2953,
      "باك": 2954,
      "واحدة": 2955,
      "ثل": 2956,
      "زلت": 2957,
      "يَ": 2958,
      "راقي": 2959,
      "الجن": 2960,
      "سلمان": 2961,
      "جري": 2962,
      "دبي": 2963,
      "فكر": 2964,
      "المطعم": 2965,
      "سبحان": 2966,
      "ub": 2967,
      "وفيه": 2968,
      "العلم": 2969,
      "العين": 2970,
      "اجمل": 2971,
      "عيه": 2972,
      "ستان": 2973,
      "أث": 2974,
      "المعل": 2975,
      "حساء": 2976,
      "هز": 2977,
      "ماك": 2978,
      "امين": 2979,
      "بالغ": 2980,
      "تدخل": 2981,
      "الماء": 2982,
      "طبخ": 2983,
      "الطلب": 2984,
      "وقفت": 2985,
      "الحق": 2986,
      "اطق": 2987,
      "تاخذ": 2988,
      "جو": 2989,
      "الوط": 2990,
      "معهم": 2991,
      "بسي": 2992,
      "ائف": 2993,
      "الرجل": 2994,
      "حبه": 2995,
      "فج": 2996,
      "نصف": 2997,
      "بدل": 2998,
      "ادخل": 2999,
      "يقع": 3000,
      "الثانية": 3001,
      "بلي": 3002,
      "تلك": 3003,
      "دام": 3004,
      "سات": 3005,
      "قوة": 3006,
      "اين": 3007,
      "وأنت": 3008,
      "يأ": 3009,
      "وعي": 3010,
      "بصوت": 3011,
      "ئيس": 3012,
      "سارة": 3013,
      "طال": 3014,
      "فنادق": 3015,
      "ينت": 3016,
      "المزيد": 3017,
      "الفرق": 3018,
      "شهور": 3019,
      "فص": 3020,
      "السبب": 3021,
      "رايح": 3022,
      "خدمات": 3023,
      "مبارك": 3024,
      "ing": 3025,
      "جديدة": 3026,
      "الال": 3027,
      "كمان": 3028,
      "ودخل": 3029,
      "أكد": 3030,
      "إضافة": 3031,
      "تكل": 3032,
      "حفظ": 3033,
      "عائ": 3034,
      "مول": 3035,
      "عدة": 3036,
      "هههههههههههههههههههههههههههههههه": 3037,
      "فتره": 3038,
      "عنك": 3039,
      "ياخذ": 3040,
      "قامت": 3041,
      "حلوة": 3042,
      "أحب": 3043,
      "ربه": 3044,
      "يروح": 3045,
      "موعد": 3046,
      "ic": 3047,
      "تلف": 3048,
      "رخ": 3049,
      "الايام": 3050,
      "السهم": 3051,
      "وحط": 3052,
      "تهي": 3053,
      "اضي": 3054,
      "ثانية": 3055,
      "تمع": 3056,
      "حض": 3057,
      "عمره": 3058,
      "فتحت": 3059,
      "نار": 3060,
      "الأحساء": 3061,
      "اكس": 3062,
      "المرا": 3063,
      "بهذا": 3064,
      "عربي": 3065,
      "وانتي": 3066,
      "كبيره": 3067,
      "احه": 3068,
      "2009": 3069,
      "شالله": 3070,
      "لذلك": 3071,
      "مالي": 3072,
      "رفة": 3073,
      "بكم": 3074,
      "العرب": 3075,
      "ائر": 3076,
      "ههههههه": 3077,
      "تعامل": 3078,
      "uploads2": 3079,
      "أعرف": 3080,
      "خاط": 3081,
      "عله": 3082,
      "سيار": 3083,
      "صلة": 3084,
      "يريد": 3085,
      "تيب": 3086,
      "العمر": 3087,
      "قالوا": 3088,
      "فاج": 3089,
      "السؤال": 3090,
      "وتق": 3091,
      "كانوا": 3092,
      "وضح": 3093,
      "جليزي": 3094,
      "إله": 3095,
      "خلط": 3096,
      "النبي": 3097,
      "دكتور": 3098,
      "فكرة": 3099,
      "ولما": 3100,
      "الكبير": 3101,
      "فعلا": 3102,
      "أكبر": 3103,
      "طق": 3104,
      "طعم": 3105,
      "ِن": 3106,
      "الوا": 3107,
      "وهذي": 3108,
      "الدين": 3109,
      "36": 3110,
      "أهم": 3111,
      "حف": 3112,
      "قائ": 3113,
      "لاعب": 3114,
      "روحي": 3115,
      "هالم": 3116,
      "مسح": 3117,
      "دينا": 3118,
      "==": 3119,
      "التعلي": 3120,
      "لقيت": 3121,
      "فن": 3122,
      "هير": 3123,
      "يوسف": 3124,
      "الطي": 3125,
      "بتسم": 3126,
      "تزوج": 3127,
      "ونس": 3128,
      "الحي": 3129,
      "تحرك": 3130,
      "أحمد": 3131,
      "ثق": 3132,
      "ياس": 3133,
      "تيك": 3134,
      "الاج": 3135,
      "اعه": 3136,
      "أسعار": 3137,
      "نقطة": 3138,
      "أهل": 3139,
      "امام": 3140,
      "حرام": 3141,
      "للك": 3142,
      "الأخ": 3143,
      "غرفه": 3144,
      "لأني": 3145,
      "تعلم": 3146,
      "خوف": 3147,
      "طقه": 3148,
      "مازن": 3149,
      "كتاب": 3150,
      "تقد": 3151,
      "داع": 3152,
      "حيه": 3153,
      "نظيف": 3154,
      "بز": 3155,
      "المفر": 3156,
      "76": 3157,
      "طويل": 3158,
      "امها": 3159,
      "وقات": 3160,
      "انكا": 3161,
      "بهم": 3162,
      "سويت": 3163,
      "صع": 3164,
      "مظ": 3165,
      "وست": 3166,
      "كتبت": 3167,
      "انتبه": 3168,
      "الغرفه": 3169,
      "سيا": 3170,
      "فخ": 3171,
      "ليت": 3172,
      "مشاكل": 3173,
      "ظن": 3174,
      "بيب": 3175,
      "كلمات": 3176,
      "شعرها": 3177,
      "نهاية": 3178,
      "ثنين": 3179,
      "كوب": 3180,
      "كذلك": 3181,
      "وهل": 3182,
      "انيه": 3183,
      "وليد": 3184,
      "to1": 3185,
      "سمح": 3186,
      "بالد": 3187,
      "وهنا": 3188,
      "مشكله": 3189,
      "قدرت": 3190,
      "مقابل": 3191,
      "صوره": 3192,
      "فهو": 3193,
      "للت": 3194,
      "الصلا": 3195,
      "000": 3196,
      "45": 3197,
      "شاب": 3198,
      "ماً": 3199,
      "الجسم": 3200,
      "رجعت": 3201,
      "مجرد": 3202,
      "سؤال": 3203,
      "اعة": 3204,
      "انيا": 3205,
      "وعد": 3206,
      "اخل": 3207,
      "ترج": 3208,
      "هوة": 3209,
      "قوي": 3210,
      "لحد": 3211,
      "هند": 3212,
      "معين": 3213,
      "وته": 3214,
      "التى": 3215,
      "حسيت": 3216,
      "قولي": 3217,
      "كنا": 3218,
      "الموجود": 3219,
      "السيا": 3220,
      "النظ": 3221,
      "عارف": 3222,
      "غريب": 3223,
      "المك": 3224,
      "معاي": 3225,
      "ميت": 3226,
      "حاب": 3227,
      "فري": 3228,
      "مآ": 3229,
      "جيت": 3230,
      "الدور": 3231,
      "الصغير": 3232,
      "رائعة": 3233,
      "سأ": 3234,
      "نوات": 3235,
      "وذلك": 3236,
      "ماهو": 3237,
      "فيما": 3238,
      "والتي": 3239,
      "ديدة": 3240,
      "39": 3241,
      "بَ": 3242,
      "خارج": 3243,
      "يوفر": 3244,
      "يحتاج": 3245,
      "غيير": 3246,
      "خيرا": 3247,
      "ضد": 3248,
      "الحمل": 3249,
      "الدخ": 3250,
      "قلبه": 3251,
      "ـــــ": 3252,
      "تقوم": 3253,
      "عدت": 3254,
      "تدري": 3255,
      "أيام": 3256,
      "بصراحة": 3257,
      "48": 3258,
      "un": 3259,
      "انسان": 3260,
      "اروح": 3261,
      "باق": 3262,
      "سما": 3263,
      "صاد": 3264,
      "مير": 3265,
      "ماني": 3266,
      "يقدر": 3267,
      "ابدا": 3268,
      "الحربي": 3269,
      "شاش": 3270,
      "تنس": 3271,
      "المشكلة": 3272,
      "تركيب": 3273,
      "بسرعة": 3274,
      "تكم": 3275,
      "طيف": 3276,
      "اللع": 3277,
      "يعطيك": 3278,
      "اكون": 3279,
      "جات": 3280,
      "رفي": 3281,
      "روس": 3282,
      "شى": 3283,
      "ويقول": 3284,
      "وقلت": 3285,
      "ah": 3286,
      "إللي": 3287,
      "شوفي": 3288,
      "اربع": 3289,
      "وبا": 3290,
      "ذيذ": 3291,
      "زيل": 3292,
      "آآآآآآآآ": 3293,
      "الاولى": 3294,
      "\".": 3295,
      "ow": 3296,
      "احي": 3297,
      "مشعل": 3298,
      "تريد": 3299,
      "طالب": 3300,
      "مريم": 3301,
      "ّه": 3302,
      "الوجه": 3303,
      "راسي": 3304,
      "ترد": 3305,
      "العالمين": 3306,
      "فقال": 3307,
      "وطلع": 3308,
      "والن": 3309,
      "الرحيم": 3310,
      "لأنها": 3311,
      "صغيره": 3312,
      "يحت": 3313,
      "وجهها": 3314,
      "نقاط": 3315,
      "واز": 3316,
      "للم": 3317,
      "لسل": 3318,
      "رررررررر": 3319,
      "02": 3320,
      "تخلي": 3321,
      "الموسم": 3322,
      "ارع": 3323,
      "السعوديه": 3324,
      "دايم": 3325,
      "حما": 3326,
      "ـآ": 3327,
      "قليل": 3328,
      "إست": 3329,
      "رنا": 3330,
      "قرر": 3331,
      "واجد": 3332,
      "ميد": 3333,
      "النوع": 3334,
      "كثيرا": 3335,
      "مجانا": 3336,
      "ملاحظ": 3337,
      "اكتب": 3338,
      "رى": 3339,
      "قوم": 3340,
      "المركز": 3341,
      "وربي": 3342,
      "زوجك": 3343,
      "قف": 3344,
      "الري": 3345,
      "لايف": 3346,
      "السرير": 3347,
      "PM": 3348,
      "us": 3349,
      "فسي": 3350,
      "ويض": 3351,
      "العي": 3352,
      "اطع": 3353,
      "بناء": 3354,
      "حطي": 3355,
      "ضى": 3356,
      "ّي": 3357,
      "ههه": 3358,
      "الحديث": 3359,
      "40": 3360,
      "ضبط": 3361,
      "الموت": 3362,
      "كية": 3363,
      "قهر": 3364,
      "مليون": 3365,
      "وجلست": 3366,
      "زها": 3367,
      "فش": 3368,
      "ارجي": 3369,
      "أخي": 3370,
      "كثيرة": 3371,
      "صلاة": 3372,
      "رونق": 3373,
      "اعلم": 3374,
      "حمام": 3375,
      "ظار": 3376,
      "مختلف": 3377,
      "البد": 3378,
      "لاع": 3379,
      "ولار": 3380,
      "بينهم": 3381,
      "صعب": 3382,
      "منع": 3383,
      "ونص": 3384,
      "افت": 3385,
      "يومين": 3386,
      "لماذا": 3387,
      "رار": 3388,
      "وعن": 3389,
      "يعمل": 3390,
      "ساعات": 3391,
      "يرجع": 3392,
      "طلبت": 3393,
      "الكويتي": 3394,
      "طريقه": 3395,
      "01": 3396,
      "كب": 3397,
      "انصح": 3398,
      "المشكله": 3399,
      "معر": 3400,
      "الاسبوع": 3401,
      "الوحيد": 3402,
      "سلام": 3403,
      "اسود": 3404,
      "العاب": 3405,
      "القص": 3406,
      "مشكور": 3407,
      "يقوم": 3408,
      "أكمل": 3409,
      "زاد": 3410,
      "ضاً": 3411,
      "ويمكن": 3412,
      "تار": 3413,
      "يبه": 3414,
      "بعي": 3415,
      "اخواني": 3416,
      "مهما": 3417,
      "li": 3418,
      "زح": 3419,
      "سأل": 3420,
      "جده": 3421,
      "علاج": 3422,
      "المطبخ": 3423,
      "ادي": 3424,
      "سامي": 3425,
      "ودع": 3426,
      "يعتبر": 3427,
      "صغيرة": 3428,
      "you": 3429,
      "فكره": 3430,
      "هني": 3431,
      "يلي": 3432,
      "تاريخ": 3433,
      "جبت": 3434,
      "تروني": 3435,
      "أة": 3436,
      "رم": 3437,
      "فور": 3438,
      "كك": 3439,
      "يُ": 3440,
      "المجم": 3441,
      "ترت": 3442,
      "القحط": 3443,
      "ثالث": 3444,
      "ماله": 3445,
      "وبد": 3446,
      "ياليت": 3447,
      "مجلس": 3448,
      "يسلم": 3449,
      "كسر": 3450,
      "ولف": 3451,
      "اعط": 3452,
      "فلوس": 3453,
      "خه": 3454,
      "موقف": 3455,
      "ويد": 3456,
      "قصة": 3457,
      "33": 3458,
      "خاي": 3459,
      "متزوج": 3460,
      "وسري": 3461,
      "مستحيل": 3462,
      "وجهك": 3463,
      "تبكي": 3464,
      "اعتقد": 3465,
      "om": 3466,
      "الفة": 3467,
      "تنظيف": 3468,
      "طم": 3469,
      "عالي": 3470,
      "يؤ": 3471,
      "ينفع": 3472,
      "الصحي": 3473,
      "اهي": 3474,
      "الثانيه": 3475,
      "القحطاني": 3476,
      "حست": 3477,
      "حديث": 3478,
      "سوى": 3479,
      "وكنت": 3480,
      "تنزل": 3481,
      "سليمان": 3482,
      ":)": 3483,
      "خش": 3484,
      "وحتى": 3485,
      ",,,": 3486,
      "55": 3487,
      "لوح": 3488,
      "نسي": 3489,
      "فيت": 3490,
      "ذاكر": 3491,
      "التج": 3492,
      "مده": 3493,
      "الأخير": 3494,
      "القراءة": 3495,
      "جت": 3496,
      "جاز": 3497,
      "قض": 3498,
      "كير": 3499,
      "١١": 3500,
      "اسمع": 3501,
      "ومس": 3502,
      "جميلة": 3503,
      "المسلمين": 3504,
      "بول": 3505,
      "جين": 3506,
      "حاط": 3507,
      "لز": 3508,
      "مناسب": 3509,
      "الدواد": 3510,
      "باد": 3511,
      "البرنامج": 3512,
      "استق": 3513,
      "قدير": 3514,
      "بائ": 3515,
      "هوا": 3516,
      "الحص": 3517,
      "الأع": 3518,
      "محلات": 3519,
      "محشش": 3520,
      "2013": 3521,
      "الطريق": 3522,
      "دينار": 3523,
      "ac": 3524,
      "أشوف": 3525,
      "حز": 3526,
      "مله": 3527,
      "فيكم": 3528,
      "يسوي": 3529,
      "طبق": 3530,
      "كاس": 3531,
      "ماكن": 3532,
      "لامه": 3533,
      "يران": 3534,
      "عمرها": 3535,
      "وبت": 3536,
      "للأ": 3537,
      "اوكي": 3538,
      "أيضا": 3539,
      "الخاصة": 3540,
      "120": 3541,
      "تلا": 3542,
      "فها": 3543,
      "لوس": 3544,
      "المغ": 3545,
      "اتهم": 3546,
      "السفر": 3547,
      "ساعد": 3548,
      "الرابع": 3549,
      "ثبت": 3550,
      "ظة": 3551,
      "الحلو": 3552,
      "متاب": 3553,
      "شركات": 3554,
      "الجما": 3555,
      "الغرفة": 3556,
      "الدوادمى": 3557,
      "تلق": 3558,
      "حكم": 3559,
      "لبي": 3560,
      "شافت": 3561,
      "ent": 3562,
      "الخليج": 3563,
      "امن": 3564,
      "ونج": 3565,
      "ابوي": 3566,
      "الأولى": 3567,
      "عطر": 3568,
      "فاء": 3569,
      "عيم": 3570,
      "العافيه": 3571,
      "حجز": 3572,
      "عاج": 3573,
      "فني": 3574,
      "نوف": 3575,
      "نشوف": 3576,
      "حسين": 3577,
      "تفع": 3578,
      "ارجو": 3579,
      "جديده": 3580,
      "فو": 3581,
      "شيل": 3582,
      "الاكل": 3583,
      "الصباح": 3584,
      "الرقم": 3585,
      "بيني": 3586,
      "المشاركة": 3587,
      "وانه": 3588,
      "ولها": 3589,
      "والج": 3590,
      "الشه": 3591,
      "تعالي": 3592,
      "مشكل": 3593,
      "صفات": 3594,
      "الشركة": 3595,
      "الطريقة": 3596,
      "نب": 3597,
      "المميز": 3598,
      "طلوب": 3599,
      "اصلا": 3600,
      "خدمه": 3601,
      "مكتوب": 3602,
      "مفتوح": 3603,
      "id": 3604,
      "um": 3605,
      "رأس": 3606,
      "البعض": 3607,
      "الريال": 3608,
      "الولد": 3609,
      "والش": 3610,
      "وجهي": 3611,
      "شيئ": 3612,
      "البحث": 3613,
      "نسيت": 3614,
      "رآ": 3615,
      "صبح": 3616,
      "نشر": 3617,
      "الوضع": 3618,
      "تيه": 3619,
      "يادة": 3620,
      "كرر": 3621,
      "قلبها": 3622,
      "الصوره": 3623,
      "البلا": 3624,
      "بطولة": 3625,
      "كاتب": 3626,
      "جمال": 3627,
      "بون": 3628,
      "حون": 3629,
      "غار": 3630,
      "قى": 3631,
      "السر": 3632,
      "تحي": 3633,
      "تمر": 3634,
      "وكيف": 3635,
      "ديك": 3636,
      "الفوز": 3637,
      "مستوى": 3638,
      "عتقد": 3639,
      "الشركات": 3640,
      "سريع": 3641,
      "صراحه": 3642,
      "لآ": 3643,
      "برد": 3644,
      "هنادي": 3645,
      "نظام": 3646,
      "69": 3647,
      "توي": 3648,
      "درا": 3649,
      "رز": 3650,
      "شاهد": 3651,
      "صرف": 3652,
      "دقايق": 3653,
      "جنب": 3654,
      "شكلها": 3655,
      "ـر": 3656,
      "قصر": 3657,
      "ماهي": 3658,
      "لهذا": 3659,
      "معاك": 3660,
      "عدل": 3661,
      "الزيت": 3662,
      "ort": 3663,
      "رؤ": 3664,
      "قاعد": 3665,
      "مابي": 3666,
      "ونك": 3667,
      "معاها": 3668,
      ".......": 3669,
      "جزء": 3670,
      "حج": 3671,
      "الوج": 3672,
      "ذاك": 3673,
      "ميع": 3674,
      "محتاج": 3675,
      "عيل": 3676,
      "حساس": 3677,
      "ig": 3678,
      "رزق": 3679,
      "سو": 3680,
      "الغالي": 3681,
      "حبوب": 3682,
      "اخذت": 3683,
      "المواضيع": 3684,
      "حاولت": 3685,
      "بود": 3686,
      "حقي": 3687,
      "قوله": 3688,
      "القدم": 3689,
      "تحط": 3690,
      "وسه": 3691,
      "AM": 3692,
      "رأي": 3693,
      "ظلم": 3694,
      "اند": 3695,
      "فيات": 3696,
      "ارية": 3697,
      "بالأ": 3698,
      "متجر": 3699,
      "اهلي": 3700,
      "اريام": 3701,
      "ظروف": 3702,
      "الاسعار": 3703,
      "المستشفى": 3704,
      "بريده": 3705,
      "ممن": 3706,
      "الجولة": 3707,
      "الأش": 3708,
      "سيل": 3709,
      "سنين": 3710,
      "جربت": 3711,
      "الحلقة": 3712,
      ").": 3713,
      "باع": 3714,
      "حالة": 3715,
      "البيض": 3716,
      "تصير": 3717,
      "واجب": 3718,
      "هدف": 3719,
      "قناة": 3720,
      "يان": 3721,
      "يرد": 3722,
      "تعمل": 3723,
      "ختار": 3724,
      "تُ": 3725,
      "وطلعت": 3726,
      "ومش": 3727,
      "؟؟؟؟؟؟؟؟": 3728,
      "أخرى": 3729,
      "60": 3730,
      "يحس": 3731,
      "ينك": 3732,
      "ورج": 3733,
      "وجلس": 3734,
      "يساعد": 3735,
      "رسالة": 3736,
      "ركة": 3737,
      "ـا": 3738,
      "والخ": 3739,
      "شركه": 3740,
      "وشكرا": 3741,
      "اشياء": 3742,
      "رضي": 3743,
      "ay": 3744,
      "بدي": 3745,
      "حتي": 3746,
      "ضعي": 3747,
      "نون": 3748,
      "والق": 3749,
      "بهد": 3750,
      "بحر": 3751,
      "المنت": 3752,
      "ur": 3753,
      "تكلم": 3754,
      "المه": 3755,
      "ويكون": 3756,
      "الجنة": 3757,
      "الطائف": 3758,
      "بطري": 3759,
      "دانا": 3760,
      "يبعد": 3761,
      "البس": 3762,
      "بيوتر": 3763,
      "ستر": 3764,
      "قيم": 3765,
      "ربما": 3766,
      "اضغط": 3767,
      "إنها": 3768,
      "أسف": 3769,
      "يلعب": 3770,
      "البحرين": 3771,
      "وطبعا": 3772,
      "زال": 3773,
      "شام": 3774,
      "عنوان": 3775,
      "طيك": 3776,
      "وصار": 3777,
      "مطار": 3778,
      "حامل": 3779,
      "ذوق": 3780,
      "الاخر": 3781,
      "كمال": 3782,
      "التوفيق": 3783,
      "الكبي": 3784,
      "ييي": 3785,
      "لعبة": 3786,
      "مباشرة": 3787,
      "مناسبة": 3788,
      "دول": 3789,
      "عع": 3790,
      "عالية": 3791,
      "مناف": 3792,
      "واك": 3793,
      "رابط": 3794,
      "اخبار": 3795,
      "المجلس": 3796,
      "معروف": 3797,
      "ir": 3798,
      "فينا": 3799,
      "بيكون": 3800,
      "مهور": 3801,
      "عادل": 3802,
      "احدث": 3803,
      "مايو": 3804,
      "خفيف": 3805,
      "رئيس": 3806,
      "غة": 3807,
      "لخ": 3808,
      "واش": 3809,
      "العديد": 3810,
      "تفكر": 3811,
      "يسعد": 3812,
      "رحم": 3813,
      "ردت": 3814,
      "and": 3815,
      "الرابط": 3816,
      "دارة": 3817,
      "غالي": 3818,
      "فما": 3819,
      "ماش": 3820,
      "كثيره": 3821,
      "دقيقة": 3822,
      "غا": 3823,
      "ماسك": 3824,
      "الته": 3825,
      "التواصل": 3826,
      "البار": 3827,
      "عندكم": 3828,
      "أجل": 3829,
      "أحسن": 3830,
      "طا": 3831,
      "عاش": 3832,
      "فرج": 3833,
      "ليست": 3834,
      "ترة": 3835,
      "تنت": 3836,
      "خليه": 3837,
      "انب": 3838,
      "ابت": 3839,
      "اسمها": 3840,
      "التس": 3841,
      "وريا": 3842,
      "دفع": 3843,
      "مقد": 3844,
      "يكن": 3845,
      "والك": 3846,
      "32": 3847,
      "جذي": 3848,
      "الين": 3849,
      "ماشي": 3850,
      "بينما": 3851,
      "آت": 3852,
      "تمد": 3853,
      "ويوم": 3854,
      "قيل": 3855,
      "قيمة": 3856,
      "قامة": 3857,
      "أمل": 3858,
      "اجد": 3859,
      "حلا": 3860,
      "هاد": 3861,
      "وقبل": 3862,
      "ترجع": 3863,
      "الشع": 3864,
      "البرا": 3865,
      "عملية": 3866,
      "يحفظ": 3867,
      "نجوم": 3868,
      "بى": 3869,
      "عمه": 3870,
      "فلس": 3871,
      "المري": 3872,
      "كلنا": 3873,
      "الشمس": 3874,
      "الصلاة": 3875,
      "لفت": 3876,
      "لذيذ": 3877,
      "نروح": 3878,
      "اتوقع": 3879,
      "كلمه": 3880,
      "العلي": 3881,
      "وهذه": 3882,
      "ملعب": 3883,
      "النف": 3884,
      "زيارة": 3885,
      "بقوة": 3886,
      "راسة": 3887,
      "توفر": 3888,
      "كورة": 3889,
      "لَ": 3890,
      "مشر": 3891,
      "كيلو": 3892,
      "خصم": 3893,
      "صرخ": 3894,
      "صفحات": 3895,
      "توقع": 3896,
      "حضر": 3897,
      "روض": 3898,
      "اننا": 3899,
      "منز": 3900,
      "السمو": 3901,
      "غيرك": 3902,
      "يفتح": 3903,
      "ابيض": 3904,
      "أولا": 3905,
      "ينزل": 3906,
      "ادل": 3907,
      "تخيل": 3908,
      "php": 3909,
      "أحس": 3910,
      "وإذا": 3911,
      "يابن": 3912,
      "ولدي": 3913,
      "ياخ": 3914,
      "للس": 3915,
      "للجميع": 3916,
      "الأح": 3917,
      "الشكر": 3918,
      "دخول": 3919,
      "زيادة": 3920,
      "فهي": 3921,
      "وبن": 3922,
      "الانت": 3923,
      "العتي": 3924,
      "رفض": 3925,
      "ــــــ": 3926,
      "تعبت": 3927,
      "تقبل": 3928,
      "إنك": 3929,
      "لحين": 3930,
      "الملكي": 3931,
      "مكة": 3932,
      "تعد": 3933,
      "مجه": 3934,
      "ركات": 3935,
      "بور": 3936,
      "بأس": 3937,
      "سهل": 3938,
      "شرة": 3939,
      "بعده": 3940,
      "المفروض": 3941,
      "حوالي": 3942,
      "فاهم": 3943,
      "قمت": 3944,
      "نط": 3945,
      "يعلم": 3946,
      "المحل": 3947,
      "كرم": 3948,
      "طيري": 3949,
      "تجر": 3950,
      "لونه": 3951,
      "وخاص": 3952,
      "ion": 3953,
      "حاله": 3954,
      "حجم": 3955,
      "خله": 3956,
      "غم": 3957,
      "قاد": 3958,
      "نقدم": 3959,
      "ارجع": 3960,
      "واخذ": 3961,
      "التوصيل": 3962,
      "يتكلم": 3963,
      "جميله": 3964,
      "تضحك": 3965,
      "صراحة": 3966,
      "السري": 3967,
      "اخوان": 3968,
      "استفس": 3969,
      "يجعل": 3970,
      "دولار": 3971,
      "رفين": 3972,
      "قالي": 3973,
      "مفر": 3974,
      "بعث": 3975,
      "احت": 3976,
      "الاص": 3977,
      "لوان": 3978,
      "أبجد": 3979,
      "مظلات": 3980,
      "ذبح": 3981,
      "سكس": 3982,
      "عوا": 3983,
      "عاي": 3984,
      "فوز": 3985,
      "الشيء": 3986,
      "لاكن": 3987,
      "اتب": 3988,
      "الدجاج": 3989,
      "قلبك": 3990,
      "ائج": 3991,
      "زوجتي": 3992,
      "رسه": 3993,
      "[/": 3994,
      "حلم": 3995,
      "غب": 3996,
      "فان": 3997,
      "الحاج": 3998,
      "الشعب": 3999,
      "ملح": 4000,
      "الخي": 4001,
      "اهرة": 4002,
      "ركه": 4003,
      "آآآ": 4004,
      "vb": 4005,
      "أمي": 4006,
      "اذكر": 4007,
      "المشر": 4008,
      "رامي": 4009,
      "الأص": 4010,
      "النص": 4011,
      "تساعد": 4012,
      "تفت": 4013,
      "أتمنى": 4014,
      "pp": 4015,
      "قاله": 4016,
      "88": 4017,
      "بقول": 4018,
      "روعه": 4019,
      "ابر": 4020,
      "الخرج": 4021,
      "اوز": 4022,
      "تسلم": 4023,
      "أخوي": 4024,
      "تصرف": 4025,
      "خليها": 4026,
      "تمشي": 4027,
      "خلصت": 4028,
      "عزيز": 4029,
      "الحال": 4030,
      "مرتين": 4031,
      "تحر": 4032,
      "المنزل": 4033,
      "الامر": 4034,
      "بإذن": 4035,
      "باست": 4036,
      "صاير": 4037,
      "ضب": 4038,
      "عقب": 4039,
      "ماكس": 4040,
      "الصبح": 4041,
      "اولة": 4042,
      "اختيار": 4043,
      "وراحت": 4044,
      "أعلم": 4045,
      "تعل": 4046,
      "قار": 4047,
      "كين": 4048,
      "لقد": 4049,
      "وتقول": 4050,
      "احط": 4051,
      "بندر": 4052,
      "قلة": 4053,
      "كيه": 4054,
      "رأة": 4055,
      "المطيري": 4056,
      "وتح": 4057,
      "احبك": 4058,
      "التد": 4059,
      "وسوف": 4060,
      "يمشي": 4061,
      "وكذلك": 4062,
      "تصميم": 4063,
      "ملاك": 4064,
      "والسلام": 4065,
      "جالسه": 4066,
      "فاط": 4067,
      "كو": 4068,
      "نواف": 4069,
      "ديقة": 4070,
      "ورى": 4071,
      "السود": 4072,
      "بالإضافة": 4073,
      "بتك": 4074,
      "القاد": 4075,
      "عيونه": 4076,
      "اللحم": 4077,
      "رخيص": 4078,
      "ألا": 4079,
      "ضه": 4080,
      "عصير": 4081,
      "كال": 4082,
      "ابقة": 4083,
      "اسة": 4084,
      "باه": 4085,
      "مساعد": 4086,
      "ربنا": 4087,
      "وصف": 4088,
      "تفتح": 4089,
      "أسألك": 4090,
      "سبوع": 4091,
      "ثلاثة": 4092,
      "العافية": 4093,
      "شعري": 4094,
      "ذل": 4095,
      "كَ": 4096,
      "الامارات": 4097,
      "غيرها": 4098,
      "الاخت": 4099,
      "طويله": 4100,
      "لدينا": 4101,
      "وخل": 4102,
      "تردد": 4103,
      "الفنادق": 4104,
      "عمال": 4105,
      "للاسف": 4106,
      "اطلع": 4107,
      "بكره": 4108,
      "خسر": 4109,
      "داء": 4110,
      "كـ": 4111,
      "مِن": 4112,
      "يوصل": 4113,
      "السنة": 4114,
      "أنتي": 4115,
      "سنتين": 4116,
      "انتظر": 4117,
      "مشاركة": 4118,
      "امريكا": 4119,
      "أقل": 4120,
      "خة": 4121,
      "فصل": 4122,
      "وافي": 4123,
      "ويع": 4124,
      "الخميس": 4125,
      "اشكر": 4126,
      "بينا": 4127,
      "يعط": 4128,
      "تجرب": 4129,
      "زع": 4130,
      "عزي": 4131,
      "هاذي": 4132,
      "راد": 4133,
      "العض": 4134,
      "احمر": 4135,
      "الرياضية": 4136,
      "عاده": 4137,
      "الطريقه": 4138,
      "الاشياء": 4139,
      "ex": 4140,
      "ألم": 4141,
      "بأي": 4142,
      "ضرب": 4143,
      "ّة": 4144,
      "ليلة": 4145,
      "الأيام": 4146,
      "ااااا": 4147,
      "النق": 4148,
      "عيب": 4149,
      "وووووو": 4150,
      "ذنب": 4151,
      "وكيل": 4152,
      "حيا": 4153,
      "لوب": 4154,
      "يفه": 4155,
      "لابد": 4156,
      "السن": 4157,
      "تيجه": 4158,
      "التفت": 4159,
      "متاز": 4160,
      "رفعت": 4161,
      "الأهلي": 4162,
      "الرز": 4163,
      "نصيح": 4164,
      "البلد": 4165,
      "44": 4166,
      "جوا": 4167,
      "خادم": 4168,
      "عقد": 4169,
      "فاق": 4170,
      "لجميع": 4171,
      "ريا": 4172,
      "تحديد": 4173,
      "كتنا": 4174,
      "اجعل": 4175,
      "الصوت": 4176,
      "انتم": 4177,
      "تخرج": 4178,
      "جانب": 4179,
      "--------------------------------": 4180,
      "الفرن": 4181,
      "أبد": 4182,
      "ظف": 4183,
      "قين": 4184,
      "كشف": 4185,
      "الولا": 4186,
      "والحين": 4187,
      "عنهم": 4188,
      "سيف": 4189,
      "مسلم": 4190,
      "مجال": 4191,
      "بقوه": 4192,
      "مطبخ": 4193,
      "دايما": 4194,
      "647": 4195,
      "66": 4196,
      "شل": 4197,
      "عما": 4198,
      "الظهر": 4199,
      "لاف": 4200,
      "اساس": 4201,
      "السالفه": 4202,
      "العيد": 4203,
      "تعتبر": 4204,
      "اجر": 4205,
      "عيوني": 4206,
      "بينه": 4207,
      "رائعه": 4208,
      "خاصه": 4209,
      "خخخخخخخخ": 4210,
      "الخدمات": 4211,
      "حا": 4212,
      "حار": 4213,
      "قمة": 4214,
      "كلي": 4215,
      "يكتب": 4216,
      "تحاول": 4217,
      "واتمنى": 4218,
      "الشركه": 4219,
      "the": 4220,
      "العتيبي": 4221,
      "port": 4222,
      "تتح": 4223,
      "صبر": 4224,
      "ضار": 4225,
      "المُ": 4226,
      "ولله": 4227,
      "اخلي": 4228,
      "الاق": 4229,
      "تعطي": 4230,
      "لفزيون": 4231,
      "ستي": 4232,
      "عايش": 4233,
      "وقتها": 4234,
      "عليج": 4235,
      "تعال": 4236,
      "مشاري": 4237,
      "ازل": 4238,
      "تصدق": 4239,
      ",,,,": 4240,
      "2008": 4241,
      "معلومات": 4242,
      "هاني": 4243,
      "وبعض": 4244,
      "ياا": 4245,
      "يرات": 4246,
      "والان": 4247,
      "بسعر": 4248,
      "يدري": 4249,
      "باط": 4250,
      "الرئي": 4251,
      "أوراق": 4252,
      "استخدم": 4253,
      "77": 4254,
      "ra": 4255,
      "حبت": 4256,
      "سابق": 4257,
      "فائ": 4258,
      "ليف": 4259,
      "اليمن": 4260,
      "احترا": 4261,
      "زوجة": 4262,
      "أيضاً": 4263,
      "مكياج": 4264,
      "،،،": 4265,
      "أمر": 4266,
      "بوا": 4267,
      "بريد": 4268,
      "خالتي": 4269,
      "سود": 4270,
      "طح": 4271,
      "مالك": 4272,
      "رايك": 4273,
      "افلام": 4274,
      "تجربة": 4275,
      "المصري": 4276,
      "جرب": 4277,
      "مصد": 4278,
      "يهم": 4279,
      "الون": 4280,
      "انج": 4281,
      "مناطق": 4282,
      "الفرح": 4283,
      "مسكت": 4284,
      "عده": 4285,
      "!!!!!!!!": 4286,
      "اوب": 4287,
      "تتع": 4288,
      "حمه": 4289,
      "عسى": 4290,
      "مكتب": 4291,
      "الكن": 4292,
      "والدي": 4293,
      "الحك": 4294,
      "وصاحب": 4295,
      "مالها": 4296,
      "التعامل": 4297,
      "بطل": 4298,
      "ـن": 4299,
      "الطيب": 4300,
      "انى": 4301,
      "ريف": 4302,
      "ريك": 4303,
      "ناظر": 4304,
      "ياد": 4305,
      "يتك": 4306,
      "ـــــــ": 4307,
      "بلد": 4308,
      "عيال": 4309,
      "أختي": 4310,
      "واحده": 4311,
      "شاءالله": 4312,
      "شكراً": 4313,
      "طبيق": 4314,
      "\"\"": 4315,
      "رها": 4316,
      "سد": 4317,
      "عى": 4318,
      "ِي": 4319,
      "لامي": 4320,
      "بالبيت": 4321,
      "التها": 4322,
      "ترتيب": 4323,
      "سعره": 4324,
      "أجمل": 4325,
      "خالي": 4326,
      "سكت": 4327,
      "شاط": 4328,
      "نعرف": 4329,
      "الملابس": 4330,
      "والإ": 4331,
      "بالضبط": 4332,
      "يموت": 4333,
      "عتبر": 4334,
      "الماضي": 4335,
      "غيري": 4336,
      "1411": 4337,
      "يييييييييييييييي": 4338,
      "030": 4339,
      "اور": 4340,
      "خاف": 4341,
      "كُ": 4342,
      "اليا": 4343,
      "ومان": 4344,
      "السنه": 4345,
      "تره": 4346,
      "يحط": 4347,
      "اقرأ": 4348,
      "رحمة": 4349,
      "مستشفى": 4350,
      "الاسم": 4351,
      "122": 4352,
      "الامير": 4353,
      "سليم": 4354,
      "ذو": 4355,
      "قا": 4356,
      "هالشي": 4357,
      "ابغى": 4358,
      "وتش": 4359,
      "تحصل": 4360,
      "يمين": 4361,
      "ابتسمت": 4362,
      "ec": 4363,
      "باني": 4364,
      "طرق": 4365,
      "لبن": 4366,
      "وشي": 4367,
      "اللى": 4368,
      "الافضل": 4369,
      "ايب": 4370,
      "افكر": 4371,
      "الطعام": 4372,
      "الجزء": 4373,
      "500": 4374,
      "أف": 4375,
      "عزل": 4376,
      "برج": 4377,
      "وبات": 4378,
      "الشارع": 4379,
      "الصدر": 4380,
      "ندوق": 4381,
      "لدرجة": 4382,
      "ملعقة": 4383,
      "OOOO": 4384,
      "761411": 4385,
      "761411647": 4386,
      "درج": 4387,
      "صج": 4388,
      "الوان": 4389,
      "ورس": 4390,
      "سيط": 4391,
      "باذن": 4392,
      "حطيت": 4393,
      "ضعف": 4394,
      "ممتازة": 4395,
      "الحرمين": 4396,
      "قادر": 4397,
      "يين": 4398,
      "يتح": 4399,
      "وقام": 4400,
      "العميل": 4401,
      "العراق": 4402,
      "ستجد": 4403,
      "افع": 4404,
      "الأمر": 4405,
      "المنطقه": 4406,
      "بغى": 4407,
      "تمت": 4408,
      "ذالك": 4409,
      "مخت": 4410,
      "أنواع": 4411,
      "لمس": 4412,
      "حيانا": 4413,
      "الطرق": 4414,
      "img104": 4415,
      "our": 4416,
      "تكتب": 4417,
      "رن": 4418,
      "باله": 4419,
      "بالصور": 4420,
      "للحين": 4421,
      "مدح": 4422,
      "الاغ": 4423,
      "الفرا": 4424,
      "الخوف": 4425,
      "منتديات": 4426,
      "جامعة": 4427,
      "مرحبا": 4428,
      "هع": 4429,
      "انون": 4430,
      "الحبيب": 4431,
      "ترف": 4432,
      "الشكل": 4433,
      "طيح": 4434,
      "تنسي": 4435,
      "تجعل": 4436,
      "يفكر": 4437,
      "تصار": 4438,
      "يارا": 4439,
      "يجار": 4440,
      "الاتصال": 4441,
      "تستطيع": 4442,
      "pr": 4443,
      "تغيير": 4444,
      "شور": 4445,
      "لامة": 4446,
      "المغرب": 4447,
      "واخر": 4448,
      "الجميل": 4449,
      "حياته": 4450,
      "حتها": 4451,
      "قطر": 4452,
      "الامور": 4453,
      "________": 4454,
      "الآخر": 4455,
      "منو": 4456,
      "فيديو": 4457,
      "بيك": 4458,
      "الدوسري": 4459,
      "الجديدة": 4460,
      "الاطفال": 4461,
      "الشئ": 4462,
      "الشاعر": 4463,
      "اشهر": 4464,
      "خخخ": 4465,
      "وسطا": 4466,
      "أمس": 4467,
      "دليل": 4468,
      "سج": 4469,
      "شَ": 4470,
      "فإن": 4471,
      "قصد": 4472,
      "كويس": 4473,
      "معنى": 4474,
      "اللقاء": 4475,
      "انكم": 4476,
      "علان": 4477,
      "يرزق": 4478,
      "العائ": 4479,
      "مدريد": 4480,
      "الصين": 4481,
      "تقديم": 4482,
      "المناسب": 4483,
      "يشتغل": 4484,
      "الرسول": 4485,
      "الإنترنت": 4486,
      "أرج": 4487,
      "سهم": 4488,
      "سحر": 4489,
      "عس": 4490,
      "كأن": 4491,
      "ّر": 4492,
      "انني": 4493,
      "معكم": 4494,
      "العج": 4495,
      "التالي": 4496,
      "حدود": 4497,
      "المنطقة": 4498,
      "يحاول": 4499,
      "شوية": 4500,
      "شعور": 4501,
      "الأعضاء": 4502,
      "جرير": 4503,
      "خيار": 4504,
      "دو": 4505,
      "ضم": 4506,
      "متح": 4507,
      "نَ": 4508,
      "ماكان": 4509,
      "السما": 4510,
      "قلم": 4511,
      "كتير": 4512,
      "ربك": 4513,
      "بكة": 4514,
      "لحم": 4515,
      "لفل": 4516,
      "ذكرت": 4517,
      "أمري": 4518,
      "بغيت": 4519,
      "موجوده": 4520,
      "المجموعة": 4521,
      "حلي": 4522,
      "مواقع": 4523,
      "راك": 4524,
      "الترج": 4525,
      "بدع": 4526,
      "الفت": 4527,
      "اوله": 4528,
      "تقولين": 4529,
      "مشت": 4530,
      "ذهبي": 4531,
      "المنتخب": 4532,
      "عمرك": 4533,
      "توصل": 4534,
      "خرب": 4535,
      "دوا": 4536,
      "عامل": 4537,
      "فلان": 4538,
      "الرائع": 4539,
      "المواقع": 4540,
      "نام": 4541,
      "العطر": 4542,
      "لكتروني": 4543,
      "تتكلم": 4544,
      "احساس": 4545,
      "تقريباً": 4546,
      "اسبوعين": 4547,
      "دائماً": 4548,
      "عبارة": 4549,
      "الوطن": 4550,
      "أكل": 4551,
      "إخ": 4552,
      "حياة": 4553,
      "صا": 4554,
      "فَ": 4555,
      "يضحك": 4556,
      "بنك": 4557,
      "بنتي": 4558,
      "تعرفين": 4559,
      "الخر": 4560,
      "اصبح": 4561,
      "حمدان": 4562,
      "عينه": 4563,
      "شهرين": 4564,
      "of": 4565,
      "أدري": 4566,
      "ئية": 4567,
      "بشي": 4568,
      "جون": 4569,
      "طرح": 4570,
      "معلم": 4571,
      "منصور": 4572,
      "وافق": 4573,
      "الحلم": 4574,
      "مرار": 4575,
      "اصدق": 4576,
      "تسجيل": 4577,
      "تعليق": 4578,
      "بخصوص": 4579,
      "شها": 4580,
      "نحط": 4581,
      "لاك": 4582,
      "وتست": 4583,
      "اخاف": 4584,
      "بهذه": 4585,
      "الكري": 4586,
      "مشى": 4587,
      "هيه": 4588,
      "تجمع": 4589,
      "لكنه": 4590,
      "مطاعم": 4591,
      "برامج": 4592,
      "العنود": 4593,
      "بسيطة": 4594,
      "80": 4595,
      "ver": 4596,
      "حبة": 4597,
      "فجر": 4598,
      "ديده": 4599,
      "بسه": 4600,
      "الشاب": 4601,
      "ملة": 4602,
      "حقق": 4603,
      "جنة": 4604,
      "جميعا": 4605,
      "ol": 4606,
      "سفر": 4607,
      "يطلب": 4608,
      "السل": 4609,
      "وحد": 4610,
      "صحاب": 4611,
      "غرفتها": 4612,
      "تؤ": 4613,
      "تابع": 4614,
      "ذة": 4615,
      "ماما": 4616,
      "الحج": 4617,
      "ييم": 4618,
      "طية": 4619,
      "اجي": 4620,
      "نسوي": 4621,
      "حلمت": 4622,
      "الانسان": 4623,
      "رايكم": 4624,
      "ew": 4625,
      "رص": 4626,
      "غبي": 4627,
      "فارس": 4628,
      "كد": 4629,
      "هاها": 4630,
      "ونحن": 4631,
      "معاهم": 4632,
      "بالج": 4633,
      "العصر": 4634,
      "الدول": 4635,
      "قلق": 4636,
      "النظر": 4637,
      "قالو": 4638,
      "شويه": 4639,
      "ضروري": 4640,
      "سكري": 4641,
      "صلاح": 4642,
      "********": 4643,
      "وغيرها": 4644,
      "شاشة": 4645,
      "أرض": 4646,
      "أربع": 4647,
      "سعاد": 4648,
      "عري": 4649,
      "هاا": 4650,
      "لائ": 4651,
      "لاص": 4652,
      "الفات": 4653,
      "النج": 4654,
      "وانات": 4655,
      "الغام": 4656,
      "واجعل": 4657,
      "ضحكت": 4658,
      "سبورت": 4659,
      "المباريات": 4660,
      "طويلة": 4661,
      "ul": 4662,
      "آه": 4663,
      "تصل": 4664,
      "ثان": 4665,
      "دانه": 4666,
      "فاف": 4667,
      "قعد": 4668,
      "موض": 4669,
      "انزل": 4670,
      "اتنا": 4671,
      "اعدة": 4672,
      "الجو": 4673,
      "مشغ": 4674,
      "لحق": 4675,
      "عارفه": 4676,
      "دن": 4677,
      "دير": 4678,
      "عبير": 4679,
      "وبدون": 4680,
      "الريم": 4681,
      "ارى": 4682,
      "ناه": 4683,
      "معرفة": 4684,
      "ترم": 4685,
      "ولاد": 4686,
      "رساله": 4687,
      "ناسب": 4688,
      "بابا": 4689,
      "خروج": 4690,
      "out": 4691,
      "وائل": 4692,
      "الاعضاء": 4693,
      "القطط": 4694,
      "عضو": 4695,
      "ئلة": 4696,
      "غني": 4697,
      "اتكم": 4698,
      "السماء": 4699,
      "وتس": 4700,
      "الصالح": 4701,
      "جيجا": 4702,
      "عموما": 4703,
      "يوميا": 4704,
      "إنت": 4705,
      "ههههههههه": 4706,
      "المدرسة": 4707,
      "كاملة": 4708,
      "بسيطه": 4709,
      "الجامعة": 4710,
      "خايفه": 4711,
      "توقف": 4712,
      "زمن": 4713,
      "شقق": 4714,
      "صيل": 4715,
      "طاع": 4716,
      "نقول": 4717,
      "يما": 4718,
      "المودي": 4719,
      "الماليه": 4720,
      "بيته": 4721,
      "ولن": 4722,
      "واليوم": 4723,
      "السبت": 4724,
      "بدأت": 4725,
      "يدة": 4726,
      "ملف": 4727,
      "اثنين": 4728,
      "img103": 4729,
      "العلاج": 4730,
      "مجاناً": 4731,
      "عوض": 4732,
      "قع": 4733,
      "قمر": 4734,
      "وشر": 4735,
      "المياه": 4736,
      "ايج": 4737,
      "للبيت": 4738,
      "ولازم": 4739,
      "الاط": 4740,
      "البخ": 4741,
      "وصول": 4742,
      "جوسطا": 4743,
      "مْ": 4744,
      "مود": 4745,
      "يزيد": 4746,
      "يجيب": 4747,
      "البداية": 4748,
      "الموظ": 4749,
      "ومست": 4750,
      "وتن": 4751,
      "وفه": 4752,
      "وحي": 4753,
      "الكتاب": 4754,
      "جدول": 4755,
      "النفس": 4756,
      "واسعار": 4757,
      "رأيت": 4758,
      "فاتن": 4759,
      "الشريفين": 4760,
      "0306": 4761,
      "اغل": 4762,
      "رَ": 4763,
      "ويست": 4764,
      "برة": 4765,
      "فرد": 4766,
      "عافية": 4767,
      "للاست": 4768,
      "أحلى": 4769,
      "المطاعم": 4770,
      "يكفي": 4771,
      "وايضا": 4772,
      "ابتسم": 4773,
      "بالعكس": 4774,
      "النظام": 4775,
      "37": 4776,
      "49": 4777,
      "أمه": 4778,
      "فاض": 4779,
      "الغير": 4780,
      "الورد": 4781,
      "منزل": 4782,
      "فيف": 4783,
      "المول": 4784,
      "ديكور": 4785,
      "معا": 4786,
      "الحد": 4787,
      "تحقيق": 4788,
      "تعط": 4789,
      "ائع": 4790,
      "غرفتي": 4791,
      "اغفر": 4792,
      "شارك": 4793,
      "بالتوفيق": 4794,
      "اذن": 4795,
      "اغلب": 4796,
      "سؤ": 4797,
      "سبق": 4798,
      "طفل": 4799,
      "ريت": 4800,
      "ورق": 4801,
      "الدولي": 4802,
      "الشاش": 4803,
      "يييييي": 4804,
      "حنان": 4805,
      "محترفين": 4806,
      "غريبه": 4807,
      "المعلومات": 4808,
      "eb": 4809,
      "ter": 4810,
      "خز": 4811,
      "خوا": 4812,
      "دجاج": 4813,
      "درجة": 4814,
      "عذ": 4815,
      "فلم": 4816,
      "قوية": 4817,
      "مكون": 4818,
      "منتخب": 4819,
      "ناحية": 4820,
      "كلما": 4821,
      "معقول": 4822,
      "العب": 4823,
      "اعري": 4824,
      "وفى": 4825,
      "الاثنين": 4826,
      "فرع": 4827,
      "عملي": 4828,
      "مكانه": 4829,
      "ثي": 4830,
      "جبني": 4831,
      "ذف": 4832,
      "سين": 4833,
      "شير": 4834,
      "عف": 4835,
      "المكر": 4836,
      "اتكلم": 4837,
      "افتح": 4838,
      "الاهلي": 4839,
      "فسير": 4840,
      "هههههههههه": 4841,
      "شفته": 4842,
      "نقوم": 4843,
      "كلامي": 4844,
      "وكمان": 4845,
      "جاني": 4846,
      "رره": 4847,
      "ظبي": 4848,
      "فز": 4849,
      "٠٠": 4850,
      "المال": 4851,
      "السكر": 4852,
      "لمى": 4853,
      "كثرة": 4854,
      "تسمع": 4855,
      "عهد": 4856,
      "أمير": 4857,
      "لدى": 4858,
      "شششش": 4859,
      "كامله": 4860,
      "دموعها": 4861,
      "تبارك": 4862,
      "وراء": 4863,
      "معت": 4864,
      "السابق": 4865,
      "يدور": 4866,
      "شركتنا": 4867,
      "الخارجي": 4868,
      "رباء": 4869,
      "اكد": 4870,
      "خليني": 4871,
      "أمها": 4872,
      "رائد": 4873,
      "ملامح": 4874,
      "الظاهر": 4875,
      "90": 4876,
      "he": 4877,
      "بحت": 4878,
      "بالسيارة": 4879,
      "حبك": 4880,
      "خم": 4881,
      "طاء": 4882,
      "هدي": 4883,
      "بيانكا": 4884,
      "بعص": 4885,
      "بنس": 4886,
      "الشحن": 4887,
      "تعام": 4888,
      "مسافة": 4889,
      "ابيع": 4890,
      "الأمور": 4891,
      "حياتك": 4892,
      "تحياتي": 4893,
      "38": 4894,
      "98": 4895,
      "بكي": 4896,
      "كأنه": 4897,
      "يذكر": 4898,
      "برح": 4899,
      "للأسف": 4900,
      "ااااااا": 4901,
      "زية": 4902,
      "لقى": 4903,
      "قصص": 4904,
      "المسؤ": 4905,
      "كراسي": 4906,
      "الحساب": 4907,
      "قررت": 4908,
      "ri": 4909,
      "حام": 4910,
      "عبين": 4911,
      "الملف": 4912,
      "ارحم": 4913,
      "ناقص": 4914,
      "معانا": 4915,
      "شره": 4916,
      "وسر": 4917,
      "طيها": 4918,
      "اجه": 4919,
      "ائية": 4920,
      "خلينا": 4921,
      "أحبك": 4922,
      "وووووووووووووووو": 4923,
      "سبحانه": 4924,
      "حصلت": 4925,
      "الوصول": 4926,
      "aw": 4927,
      "أبها": 4928,
      "فاز": 4929,
      "يو": 4930,
      "المها": 4931,
      "ومو": 4932,
      "العق": 4933,
      "الدكت": 4934,
      "جيه": 4935,
      "مجاني": 4936,
      "رحلة": 4937,
      "نهائي": 4938,
      "الكلمات": 4939,
      "356": 4940,
      "بهدوء": 4941,
      "se": 4942,
      "إليه": 4943,
      "تكت": 4944,
      "الالم": 4945,
      "والذي": 4946,
      "وممكن": 4947,
      "الدرج": 4948,
      "الأد": 4949,
      "مسؤ": 4950,
      "وصي": 4951,
      "عينها": 4952,
      "ورحمه": 4953,
      "الهاتف": 4954,
      "تذكرت": 4955,
      "الحصول": 4956,
      "حليب": 4957,
      "سبع": 4958,
      "شديد": 4959,
      "ضاف": 4960,
      "كافة": 4961,
      "يبارك": 4962,
      "ارقام": 4963,
      "ريما": 4964,
      "بالخير": 4965,
      "ودك": 4966,
      "الدرا": 4967,
      "الصح": 4968,
      "لونها": 4969,
      "هداف": 4970,
      ":(": 4971,
      "for": 4972,
      "زرق": 4973,
      "شعب": 4974,
      "لإ": 4975,
      "وول": 4976,
      "ليم": 4977,
      "المي": 4978,
      "ايم": 4979,
      "تفاصيل": 4980,
      "تدور": 4981,
      "داعي": 4982,
      "يابنات": 4983,
      "شخ": 4984,
      "طات": 4985,
      "طرف": 4986,
      "هون": 4987,
      "فيس": 4988,
      "ديها": 4989,
      "اعمل": 4990,
      "للأوراق": 4991,
      "الدم": 4992,
      "الخامس": 4993,
      "وشلون": 4994,
      "حسبي": 4995,
      "يعطيكم": 4996,
      "بطريقة": 4997,
      "ng": 4998,
      "تبحث": 4999,
      "جنا": 5000,
      "قش": 5001,
      "يصل": 5002,
      "المز": 5003,
      "المعر": 5004,
      "معرف": 5005,
      "وجع": 5006,
      "تركت": 5007,
      "الاقل": 5008,
      "تعود": 5009,
      "محت": 5010,
      "تقولي": 5011,
      "الطب": 5012,
      "اطفال": 5013,
      "نسبة": 5014,
      "يستحق": 5015,
      "جيدة": 5016,
      "بتي": 5017,
      "بوط": 5018,
      "توب": 5019,
      "حاس": 5020,
      "ـل": 5021,
      "يعد": 5022,
      "الراح": 5023,
      "ونات": 5024,
      "راضي": 5025,
      "كلمت": 5026,
      "العبد": 5027,
      "برى": 5028,
      "بدت": 5029,
      "ترفع": 5030,
      "الروا": 5031,
      "النادي": 5032,
      "الكرسي": 5033,
      "الدخول": 5034,
      "47": 5035,
      "اى": 5036,
      "بحيث": 5037,
      "دقيقه": 5038,
      "الواقع": 5039,
      "تيار": 5040,
      "اليد": 5041,
      "كنتي": 5042,
      "الدورة": 5043,
      "اضافة": 5044,
      "كثي": 5045,
      "أسبوع": 5046,
      "ورية": 5047,
      "الوحدة": 5048,
      "زياده": 5049,
      "واجهة": 5050,
      "كذ": 5051,
      "الهي": 5052,
      "ماعندي": 5053,
      "ابحث": 5054,
      "وقه": 5055,
      "العنا": 5056,
      "الحما": 5057,
      "اعده": 5058,
      "قلنا": 5059,
      "الشغ": 5060,
      "تقال": 5061,
      "بحق": 5062,
      "تسوق": 5063,
      "وكيا": 5064,
      "رضى": 5065,
      "ابوها": 5066,
      "تراك": 5067,
      "حاليا": 5068,
      "التفاصيل": 5069,
      "متابعة": 5070,
      "عزيزي": 5071,
      "فهذا": 5072,
      "نتيجة": 5073,
      "ريحة": 5074,
      "والص": 5075,
      "امك": 5076,
      "اسية": 5077,
      "وحة": 5078,
      "تعرض": 5079,
      "باً": 5080,
      "2014": 5081,
      "يسمع": 5082,
      "اللاعب": 5083,
      "الجامعه": 5084,
      "عباره": 5085,
      "ودخلت": 5086,
      "الاجتما": 5087,
      "اللعبة": 5088,
      "اطلب": 5089,
      "عو": 5090,
      "عان": 5091,
      "قومي": 5092,
      "بيوم": 5093,
      "ميلا": 5094,
      "اقوى": 5095,
      "مستعمل": 5096,
      "جابة": 5097,
      "حصه": 5098,
      "95": 5099,
      "اظ": 5100,
      "بوس": 5101,
      "رهي": 5102,
      "سجل": 5103,
      "قويه": 5104,
      "متي": 5105,
      "هالح": 5106,
      "المث": 5107,
      "والكل": 5108,
      "للمحترفين": 5109,
      "مرور": 5110,
      "ترق": 5111,
      "ترون": 5112,
      "سياره": 5113,
      "مسوي": 5114,
      "ربها": 5115,
      "يفة": 5116,
      "قتل": 5117,
      "اثناء": 5118,
      "يحتوي": 5119,
      "لص": 5120,
      "نو": 5121,
      "ايميل": 5122,
      "بالش": 5123,
      "برها": 5124,
      "للإ": 5125,
      "التك": 5126,
      "الأكل": 5127,
      "تعبر": 5128,
      "مسلسل": 5129,
      "وانته": 5130,
      "الهدف": 5131,
      "استف": 5132,
      "وفير": 5133,
      "تصف": 5134,
      "شوفوا": 5135,
      "السياحية": 5136,
      "بأنه": 5137,
      "الاخرى": 5138,
      "علبة": 5139,
      "بالف": 5140,
      "مشك": 5141,
      "تفاع": 5142,
      "يحصل": 5143,
      "الانترنت": 5144,
      "نزول": 5145,
      "موجودة": 5146,
      "70": 5147,
      "شب": 5148,
      "فكرت": 5149,
      "قبال": 5150,
      "موس": 5151,
      "ياي": 5152,
      "ماكنت": 5153,
      "اعضاء": 5154,
      "وحش": 5155,
      "سيكون": 5156,
      "تقع": 5157,
      "يحمل": 5158,
      "الزمن": 5159,
      "تحتوي": 5160,
      "عاون": 5161,
      "يناظر": 5162,
      "البطن": 5163,
      "وتيوب": 5164,
      "المرور": 5165,
      "النساء": 5166,
      "12220": 5167,
      "حَ": 5168,
      "ضة": 5169,
      "ضية": 5170,
      "مبلغ": 5171,
      "نات": 5172,
      "وعند": 5173,
      "معد": 5174,
      "وتكون": 5175,
      "بنظ": 5176,
      "الإلكتروني": 5177,
      "سرعة": 5178,
      "وجدت": 5179,
      "تلعب": 5180,
      "<<<": 5181,
      "الخطوط": 5182,
      "حياتها": 5183,
      "الثلاثاء": 5184,
      "030612220": 5185,
      "بغي": 5186,
      "تجيب": 5187,
      "ثبيت": 5188,
      "غه": 5189,
      "هيا": 5190,
      "وابي": 5191,
      "راجع": 5192,
      "ياح": 5193,
      "للع": 5194,
      "بدو": 5195,
      "مدير": 5196,
      "الأسبوع": 5197,
      "جدد": 5198,
      "تقت": 5199,
      "تقى": 5200,
      "فرات": 5201,
      "صدري": 5202,
      "يستطيع": 5203,
      "قتين": 5204,
      "تجربتي": 5205,
      "75": 5206,
      "لمت": 5207,
      "وزي": 5208,
      "ماعرف": 5209,
      "بيتي": 5210,
      "ويك": 5211,
      "وتها": 5212,
      "الياب": 5213,
      "بده": 5214,
      "ادث": 5215,
      "بتكون": 5216,
      "فرصة": 5217,
      "وصارت": 5218,
      "تنسى": 5219,
      "كلامه": 5220,
      "موباي": 5221,
      "احيانا": 5222,
      "مختلفة": 5223,
      "030612220356": 5224,
      "cl": 5225,
      "ئل": 5226,
      "ئات": 5227,
      "حري": 5228,
      "زون": 5229,
      "لفون": 5230,
      "انزين": 5231,
      "ونزلت": 5232,
      "والب": 5233,
      "كمية": 5234,
      "الحقي": 5235,
      "الحقيقة": 5236,
      "بتع": 5237,
      "الليلة": 5238,
      "مشاعر": 5239,
      "بيننا": 5240,
      "تهاء": 5241,
      "خدام": 5242,
      "بطال": 5243,
      "تعرفون": 5244,
      "أهلي": 5245,
      "البشرة": 5246,
      "تبع": 5247,
      "غسل": 5248,
      "قدي": 5249,
      "نايف": 5250,
      "العروس": 5251,
      "للج": 5252,
      "ادير": 5253,
      "متعب": 5254,
      "وحه": 5255,
      "الداخ": 5256,
      "اهو": 5257,
      "عرب": 5258,
      "تقسيط": 5259,
      "وانتم": 5260,
      "قطعه": 5261,
      "شفاء": 5262,
      "قرار": 5263,
      "ايفانكا": 5264,
      "لاحظت": 5265,
      "صادق": 5266,
      "والنصر": 5267,
      "بله": 5268,
      "تظهر": 5269,
      "خذي": 5270,
      "زاء": 5271,
      "سبت": 5272,
      "شات": 5273,
      "فأ": 5274,
      "ونفس": 5275,
      "بالق": 5276,
      "وتين": 5277,
      "شرق": 5278,
      "تعيش": 5279,
      ".........": 5280,
      "القائ": 5281,
      "مشغل": 5282,
      "ذهبت": 5283,
      "المنام": 5284,
      "لسه": 5285,
      "رسل": 5286,
      "رسائل": 5287,
      "رحمه": 5288,
      "ردود": 5289,
      "حمود": 5290,
      "حقه": 5291,
      "ساك": 5292,
      "ـة": 5293,
      "مويه": 5294,
      "بالص": 5295,
      "ياكل": 5296,
      "شرط": 5297,
      "اولي": 5298,
      "عمله": 5299,
      "بطاقة": 5300,
      "نتين": 5301,
      "وجهة": 5302,
      "تستخدم": 5303,
      "عجبني": 5304,
      "تلفون": 5305,
      "ak": 5306,
      "خطي": 5307,
      "عسل": 5308,
      "وفيها": 5309,
      "والى": 5310,
      "الحكم": 5311,
      "وتك": 5312,
      "الجنه": 5313,
      "الكه": 5314,
      "القسم": 5315,
      "لحظة": 5316,
      "لانك": 5317,
      "المشاكل": 5318,
      "ممتازه": 5319,
      "الوحدات": 5320,
      "تماما": 5321,
      "IM": 5322,
      "تذ": 5323,
      "حني": 5324,
      "سون": 5325,
      "….": 5326,
      "المره": 5327,
      "المطلوب": 5328,
      "ونعم": 5329,
      "بيها": 5330,
      "بيدي": 5331,
      "ولكم": 5332,
      "استح": 5333,
      "اعمال": 5334,
      "التاريخ": 5335,
      "الأمري": 5336,
      "بائي": 5337,
      "طيبه": 5338,
      "اهله": 5339,
      "القوي": 5340,
      "تفكير": 5341,
      "المسافر": 5342,
      "صوته": 5343,
      "الجميلة": 5344,
      "الطبيب": 5345,
      "hh": 5346,
      "أعتقد": 5347,
      "إحنا": 5348,
      "تشي": 5349,
      "تزيد": 5350,
      "عكس": 5351,
      "الو": 5352,
      "الذهب": 5353,
      "لاه": 5354,
      "وااا": 5355,
      "راه": 5356,
      "العشاء": 5357,
      "نيك": 5358,
      "للد": 5359,
      "كنه": 5360,
      "الدف": 5361,
      "الشام": 5362,
      "اجن": 5363,
      "القهوة": 5364,
      "شكال": 5365,
      "جزاك": 5366,
      "لعبه": 5367,
      "أخذت": 5368,
      "الأسعار": 5369,
      "بوكس": 5370,
      "تتف": 5371,
      "تفيد": 5372,
      "ردي": 5373,
      "عذاب": 5374,
      "هج": 5375,
      "يبحث": 5376,
      "ّل": 5377,
      "الاحد": 5378,
      "..:": 5379,
      "همه": 5380,
      "الفاض": 5381,
      "الصبر": 5382,
      "2019": 5383,
      "لوز": 5384,
      "الروح": 5385,
      "قطعة": 5386,
      "سبحانك": 5387,
      "شريك": 5388,
      "الصفحة": 5389,
      "الراحمين": 5390,
      "65": 5391,
      "af": 5392,
      "آي": 5393,
      "أقدر": 5394,
      "بف": 5395,
      "شحن": 5396,
      "صنع": 5397,
      "عاليه": 5398,
      "قاب": 5399,
      "قديم": 5400,
      "انشاء": 5401,
      "واقول": 5402,
      "ناف": 5403,
      "راخ": 5404,
      "ديق": 5405,
      "العرض": 5406,
      "متاع": 5407,
      "كيس": 5408,
      "القدي": 5409,
      "القنوات": 5410,
      "تفصيل": 5411,
      "تختار": 5412,
      "اااااااااا": 5413,
      "زينه": 5414,
      "اماكن": 5415,
      "تنام": 5416,
      "المطار": 5417,
      "all": 5418,
      "كلامك": 5419,
      "القرآن": 5420,
      "الخدمة": 5421,
      "الأشياء": 5422,
      "آخ": 5423,
      "بتح": 5424,
      "تان": 5425,
      "تمن": 5426,
      "يبقى": 5427,
      "القد": 5428,
      "المتح": 5429,
      "الموقف": 5430,
      "اترك": 5431,
      "راكان": 5432,
      "ابوه": 5433,
      "ومت": 5434,
      "احاول": 5435,
      "الأخر": 5436,
      "طيبة": 5437,
      "بينها": 5438,
      "يسأل": 5439,
      "هلال": 5440,
      "قرأ": 5441,
      "ملاء": 5442,
      "جهزة": 5443,
      "غرور": 5444,
      "فكير": 5445,
      "واحنا": 5446,
      "الأصلية": 5447,
      "300": 5448,
      "أأ": 5449,
      "أكون": 5450,
      "حافظ": 5451,
      "سمي": 5452,
      "فمن": 5453,
      "مقال": 5454,
      "يفيد": 5455,
      "مارس": 5456,
      "لاقي": 5457,
      "وتشي": 5458,
      "وجميع": 5459,
      "الفترة": 5460,
      "الخلا": 5461,
      "الثلا": 5462,
      "صدمت": 5463,
      "تالي": 5464,
      "تتحدث": 5465,
      "سخ": 5466,
      "صص": 5467,
      "كاب": 5468,
      "مدي": 5469,
      "العشر": 5470,
      "التلفزيون": 5471,
      "متوفر": 5472,
      "القادم": 5473,
      "الطفل": 5474,
      "ساعتين": 5475,
      "عافيه": 5476,
      "ess": 5477,
      "read": 5478,
      "حركات": 5479,
      "تلفزيون": 5480,
      "قائمة": 5481,
      "آم": 5482,
      "أثر": 5483,
      "اوم": 5484,
      "بكرة": 5485,
      "غد": 5486,
      "كأنها": 5487,
      "نكون": 5488,
      "واتس": 5489,
      "معقوله": 5490,
      "الكرام": 5491,
      "البق": 5492,
      "2016": 5493,
      "فرش": 5494,
      "وأس": 5495,
      "بيتنا": 5496,
      "ركب": 5497,
      "سطحة": 5498,
      "يوفقك": 5499,
      "اللعبه": 5500,
      "ail": 5501,
      "بمن": 5502,
      "جح": 5503,
      "خفت": 5504,
      "كود": 5505,
      "مكر": 5506,
      "هُ": 5507,
      "انق": 5508,
      "ناعم": 5509,
      "بعين": 5510,
      "باللي": 5511,
      "اعي": 5512,
      "يدل": 5513,
      "الجد": 5514,
      "الفجر": 5515,
      "تعبان": 5516,
      "استغفر": 5517,
      "يستاهل": 5518,
      "نجاح": 5519,
      "الضغط": 5520,
      "جبكم": 5521,
      "الفريقين": 5522,
      "البنك": 5523,
      "يخليك": 5524,
      "أذن": 5525,
      "باء": 5526,
      "ضيق": 5527,
      "ولهم": 5528,
      "يبيع": 5529,
      "انين": 5530,
      "ورفع": 5531,
      "وتم": 5532,
      "اليك": 5533,
      "ترب": 5534,
      "الاه": 5535,
      "حدد": 5536,
      "اصبحت": 5537,
      "جية": 5538,
      "قططي": 5539,
      "قالها": 5540,
      "اقرب": 5541,
      "خصوصاً": 5542,
      "اختار": 5543,
      "العنزي": 5544,
      "التركي": 5545,
      "عيونك": 5546,
      "live": 5547,
      "بكر": 5548,
      "توني": 5549,
      "توجد": 5550,
      "حرف": 5551,
      "غفار": 5552,
      "ّا": 5553,
      "الزي": 5554,
      "والاخ": 5555,
      "اسف": 5556,
      "علية": 5557,
      "التش": 5558,
      "ودها": 5559,
      "الشغل": 5560,
      "كوني": 5561,
      "عمتي": 5562,
      "المناطق": 5563,
      "إنسان": 5564,
      "وارع": 5565,
      "جزاكم": 5566,
      "مكانها": 5567,
      "الخاصه": 5568,
      "خبره": 5569,
      "مشاركات": 5570,
      "التسجيل": 5571,
      "be": 5572,
      "آمين": 5573,
      "اكمل": 5574,
      "تطلب": 5575,
      "خرا": 5576,
      "روعة": 5577,
      "سمه": 5578,
      "طلاق": 5579,
      "هور": 5580,
      "وعندما": 5581,
      "ليا": 5582,
      "واوا": 5583,
      "ونت": 5584,
      "علما": 5585,
      "بسط": 5586,
      "ترض": 5587,
      "الجمال": 5588,
      "كيك": 5589,
      "وبك": 5590,
      "وسع": 5591,
      "باين": 5592,
      "الصد": 5593,
      "فرة": 5594,
      "مثلك": 5595,
      "مثلاً": 5596,
      "لسى": 5597,
      "ديني": 5598,
      "يطالع": 5599,
      "إليك": 5600,
      "سسسس": 5601,
      "جيدا": 5602,
      "الطبيعي": 5603,
      "تنسيق": 5604,
      "بكثير": 5605,
      "تاح": 5606,
      "حالي": 5607,
      "شرف": 5608,
      "طفى": 5609,
      "غز": 5610,
      "غام": 5611,
      "لديه": 5612,
      "يمر": 5613,
      "ماين": 5614,
      "المكتب": 5615,
      "الحالي": 5616,
      "وتو": 5617,
      "وعط": 5618,
      "كانو": 5619,
      "الدوره": 5620,
      "الأربع": 5621,
      "انتو": 5622,
      "نتوش": 5623,
      "الاسود": 5624,
      "قصه": 5625,
      "خذت": 5626,
      "تناظر": 5627,
      "2007": 5628,
      "شغله": 5629,
      "مميزة": 5630,
      "الجزيرة": 5631,
      "المنتجات": 5632,
      "أثناء": 5633,
      "ee": 5634,
      "اقه": 5635,
      "بطي": 5636,
      "دنا": 5637,
      "عك": 5638,
      "قرا": 5639,
      "هكذا": 5640,
      "الوكيل": 5641,
      "انام": 5642,
      "منال": 5643,
      "لاس": 5644,
      "ارف": 5645,
      "نائ": 5646,
      "ابات": 5647,
      "اسماء": 5648,
      "ومين": 5649,
      "وعدم": 5650,
      "يتوفر": 5651,
      "...\"": 5652,
      "زيه": 5653,
      "يعين": 5654,
      "تشتري": 5655,
      "الزهر": 5656,
      "رائحة": 5657,
      "تستخد": 5658,
      "وخاصة": 5659,
      "639": 5660,
      "أريد": 5661,
      "بذ": 5662,
      "بتر": 5663,
      "بجد": 5664,
      "حائل": 5665,
      "دني": 5666,
      "سمر": 5667,
      "غصب": 5668,
      "قوا": 5669,
      "يتي": 5670,
      "يعيش": 5671,
      "ليح": 5672,
      "المبلغ": 5673,
      "المرأة": 5674,
      "ارا": 5675,
      "والث": 5676,
      "ورو": 5677,
      "ومر": 5678,
      "بسمه": 5679,
      "وبارك": 5680,
      "ائه": 5681,
      "بارات": 5682,
      "حقت": 5683,
      "يستر": 5684,
      "ملكه": 5685,
      "????": 5686,
      "النهاية": 5687,
      "ينتظر": 5688,
      "====": 5689,
      "الغامدي": 5690,
      "ut": 5691,
      "أعط": 5692,
      "رواه": 5693,
      "شين": 5694,
      "فوم": 5695,
      "انمي": 5696,
      "فيج": 5697,
      "المطر": 5698,
      "المحسن": 5699,
      "اممم": 5700,
      "ذاكرة": 5701,
      "برع": 5702,
      "بتني": 5703,
      "يتميز": 5704,
      "بنفسي": 5705,
      "الأغ": 5706,
      "الأفضل": 5707,
      "الاث": 5708,
      "الفض": 5709,
      "القمر": 5710,
      "فعلاً": 5711,
      "ذكره": 5712,
      "شفتها": 5713,
      "مارين": 5714,
      "مريض": 5715,
      "الرسالة": 5716,
      "لديك": 5717,
      "خن": 5718,
      "دولة": 5719,
      "زايد": 5720,
      "شبه": 5721,
      "نوكيا": 5722,
      "يظهر": 5723,
      "البيع": 5724,
      "امير": 5725,
      "امكان": 5726,
      "ورها": 5727,
      "ورحت": 5728,
      "الحليب": 5729,
      "التن": 5730,
      "هوى": 5731,
      "الهواء": 5732,
      "ووووو": 5733,
      "خطوات": 5734,
      "يبون": 5735,
      "فيتامين": 5736,
      "sa": 5737,
      "أكت": 5738,
      "تكن": 5739,
      "جى": 5740,
      "دوت": 5741,
      "سق": 5742,
      "سحب": 5743,
      "ـد": 5744,
      "موق": 5745,
      "رااا": 5746,
      "والشكر": 5747,
      "ويح": 5748,
      "العص": 5749,
      "اليمين": 5750,
      "عباد": 5751,
      "تخفي": 5752,
      "يستخدم": 5753,
      "جهة": 5754,
      "الكلمة": 5755,
      "بنفسك": 5756,
      "الثالثة": 5757,
      "رواية": 5758,
      "منتجات": 5759,
      "الكبيرة": 5760,
      "اشر": 5761,
      "جودة": 5762,
      "صنا": 5763,
      "لبعض": 5764,
      "موسم": 5765,
      "١٠": 5766,
      "مافيها": 5767,
      "واكثر": 5768,
      "راعي": 5769,
      "واله": 5770,
      "اسر": 5771,
      "ياخي": 5772,
      "الحريم": 5773,
      "برصيد": 5774,
      "للضيوف": 5775,
      "وحيد": 5776,
      "سنجر": 5777,
      "يجلس": 5778,
      "اللطيف": 5779,
      "اثر": 5780,
      "فهمت": 5781,
      "شلونة": 5782,
      "مشكلتي": 5783,
      "اعلى": 5784,
      "صالات": 5785,
      "عون": 5786,
      "فله": 5787,
      "لفه": 5788,
      "ماد": 5789,
      "لهذه": 5790,
      "بيده": 5791,
      "علمت": 5792,
      "ولل": 5793,
      "اسأل": 5794,
      "التاس": 5795,
      "كيفية": 5796,
      "تهن": 5797,
      "البري": 5798,
      "اشكال": 5799,
      "موديل": 5800,
      "المناس": 5801,
      "أخبار": 5802,
      "صحة": 5803,
      "الإست": 5804,
      "المسجد": 5805,
      "وصلنا": 5806,
      "شخصية": 5807,
      "ماراتي": 5808,
      "بشرة": 5809,
      "حاجة": 5810,
      "حاجه": 5811,
      "صديقتي": 5812,
      "مرحلة": 5813,
      "يأتي": 5814,
      "تطل": 5815,
      "جرح": 5816,
      "وخصوصا": 5817,
      "يوما": 5818,
      "انح": 5819,
      "هاتف": 5820,
      "المباشر": 5821,
      "ارخص": 5822,
      "امشي": 5823,
      "ووه": 5824,
      "وسعر": 5825,
      "الشراء": 5826,
      "ملت": 5827,
      "القصه": 5828,
      "وزارة": 5829,
      "خليك": 5830,
      "خطأ": 5831,
      "ميزة": 5832,
      "جهود": 5833,
      "اميرا": 5834,
      "الاخير": 5835,
      "الذهاب": 5836,
      "زقني": 5837,
      "قاعدة": 5838,
      "4804": 5839,
      "تنتظر": 5840,
      "IMG": 5841,
      "85": 5842,
      "أرحم": 5843,
      "اطل": 5844,
      "توه": 5845,
      "قابل": 5846,
      "كهر": 5847,
      "مالق": 5848,
      "نقص": 5849,
      "هالكلام": 5850,
      "وعليكم": 5851,
      "الراس": 5852,
      "الممتاز": 5853,
      "يرك": 5854,
      "والز": 5855,
      "اميم": 5856,
      "تيها": 5857,
      "الحياه": 5858,
      "احتاج": 5859,
      "الجيش": 5860,
      "الاماكن": 5861,
      "القصة": 5862,
      "الربع": 5863,
      "تفهم": 5864,
      "ولية": 5865,
      "غلق": 5866,
      "سمك": 5867,
      "نتائج": 5868,
      "صبحت": 5869,
      "المجال": 5870,
      "تطالع": 5871,
      "زاكم": 5872,
      "كرتون": 5873,
      "طبيعيه": 5874,
      "الكمبيوتر": 5875,
      "سبتمبر": 5876,
      "ok": 5877,
      "آسيا": 5878,
      "بقي": 5879,
      "حور": 5880,
      "خات": 5881,
      "ضاي": 5882,
      "عاب": 5883,
      "نم": 5884,
      "يله": 5885,
      "..!": 5886,
      "لاخ": 5887,
      "ــي": 5888,
      "اليها": 5889,
      "ووول": 5890,
      "الأست": 5891,
      "باص": 5892,
      "اقصد": 5893,
      "خطط": 5894,
      "***": 5895,
      "اللاعبين": 5896,
      "uploads3": 5897,
      "34639": 5898,
      "ube": 5899,
      "346394804": 5900,
      "##": 5901,
      "46": 5902,
      "ear": 5903,
      "خيل": 5904,
      "شبكة": 5905,
      "صين": 5906,
      "ظات": 5907,
      "لذا": 5908,
      "فير": 5909,
      "ناك": 5910,
      "ابري": 5911,
      "السيد": 5912,
      "باللون": 5913,
      "ادات": 5914,
      "ولاكن": 5915,
      "وشه": 5916,
      "وشاف": 5917,
      "فهل": 5918,
      "الشيطان": 5919,
      "img101": 5920,
      "أجير": 5921,
      "انتهت": 5922,
      "أله": 5923,
      "أصلا": 5924,
      "اصل": 5925,
      "امات": 5926,
      "باسم": 5927,
      "سَ": 5928,
      "سيت": 5929,
      "شوت": 5930,
      "ضو": 5931,
      "فدي": 5932,
      "فستان": 5933,
      "هاه": 5934,
      "ناها": 5935,
      "وللا": 5936,
      "ايات": 5937,
      "وقيع": 5938,
      "بست": 5939,
      "برني": 5940,
      "وبها": 5941,
      "بادي": 5942,
      "2015": 5943,
      "هيك": 5944,
      "مثلي": 5945,
      "الثامن": 5946,
      "اطس": 5947,
      "أخت": 5948,
      "https": 5949,
      "بخوف": 5950,
      "مانع": 5951,
      "دعوة": 5952,
      "بمعنى": 5953,
      "فكار": 5954,
      "ame": 5955,
      "00000000": 5956,
      "الردود": 5957,
      "وهناك": 5958,
      "St": 5959,
      "ax": 5960,
      "تمسك": 5961,
      "ضت": 5962,
      "قها": 5963,
      "مئ": 5964,
      "مـ": 5965,
      "هما": 5966,
      "يمت": 5967,
      "الكرة": 5968,
      "انع": 5969,
      "..؟": 5970,
      "اتين": 5971,
      "اسمي": 5972,
      "العد": 5973,
      "اختر": 5974,
      "الجلد": 5975,
      "الخص": 5976,
      "اصحاب": 5977,
      "تسوين": 5978,
      "وليه": 5979,
      "ياريت": 5980,
      "حلقة": 5981,
      "ومنها": 5982,
      "ربية": 5983,
      "لقب": 5984,
      "خطر": 5985,
      "للايجار": 5986,
      "يخرج": 5987,
      "تحسين": 5988,
      "................................": 5989,
      "تعبانه": 5990,
      "قاعده": 5991,
      "السريع": 5992,
      "ؤلاء": 5993,
      "اذهب": 5994,
      "زات": 5995,
      "نقدر": 5996,
      "الوف": 5997,
      "انجليزي": 5998,
      "منة": 5999,
      "منين": 6000,
      "الساد": 6001,
      "وود": 6002,
      "ادور": 6003,
      "كرسي": 6004,
      "الأقل": 6005,
      "الابيض": 6006,
      "لمه": 6007,
      "الكون": 6008,
      "كتابة": 6009,
      "ائك": 6010,
      "زيار": 6011,
      "يومي": 6012,
      "مثال": 6013,
      "تجلس": 6014,
      "ذكرى": 6015,
      "شعرت": 6016,
      "اغنية": 6017,
      "مساءً": 6018,
      "سيدنا": 6019,
      "استقبال": 6020,
      "رؤية": 6021,
      "Al": 6022,
      "المرة": 6023,
      "بيتك": 6024,
      "وتص": 6025,
      "اليمني": 6026,
      "احفظ": 6027,
      "اعات": 6028,
      "اخضر": 6029,
      "الأب": 6030,
      "الفري": 6031,
      "الفنان": 6032,
      "محطة": 6033,
      "اهلا": 6034,
      "ائب": 6035,
      "وأخ": 6036,
      "الطلاب": 6037,
      "الثان": 6038,
      "رسم": 6039,
      "htm": 6040,
      "كيفك": 6041,
      "وينك": 6042,
      "قصير": 6043,
      "المسك": 6044,
      "شعرك": 6045,
      "ثلاثه": 6046,
      "جابه": 6047,
      "atch": 6048,
      "أصبح": 6049,
      "مفتاح": 6050,
      "ورجعت": 6051,
      "المنتديات": 6052,
      "pet": 6053,
      "بمس": 6054,
      "تكر": 6055,
      "زك": 6056,
      "طاح": 6057,
      "غطي": 6058,
      "الوسط": 6059,
      "انف": 6060,
      "هادي": 6061,
      "ديقه": 6062,
      "ابا": 6063,
      "بالإ": 6064,
      "شيد": 6065,
      "وفوق": 6066,
      "متنوع": 6067,
      "بنى": 6068,
      "الصراحه": 6069,
      "اهلها": 6070,
      "النتيجة": 6071,
      "لوك": 6072,
      "هوله": 6073,
      "تجميل": 6074,
      "حقوق": 6075,
      "عرفة": 6076,
      "ثمان": 6077,
      "تبوك": 6078,
      "اللغة": 6079,
      "المحلات": 6080,
      "الباقي": 6081,
      "جسمك": 6082,
      "اشي": 6083,
      "اقدم": 6084,
      "جمل": 6085,
      "خف": 6086,
      "زله": 6087,
      "صَ": 6088,
      "لست": 6089,
      "وّ": 6090,
      "ليله": 6091,
      "المرض": 6092,
      "العسل": 6093,
      "للق": 6094,
      "تحطين": 6095,
      "متاح": 6096,
      "شرات": 6097,
      "الجه": 6098,
      "خلطة": 6099,
      "اوري": 6100,
      "البريد": 6101,
      "تكفى": 6102,
      "وفين": 6103,
      "المسلسل": 6104,
      "جماعة": 6105,
      "البشره": 6106,
      "الالوان": 6107,
      "القادمة": 6108,
      "ive": 6109,
      "بوش": 6110,
      "حلى": 6111,
      "دح": 6112,
      "زان": 6113,
      "شقه": 6114,
      "عـ": 6115,
      "يحدث": 6116,
      "ماقلت": 6117,
      "ارق": 6118,
      "وادي": 6119,
      "السعود": 6120,
      "السلامه": 6121,
      "التعب": 6122,
      "الأحد": 6123,
      "الهن": 6124,
      "وأم": 6125,
      "يحر": 6126,
      "لحظه": 6127,
      "الانجليزي": 6128,
      "ندن": 6129,
      "اقولك": 6130,
      "براهيم": 6131,
      "صدرها": 6132,
      "خرجت": 6133,
      "غسالة": 6134,
      "التصميم": 6135,
      "البرامج": 6136,
      "استفسار": 6137,
      "برحمتك": 6138,
      "إدارة": 6139,
      "حابه": 6140,
      "زت": 6141,
      "طاق": 6142,
      "كني": 6143,
      "لب": 6144,
      "لأي": 6145,
      "يالغ": 6146,
      "ِّ": 6147,
      "الوس": 6148,
      "المفت": 6149,
      "المواد": 6150,
      "والات": 6151,
      "الساب": 6152,
      "ادارة": 6153,
      "مدار": 6154,
      "الفني": 6155,
      "كيل": 6156,
      "الصيد": 6157,
      "اهتمام": 6158,
      "اضافه": 6159,
      "تسليك": 6160,
      "تفضل": 6161,
      "رسوم": 6162,
      "وليش": 6163,
      "تصيح": 6164,
      "الإمارات": 6165,
      "مقار": 6166,
      "صفحة": 6167,
      "اغراض": 6168,
      "غربت": 6169,
      "القران": 6170,
      "سطس": 6171,
      "club": 6172,
      "56": 6173,
      ":$": 6174,
      "أَ": 6175,
      "أشهر": 6176,
      "تقل": 6177,
      "تفسير": 6178,
      "ثه": 6179,
      "حبها": 6180,
      "حقيقة": 6181,
      "شح": 6182,
      "فأنت": 6183,
      "وطلب": 6184,
      "الرب": 6185,
      "المَ": 6186,
      "ونهم": 6187,
      "ابعد": 6188,
      "السير": 6189,
      "العامة": 6190,
      "العطور": 6191,
      "يدك": 6192,
      "النور": 6193,
      "الطبخ": 6194,
      "فتاة": 6195,
      "يفضل": 6196,
      "ابيه": 6197,
      "مقاس": 6198,
      "حطت": 6199,
      "ذنوب": 6200,
      "طبيب": 6201,
      "أشياء": 6202,
      "الفيديو": 6203,
      "زززز": 6204,
      "ps": 6205,
      "افيه": 6206,
      "خايف": 6207,
      "داف": 6208,
      "دنيا": 6209,
      "كاء": 6210,
      "مادي": 6211,
      "المتجر": 6212,
      "بيوت": 6213,
      "ورين": 6214,
      "السم": 6215,
      "بالقرب": 6216,
      "احبه": 6217,
      "للغ": 6218,
      "تحليل": 6219,
      "وفعلا": 6220,
      "مدرسة": 6221,
      "يدر": 6222,
      "الألم": 6223,
      "قلتي": 6224,
      "لمش": 6225,
      "القاهرة": 6226,
      "استاذ": 6227,
      "خليل": 6228,
      "بعضها": 6229,
      "تتوقع": 6230,
      "صحن": 6231,
      "جنبي": 6232,
      "الذى": 6233,
      "تروحين": 6234,
      "الحبوب": 6235,
      "حملت": 6236,
      "حركة": 6237,
      "لغة": 6238,
      "ملاحظه": 6239,
      "تويتر": 6240,
      "أط": 6241,
      "حته": 6242,
      "شمس": 6243,
      "ضايق": 6244,
      "كوم": 6245,
      "..!!": 6246,
      "منصر": 6247,
      "المين": 6248,
      "المقال": 6249,
      "الملح": 6250,
      "ارسل": 6251,
      "ويها": 6252,
      "سترا": 6253,
      "اخير": 6254,
      "رجت": 6255,
      "رجاء": 6256,
      "حداد": 6257,
      "بارد": 6258,
      "الرغ": 6259,
      "فرن": 6260,
      "اشعر": 6261,
      "تسبب": 6262,
      "مودي": 6263,
      "تدرين": 6264,
      "صدم": 6265,
      "تخاف": 6266,
      "لقت": 6267,
      "جلد": 6268,
      "قربت": 6269,
      "،،،،": 6270,
      "المدرب": 6271,
      "الاربع": 6272,
      "إليها": 6273,
      "أعوذ": 6274,
      "فارق": 6275,
      "غسالات": 6276,
      "والحمدلله": 6277,
      "ملاحظة": 6278,
      "الزهراني": 6279,
      "de": 6280,
      "بالموضوع": 6281,
      "تاك": 6282,
      "تبدأ": 6283,
      "ثانيا": 6284,
      "سبيل": 6285,
      "عظ": 6286,
      "فط": 6287,
      "ننت": 6288,
      "منطقه": 6289,
      "لاست": 6290,
      "المض": 6291,
      "والغ": 6292,
      "الحزن": 6293,
      "الدفع": 6294,
      "كتها": 6295,
      "مسافر": 6296,
      "القبر": 6297,
      "2017": 6298,
      "استطيع": 6299,
      "رحل": 6300,
      "لانو": 6301,
      "جنه": 6302,
      "شنط": 6303,
      "صدقاء": 6304,
      "العادي": 6305,
      "المقادير": 6306,
      "قليلة": 6307,
      "باخ": 6308,
      "تذاكر": 6309,
      "صندوق": 6310,
      "ظره": 6311,
      "ظاهر": 6312,
      "فقه": 6313,
      "فطار": 6314,
      "قس": 6315,
      "مكيف": 6316,
      "وعندي": 6317,
      "لاج": 6318,
      "راع": 6319,
      "العروض": 6320,
      "بدة": 6321,
      "وهيا": 6322,
      "ولاته": 6323,
      "تقام": 6324,
      "غيرت": 6325,
      "عمها": 6326,
      "لوني": 6327,
      "يجنن": 6328,
      "جزاء": 6329,
      "نهائ": 6330,
      "المباراه": 6331,
      "موضوعي": 6332,
      "est": 6333,
      "صباغ": 6334,
      "عشرين": 6335,
      "رشا": 6336,
      "جسمي": 6337,
      "age": 6338,
      "لللللللل": 6339,
      "الوطني": 6340,
      "ourpet": 6341,
      "ourpetclub": 6342,
      "أبر": 6343,
      "تبعد": 6344,
      "تتم": 6345,
      "سكن": 6346,
      "فاضي": 6347,
      "قن": 6348,
      "كبار": 6349,
      "يمن": 6350,
      "القدر": 6351,
      "ماقدر": 6352,
      "ناد": 6353,
      "علبه": 6354,
      "ومح": 6355,
      "الست": 6356,
      "بساط": 6357,
      "أنهم": 6358,
      "تحديث": 6359,
      "الجمعه": 6360,
      "الفق": 6361,
      "الفائ": 6362,
      "الكهر": 6363,
      "الصاله": 6364,
      "القنا": 6365,
      "حتك": 6366,
      "أسأل": 6367,
      "تختلف": 6368,
      "بوها": 6369,
      "وارات": 6370,
      "تبون": 6371,
      "بيضاء": 6372,
      "حصول": 6373,
      "البطولة": 6374,
      "بعصبيه": 6375,
      "In": 6376,
      "di": 6377,
      "os": 6378,
      "بذلك": 6379,
      "ذار": 6380,
      "سوريا": 6381,
      "شج": 6382,
      "شايف": 6383,
      "صغار": 6384,
      "فاد": 6385,
      "قَ": 6386,
      "كويتي": 6387,
      "نآ": 6388,
      "نضيف": 6389,
      "يمة": 6390,
      "يترك": 6391,
      "الوق": 6392,
      "ماتعرف": 6393,
      "بيا": 6394,
      "وتج": 6395,
      "اعوذ": 6396,
      "بدايه": 6397,
      "مربع": 6398,
      "أنس": 6399,
      "متنا": 6400,
      "عرس": 6401,
      "تسأل": 6402,
      "قطط": 6403,
      "اااااااااااا": 6404,
      "المجيد": 6405,
      "امسونج": 6406,
      "سيارته": 6407,
      "كثيراً": 6408,
      "97": 6409,
      "i69": 6410,
      "أين": 6411,
      "جاده": 6412,
      "درس": 6413,
      "زالت": 6414,
      "سال": 6415,
      "قراءة": 6416,
      "هى": 6417,
      "هار": 6418,
      "واث": 6419,
      "وايت": 6420,
      "رابع": 6421,
      "احصل": 6422,
      "برشلونة": 6423,
      "وجبة": 6424,
      "قده": 6425,
      "كيم": 6426,
      "الكت": 6427,
      "تعديل": 6428,
      "باراة": 6429,
      "وشو": 6430,
      "ههههههههههه": 6431,
      "انتظار": 6432,
      "حرم": 6433,
      "اثاث": 6434,
      "علاقة": 6435,
      "وراه": 6436,
      "المبارك": 6437,
      "150": 6438,
      "يخاف": 6439,
      "بالكامل": 6440,
      "صديقي": 6441,
      "وائد": 6442,
      "نظرت": 6443,
      "سألت": 6444,
      "الصحيح": 6445,
      "\"،": 6446,
      "pl": 6447,
      "اكي": 6448,
      "جبك": 6449,
      "خب": 6450,
      "نجد": 6451,
      "يصلح": 6452,
      "انشالله": 6453,
      "ماط": 6454,
      "واشوف": 6455,
      "العراقي": 6456,
      "احتي": 6457,
      "التفكير": 6458,
      "تحويل": 6459,
      "مدرب": 6460,
      "وسهلا": 6461,
      "وشوي": 6462,
      "يملك": 6463,
      "زوجه": 6464,
      "أخير": 6465,
      "أيمن": 6466,
      "وطه": 6467,
      "يشتري": 6468,
      "أمين": 6469,
      "خطوة": 6470,
      "ميزان": 6471,
      "عينك": 6472,
      "غياب": 6473,
      "موقعنا": 6474,
      "الخلطه": 6475,
      "قريت": 6476,
      "الوزن": 6477,
      "الشهري": 6478,
      "++": 6479,
      "Xs": 6480,
      "][": 6481,
      "أروح": 6482,
      "جود": 6483,
      "حولي": 6484,
      "لذ": 6485,
      "هوه": 6486,
      "وغيره": 6487,
      "هااا": 6488,
      "ماحد": 6489,
      "لينا": 6490,
      "واص": 6491,
      "بالماء": 6492,
      "الحلا": 6493,
      "متوسط": 6494,
      "افنان": 6495,
      "وحب": 6496,
      "الاصلي": 6497,
      "اجيب": 6498,
      "حده": 6499,
      "ائح": 6500,
      "النقط": 6501,
      "هوز": 6502,
      "اقت": 6503,
      "ندر": 6504,
      "وراها": 6505,
      "2006": 6506,
      "براير": 6507,
      "شيخة": 6508,
      "wa": 6509,
      "خض": 6510,
      "طير": 6511,
      "عمة": 6512,
      "فبراير": 6513,
      "كويت": 6514,
      "واهم": 6515,
      "ورجع": 6516,
      "السف": 6517,
      "العملاء": 6518,
      "بدال": 6519,
      "وووه": 6520,
      "مدى": 6521,
      "الداعري": 6522,
      "فرصه": 6523,
      "الهد": 6524,
      "يحبها": 6525,
      "لكنها": 6526,
      "نسى": 6527,
      "جربه": 6528,
      "ياربي": 6529,
      "ربيع": 6530,
      "عملت": 6531,
      "مواصفات": 6532,
      "صيانة": 6533,
      "الكيك": 6534,
      "بتسامه": 6535,
      "الحيوانات": 6536,
      "سمحت": 6537,
      "=\"": 6538,
      "بــ": 6539,
      "جني": 6540,
      "حزن": 6541,
      "ربت": 6542,
      "زوق": 6543,
      "عظيم": 6544,
      "غرق": 6545,
      "فاش": 6546,
      "كسي": 6547,
      "يوني": 6548,
      "ماقدرت": 6549,
      "ناوي": 6550,
      "والده": 6551,
      "ايح": 6552,
      "معينة": 6553,
      "ياده": 6554,
      "سته": 6555,
      "للشعر": 6556,
      "وفك": 6557,
      "الدوام": 6558,
      "الفل": 6559,
      "الفلوس": 6560,
      "صلت": 6561,
      "اصي": 6562,
      "لانهم": 6563,
      "خطوط": 6564,
      "عودة": 6565,
      ">>>": 6566,
      "جامعه": 6567,
      "جماعه": 6568,
      "العموم": 6569,
      "غريبة": 6570,
      "مشروع": 6571,
      "ox": 6572,
      "اؤ": 6573,
      "تأجير": 6574,
      "دكت": 6575,
      "زام": 6576,
      "سوت": 6577,
      "غرام": 6578,
      "قله": 6579,
      "فيا": 6580,
      "ابون": 6581,
      "الحلق": 6582,
      "وجي": 6583,
      "اخو": 6584,
      "افهم": 6585,
      "افكار": 6586,
      "بتعد": 6587,
      "الجنين": 6588,
      "وأع": 6589,
      "اطر": 6590,
      "لسان": 6591,
      "قصيرة": 6592,
      "طلبات": 6593,
      "ماركت": 6594,
      "المدرسه": 6595,
      "فاتح": 6596,
      "أقرب": 6597,
      "زياد": 6598,
      "جماهير": 6599,
      "الخليط": 6600,
      "42": 6601,
      "png": 6602,
      "تأخذ": 6603,
      "جبه": 6604,
      "جاك": 6605,
      "زب": 6606,
      "زود": 6607,
      "قفل": 6608,
      "نعمل": 6609,
      "يبدأ": 6610,
      "انفس": 6611,
      "بيشه": 6612,
      "نايمه": 6613,
      "ولق": 6614,
      "والثاني": 6615,
      "وياه": 6616,
      "امور": 6617,
      "استر": 6618,
      "باليوم": 6619,
      "كانه": 6620,
      "تحول": 6621,
      "متوف": 6622,
      "وحمد": 6623,
      "الجمهور": 6624,
      "سيم": 6625,
      "الامام": 6626,
      "وضعت": 6627,
      "تقييم": 6628,
      "عدا": 6629,
      "تجربه": 6630,
      "ررر": 6631,
      "نساء": 6632,
      "وزير": 6633,
      "عطور": 6634,
      "المستوى": 6635,
      "عشرة": 6636,
      "حركه": 6637,
      "العيون": 6638,
      "الأخيرة": 6639,
      "منافسات": 6640,
      "فاطمة": 6641,
      "html": 6642,
      "ber": 6643,
      "ha": 6644,
      "أعل": 6645,
      "تطبيق": 6646,
      "خواتي": 6647,
      "رخص": 6648,
      "ضن": 6649,
      "قبره": 6650,
      "مواقف": 6651,
      "نتج": 6652,
      "يحي": 6653,
      "يأخذ": 6654,
      "ماخذ": 6655,
      "المعلم": 6656,
      "المعت": 6657,
      "بيصير": 6658,
      "علئ": 6659,
      "العقل": 6660,
      "ستار": 6661,
      "التلفون": 6662,
      "اخبر": 6663,
      "اخوك": 6664,
      "تحبه": 6665,
      "الشاي": 6666,
      "النقل": 6667,
      "2020": 6668,
      "جيبه": 6669,
      "عبدالمحسن": 6670,
      "موسي": 6671,
      "ههههههههههههه": 6672,
      "الطالب": 6673,
      "تدل": 6674,
      "تشتغل": 6675,
      "لاند": 6676,
      "128": 6677,
      "جنون": 6678,
      "يصبح": 6679,
      "شعره": 6680,
      "وهات": 6681,
      "علاوة": 6682,
      "وراق": 6683,
      "طبيعية": 6684,
      "العربيه": 6685,
      "حادث": 6686,
      "الإنسان": 6687,
      "الرئيسية": 6688,
      "أمريكا": 6689,
      "ia": 6690,
      "ئله": 6691,
      "تبتسم": 6692,
      "جوتشي": 6693,
      "خلك": 6694,
      "طعام": 6695,
      "عبيد": 6696,
      "كوت": 6697,
      "لِ": 6698,
      "لول": 6699,
      "مخل": 6700,
      "هب": 6701,
      "وبنفس": 6702,
      "يخص": 6703,
      "الضيوف": 6704,
      "انقل": 6705,
      "ماعاد": 6706,
      "المقد": 6707,
      "المرك": 6708,
      "ونش": 6709,
      "ريحه": 6710,
      "نازل": 6711,
      "وترك": 6712,
      "اخواتي": 6713,
      "اجاز": 6714,
      "عروس": 6715,
      "وكذا": 6716,
      "بعضهم": 6717,
      "وطن": 6718,
      "الاستق": 6719,
      "قصدي": 6720,
      "لأنك": 6721,
      "واسعة": 6722,
      "اللبن": 6723,
      "صوتها": 6724,
      "<<<<": 6725,
      "الايميل": 6726,
      "ملعقه": 6727,
      "أذ": 6728,
      "بديت": 6729,
      "تاكل": 6730,
      "خارجي": 6731,
      "دلال": 6732,
      "ران": 6733,
      "سافر": 6734,
      "شقة": 6735,
      "يطل": 6736,
      "ونز": 6737,
      "ابني": 6738,
      "السوبر": 6739,
      "ميله": 6740,
      "التمر": 6741,
      "بدري": 6742,
      "وفتح": 6743,
      "الداخل": 6744,
      "الفكرة": 6745,
      "باجر": 6746,
      "طيزها": 6747,
      "الصحة": 6748,
      "هههههههههههه": 6749,
      "تشغ": 6750,
      "أمور": 6751,
      "تبغ": 6752,
      "مكاني": 6753,
      "الحمدالله": 6754,
      "تراه": 6755,
      "الرجاء": 6756,
      "كافي": 6757,
      "الناقلة": 6758,
      "بجانب": 6759,
      "أبوي": 6760,
      "شتغل": 6761,
      "فففف": 6762,
      "هذة": 6763,
      "البدايه": 6764,
      "yout": 6765,
      "المكرمة": 6766,
      "op": 6767,
      "أذا": 6768,
      "بِ": 6769,
      "ساط": 6770,
      "سوبر": 6771,
      "صوب": 6772,
      "ضات": 6773,
      "فأنا": 6774,
      "وخدمة": 6775,
      "يكل": 6776,
      "يوقف": 6777,
      "الطل": 6778,
      "القلوب": 6779,
      "المطل": 6780,
      "واضيع": 6781,
      "ونصف": 6782,
      "بيان": 6783,
      "يرفع": 6784,
      "ابخ": 6785,
      "ياقلبي": 6786,
      "ميته": 6787,
      "احن": 6788,
      "التعاون": 6789,
      "وهكذا": 6790,
      "وفج": 6791,
      "خلفيات": 6792,
      "الخال": 6793,
      "دهن": 6794,
      "استمر": 6795,
      "يسر": 6796,
      "يقولي": 6797,
      "حرارة": 6798,
      "ولكنه": 6799,
      "واسع": 6800,
      "الماس": 6801,
      "استخدمت": 6802,
      "المجتمع": 6803,
      "اعرفه": 6804,
      "بجان": 6805,
      "الحلقه": 6806,
      "قليلا": 6807,
      "أغسطس": 6808,
      "جاهز": 6809,
      "اتصلت": 6810,
      "تلاقي": 6811,
      "شيئا": 6812,
      "الأخرى": 6813,
      "400": 6814,
      "أبطال": 6815,
      "إيه": 6816,
      "تخلص": 6817,
      "حراج": 6818,
      "خاد": 6819,
      "ساد": 6820,
      "فست": 6821,
      "كاش": 6822,
      "مطل": 6823,
      "يتر": 6824,
      "يميل": 6825,
      "لاش": 6826,
      "المواقف": 6827,
      "اريه": 6828,
      "بيعي": 6829,
      "اموت": 6830,
      "السالفة": 6831,
      "بالمنتدى": 6832,
      "تحكم": 6833,
      "الشك": 6834,
      "الرق": 6835,
      "وشك": 6836,
      "ماتت": 6837,
      "وكس": 6838,
      "بيتهم": 6839,
      "لتنا": 6840,
      "يفهم": 6841,
      "con": 6842,
      "احدى": 6843,
      "ore": 6844,
      "اعلانات": 6845,
      "شغال": 6846,
      "كريات": 6847,
      "ماشاءالله": 6848,
      "قلوبنا": 6849,
      "الكهرباء": 6850,
      "_IMG": 6851,
      "بفضل": 6852,
      "حديد": 6853,
      "روب": 6854,
      "سالفة": 6855,
      "شم": 6856,
      "ظافر": 6857,
      "لندن": 6858,
      "نغ": 6859,
      "نجي": 6860,
      "واحس": 6861,
      "تيق": 6862,
      "اخوها": 6863,
      "وحاول": 6864,
      "يتغير": 6865,
      "ييير": 6866,
      "حدائق": 6867,
      "ذية": 6868,
      "وانها": 6869,
      "قطعت": 6870,
      "تفض": 6871,
      "صدره": 6872,
      "يبغ": 6873,
      "سعرها": 6874,
      "ولدها": 6875,
      "زنة": 6876,
      "داخلي": 6877,
      "سهله": 6878,
      "خفيفه": 6879,
      "وتعالى": 6880,
      "سواتر": 6881,
      "الصغيرة": 6882,
      "43": 6883,
      "57": 6884,
      "Hot": 6885,
      "net": 6886,
      "تناسب": 6887,
      "حرا": 6888,
      "سورة": 6889,
      "شوك": 6890,
      "عها": 6891,
      "ـم": 6892,
      "كز": 6893,
      "لمي": 6894,
      "هؤلاء": 6895,
      "المقبل": 6896,
      "ارح": 6897,
      "ابواب": 6898,
      "ايدي": 6899,
      "لكرة": 6900,
      "ووون": 6901,
      "مدخل": 6902,
      "الدائ": 6903,
      "الجدار": 6904,
      "الأخت": 6905,
      "الأطفال": 6906,
      "الفتح": 6907,
      "الفرد": 6908,
      "الصيف": 6909,
      "وشعر": 6910,
      "تجنن": 6911,
      "أساس": 6912,
      "الغس": 6913,
      "الامري": 6914,
      "فاتيح": 6915,
      "حالياً": 6916,
      "طباء": 6917,
      "حياتنا": 6918,
      "السعودى": 6919,
      "ost": 6920,
      "أعلى": 6921,
      "إش": 6922,
      "بكت": 6923,
      "جبن": 6924,
      "حاض": 6925,
      "ذوب": 6926,
      "شمال": 6927,
      "غالبا": 6928,
      "نريد": 6929,
      "هال": 6930,
      "……": 6931,
      "ينام": 6932,
      "وايا": 6933,
      "ايت": 6934,
      "ايده": 6935,
      "السكن": 6936,
      "بالشهر": 6937,
      "العمري": 6938,
      "اليكم": 6939,
      "التجار": 6940,
      "وعرف": 6941,
      "الدرجة": 6942,
      "بعدما": 6943,
      "الاكس": 6944,
      "مسج": 6945,
      "وشوف": 6946,
      "اصلي": 6947,
      "صرخت": 6948,
      "تصور": 6949,
      "كسها": 6950,
      "الانمي": 6951,
      "واقفه": 6952,
      "يبكي": 6953,
      "يطول": 6954,
      "نظري": 6955,
      "سلامة": 6956,
      "النهائي": 6957,
      "انتهى": 6958,
      "الواتس": 6959,
      "aa": 6960,
      "iz": 6961,
      "××": 6962,
      "أبدا": 6963,
      "ألحين": 6964,
      "اولات": 6965,
      "بوجود": 6966,
      "توكل": 6967,
      "دمع": 6968,
      "شاعر": 6969,
      "فتي": 6970,
      "الالك": 6971,
      "بعمل": 6972,
      "بالذات": 6973,
      "بدء": 6974,
      "مرره": 6975,
      "البث": 6976,
      "النتيجه": 6977,
      "تقرب": 6978,
      "وشة": 6979,
      "وانين": 6980,
      "حسابي": 6981,
      "تنز": 6982,
      "تنهد": 6983,
      "مثيل": 6984,
      "تجاوز": 6985,
      "1000": 6986,
      "تموت": 6987,
      "بيرو": 6988,
      "وخذ": 6989,
      "بأذن": 6990,
      "العالمية": 6991,
      "قبله": 6992,
      "!!!!!": 6993,
      "اعلان": 6994,
      "ate": 6995,
      "الرسائل": 6996,
      "اشوفه": 6997,
      "صالون": 6998,
      "وطبعاً": 6999,
      "ميرال": 7000,
      "الأمريكي": 7001,
      ")،": 7002,
      "87": 7003,
      "96": 7004,
      "درب": 7005,
      "رو": 7006,
      "سامسونج": 7007,
      "فحص": 7008,
      "لشخص": 7009,
      "مقه": 7010,
      "ليلى": 7011,
      "لاح": 7012,
      "واحت": 7013,
      "والناس": 7014,
      "ومره": 7015,
      "اليل": 7016,
      "وعبد": 7017,
      "أنني": 7018,
      "اخته": 7019,
      "بعدك": 7020,
      "الباحه": 7021,
      "عربية": 7022,
      "الهوا": 7023,
      "عمليه": 7024,
      "col": 7025,
      "يجوز": 7026,
      "جنبها": 7027,
      "زينة": 7028,
      "بالمست": 7029,
      "المدينه": 7030,
      "نظرة": 7031,
      "الاخضر": 7032,
      "ink": 7033,
      "زيتون": 7034,
      "مناسبه": 7035,
      "الطلبات": 7036,
      "الحلوة": 7037,
      "ممنوع": 7038,
      "youtube": 7039,
      "gr": 7040,
      "name": 7041,
      "sport": 7042,
      "بقدر": 7043,
      "تا": 7044,
      "فلة": 7045,
      "قهوة": 7046,
      "كوافي": 7047,
      "هديه": 7048,
      "وخلي": 7049,
      "وإلا": 7050,
      "يقل": 7051,
      "يبلغ": 7052,
      "انست": 7053,
      "ليد": 7054,
      "اروع": 7055,
      "يرحم": 7056,
      "كملت": 7057,
      "كمبيوتر": 7058,
      "وتت": 7059,
      "للناس": 7060,
      "مررره": 7061,
      "يدق": 7062,
      "يدرس": 7063,
      "الدولة": 7064,
      "الاك": 7065,
      "بلون": 7066,
      "راحات": 7067,
      "خدها": 7068,
      "مثله": 7069,
      "زوجتك": 7070,
      "تدرون": 7071,
      "الزعيم": 7072,
      "عارفين": 7073,
      "حقك": 7074,
      "حبات": 7075,
      "اللعب": 7076,
      "عامة": 7077,
      "art": 7078,
      "أماكن": 7079,
      "مهمة": 7080,
      "جسمها": 7081,
      "مممممممم": 7082,
      "الكبيره": 7083,
      "النقاط": 7084,
      "The": 7085,
      "ple": 7086,
      "بشيء": 7087,
      "سرير": 7088,
      "سوالف": 7089,
      "طاحت": 7090,
      "علام": 7091,
      "مكس": 7092,
      "ندخل": 7093,
      "نضع": 7094,
      "نرجع": 7095,
      "ووم": 7096,
      "ّك": 7097,
      "…]": 7098,
      "ماق": 7099,
      "واض": 7100,
      "نايم": 7101,
      "امت": 7102,
      "ورآ": 7103,
      "اعيش": 7104,
      "مرزوق": 7105,
      "تحسب": 7106,
      "اجلس": 7107,
      "اجتما": 7108,
      "قبلها": 7109,
      "وماتيك": 7110,
      "رضا": 7111,
      "ضحكة": 7112,
      "تقولون": 7113,
      "بلاك": 7114,
      "راتب": 7115,
      "المميزة": 7116,
      "المتحدة": 7117,
      "[…]": 7118,
      "آر": 7119,
      "تأخر": 7120,
      "جها": 7121,
      "حها": 7122,
      "خفض": 7123,
      "طوال": 7124,
      "عجز": 7125,
      "لقي": 7126,
      "معن": 7127,
      "مطلوب": 7128,
      "يـ": 7129,
      "يقال": 7130,
      "ماري": 7131,
      "ليفون": 7132,
      "ليمون": 7133,
      "ونزل": 7134,
      "والر": 7135,
      "ورقة": 7136,
      "ومك": 7137,
      "معص": 7138,
      "معصب": 7139,
      "ميلي": 7140,
      "للص": 7141,
      "وجعل": 7142,
      "رفه": 7143,
      "يتنز": 7144,
      "الليمون": 7145,
      "تعاون": 7146,
      "القديم": 7147,
      "ربط": 7148,
      "بحكم": 7149,
      "اكسترا": 7150,
      "يهدي": 7151,
      "رقام": 7152,
      "126": 7153,
      "جنبه": 7154,
      "درويد": 7155,
      "الرحلة": 7156,
      "كادي": 7157,
      "ماسكه": 7158,
      "فايز": 7159,
      "الخروج": 7160,
      ")|": 7161,
      "Ch": 7162,
      "ue": 7163,
      "أحيانا": 7164,
      "اكن": 7165,
      "اظن": 7166,
      "دمت": 7167,
      "درجه": 7168,
      "صن": 7169,
      "طط": 7170,
      "طمن": 7171,
      "فوا": 7172,
      "قبي": 7173,
      "مبس": 7174,
      "مبالغ": 7175,
      "وبنات": 7176,
      "يختلف": 7177,
      "١٢": 7178,
      "المويه": 7179,
      "اسلوب": 7180,
      "بالفعل": 7181,
      "اعطي": 7182,
      "وعب": 7183,
      "افات": 7184,
      "الجنس": 7185,
      "الفلم": 7186,
      "محافظ": 7187,
      "مسه": 7188,
      "خدمت": 7189,
      "ــــــــــ": 7190,
      "مقاطع": 7191,
      "تبغى": 7192,
      "ندى": 7193,
      "صوتك": 7194,
      "يعرفون": 7195,
      "عشق": 7196,
      "خبرة": 7197,
      "الاستاذ": 7198,
      "هندي": 7199,
      "لابسه": 7200,
      "سارا": 7201,
      "متزوجه": 7202,
      "/?": 7203,
      "59": 7204,
      "ce": 7205,
      "آله": 7206,
      "بانه": 7207,
      "جوز": 7208,
      "خيص": 7209,
      "سوء": 7210,
      "ـك": 7211,
      "قاط": 7212,
      "نطلع": 7213,
      "يبين": 7214,
      "ارتفاع": 7215,
      "واتر": 7216,
      "ابله": 7217,
      "احين": 7218,
      "افا": 7219,
      "يتزوج": 7220,
      "سيتي": 7221,
      "الكاتب": 7222,
      "هيل": 7223,
      "اشلون": 7224,
      "تجاه": 7225,
      "انتوا": 7226,
      "بطن": 7227,
      "الاسلام": 7228,
      "شكلي": 7229,
      "علاق": 7230,
      "العالمي": 7231,
      "طالعه": 7232,
      "المكياج": 7233,
      "OOOOOOOO": 7234,
      "تكي": 7235,
      "تواصل": 7236,
      "تبقى": 7237,
      "دوز": 7238,
      "زبي": 7239,
      "غض": 7240,
      "فالح": 7241,
      "فنج": 7242,
      "نصر": 7243,
      "البال": 7244,
      "مايق": 7245,
      "يناسب": 7246,
      "واجي": 7247,
      "وافضل": 7248,
      "ريبة": 7249,
      "والعافية": 7250,
      "ورهم": 7251,
      "اسمك": 7252,
      "ومسك": 7253,
      "العري": 7254,
      "العرش": 7255,
      "لكني": 7256,
      "وجز": 7257,
      "اخوه": 7258,
      "كونات": 7259,
      "فرحت": 7260,
      "اشتقت": 7261,
      "اقص": 7262,
      "الرياضة": 7263,
      "سمبر": 7264,
      "خليفة": 7265,
      "تشعر": 7266,
      "الانس": 7267,
      "المجمعه": 7268,
      "تلبس": 7269,
      "كلامها": 7270,
      "مهمه": 7271,
      "واختي": 7272,
      "ast": 7273,
      "خمسة": 7274,
      "نقطه": 7275,
      "الديكور": 7276,
      "ages": 7277,
      "التعليقات": 7278,
      "الموجودة": 7279,
      "السوداء": 7280,
      "موبايلي": 7281,
      "54": 7282,
      "أض": 7283,
      "أجر": 7284,
      "اوف": 7285,
      "ثقي": 7286,
      "جير": 7287,
      "جايه": 7288,
      "دلع": 7289,
      "ضًا": 7290,
      "قعدت": 7291,
      "هالموضوع": 7292,
      "يجد": 7293,
      "يقطع": 7294,
      "الني": 7295,
      "الوك": 7296,
      "منظر": 7297,
      "المتع": 7298,
      "المجر": 7299,
      "علانات": 7300,
      "يرح": 7301,
      "ويطلع": 7302,
      "ابوك": 7303,
      "معرض": 7304,
      "ياع": 7305,
      "الحسن": 7306,
      "ادق": 7307,
      "كرون": 7308,
      "اهدون": 7309,
      "ربات": 7310,
      "ذيك": 7311,
      "عداد": 7312,
      "اقوم": 7313,
      "تخبات": 7314,
      "يجز": 7315,
      "الانواع": 7316,
      "شفتي": 7317,
      "جهز": 7318,
      "الموافق": 7319,
      "thread": 7320,
      "العنوان": 7321,
      "صباحاً": 7322,
      "تغيرت": 7323,
      "فجأه": 7324,
      "الجماع": 7325,
      "بسهولة": 7326,
      "xx": 7327,
      "اوت": 7328,
      "اوقات": 7329,
      "ثى": 7330,
      "حواج": 7331,
      "حديقة": 7332,
      "خبز": 7333,
      "ذج": 7334,
      "سآ": 7335,
      "سالفه": 7336,
      "فلات": 7337,
      "فقلت": 7338,
      "فديت": 7339,
      "يكلم": 7340,
      "اللة": 7341,
      "فيذ": 7342,
      "ولان": 7343,
      "ابها": 7344,
      "معهد": 7345,
      "ميص": 7346,
      "الحم": 7347,
      "اليسار": 7348,
      "اختها": 7349,
      "وهـ": 7350,
      "الدري": 7351,
      "شرت": 7352,
      "الأبيض": 7353,
      "خلطه": 7354,
      "وضه": 7355,
      "مسجد": 7356,
      "عندج": 7357,
      "اصح": 7358,
      "عمك": 7359,
      "مجانية": 7360,
      "لسلات": 7361,
      "ــــــــــــ": 7362,
      "نسا": 7363,
      "مستغرب": 7364,
      "||#": 7365,
      "صبغ": 7366,
      "يناير": 7367,
      "فضله": 7368,
      "وظيفة": 7369,
      "جاوب": 7370,
      "تاجير": 7371,
      "الخلطة": 7372,
      "1208": 7373,
      "نصيحة": 7374,
      "الموديل": 7375,
      "المولود": 7376,
      "أز": 7377,
      "بديل": 7378,
      "جَ": 7379,
      "حالك": 7380,
      "ذهاب": 7381,
      "زجاج": 7382,
      "شعار": 7383,
      "طلاب": 7384,
      "عقل": 7385,
      "عجل": 7386,
      "فانا": 7387,
      "كفر": 7388,
      "مفي": 7389,
      "المكت": 7390,
      "واط": 7391,
      "بيج": 7392,
      "والام": 7393,
      "ورني": 7394,
      "اسرع": 7395,
      "السابقة": 7396,
      "العهد": 7397,
      "الجمع": 7398,
      "الرئيس": 7399,
      "اشتغل": 7400,
      "يعود": 7401,
      "موظ": 7402,
      "وأكثر": 7403,
      "تكفون": 7404,
      "تجارب": 7405,
      "يشعر": 7406,
      "جربته": 7407,
      "كهة": 7408,
      "الشرح": 7409,
      "رأه": 7410,
      "قبول": 7411,
      "صدقت": 7412,
      "الحلوه": 7413,
      "وتركي": 7414,
      "جوالات": 7415,
      "الظلم": 7416,
      "277": 7417,
      "التعليق": 7418,
      "واخذت": 7419,
      "الدراما": 7420,
      "ry": 7421,
      "افين": 7422,
      "اكلم": 7423,
      "تخل": 7424,
      "تفر": 7425,
      "تترك": 7426,
      "تخصص": 7427,
      "سها": 7428,
      "سرق": 7429,
      "شط": 7430,
      "ضمان": 7431,
      "ظغ": 7432,
      "ـت": 7433,
      "كتي": 7434,
      "مراح": 7435,
      "مفاج": 7436,
      "نكت": 7437,
      "يلت": 7438,
      "يخلص": 7439,
      "يمنع": 7440,
      "ماتي": 7441,
      "ونظ": 7442,
      "بيتها": 7443,
      "ناخذ": 7444,
      "ويوجد": 7445,
      "ويعتبر": 7446,
      "كلكم": 7447,
      "بعه": 7448,
      "ايها": 7449,
      "العرس": 7450,
      "اليهات": 7451,
      "الجديده": 7452,
      "الأماكن": 7453,
      "مساحة": 7454,
      "ائد": 7455,
      "هيز": 7456,
      "ماتقدر": 7457,
      "الهند": 7458,
      "عبدك": 7459,
      "هههههههههههههه": 7460,
      "الطعم": 7461,
      "اقوله": 7462,
      "تشبه": 7463,
      "وطري": 7464,
      "بشوف": 7465,
      "تستاهل": 7466,
      "الرحم": 7467,
      "الاخيره": 7468,
      "تناول": 7469,
      "عجب": 7470,
      "الكلمه": 7471,
      "بريك": 7472,
      "شكلك": 7473,
      "مميزات": 7474,
      "مجموعه": 7475,
      "تزوجت": 7476,
      "شامبو": 7477,
      "درجات": 7478,
      "86": 7479,
      "watch": 7480,
      "؟!!": 7481,
      "تتس": 7482,
      "تخص": 7483,
      "توصيل": 7484,
      "ثقيل": 7485,
      "حرب": 7486,
      "دوم": 7487,
      "ذى": 7488,
      "زبه": 7489,
      "ستيك": 7490,
      "قريبا": 7491,
      "وور": 7492,
      "يث": 7493,
      "واغ": 7494,
      "بيبي": 7495,
      "وردي": 7496,
      "بالليل": 7497,
      "عليا": 7498,
      "وجبات": 7499,
      "متوس": 7500,
      "الدموع": 7501,
      "الدراسة": 7502,
      "الجل": 7503,
      "الخيار": 7504,
      "الصراحة": 7505,
      "تقعد": 7506,
      "تنقل": 7507,
      "تنتهي": 7508,
      "صحون": 7509,
      "راسك": 7510,
      "جعله": 7511,
      "داود": 7512,
      "الاردن": 7513,
      "نعمة": 7514,
      "الفيصلي": 7515,
      "القرار": 7516,
      "سطحه": 7517,
      "شريت": 7518,
      "ساكن": 7519,
      "ختلفة": 7520,
      "تقدرين": 7521,
      "ــــــــــــــــــــــــــــــــــــــــــــــــــــــــــــــــ": 7522,
      "عائلة": 7523,
      "انتبهت": 7524,
      "الاجتماعي": 7525,
      "ck": 7526,
      "per": 7527,
      "آب": 7528,
      "أتي": 7529,
      "أصحاب": 7530,
      "ببعض": 7531,
      "جج": 7532,
      "حرق": 7533,
      "خرة": 7534,
      "روي": 7535,
      "زقه": 7536,
      "ضظغ": 7537,
      "طاري": 7538,
      "لالا": 7539,
      "مقطع": 7540,
      "نوا": 7541,
      "هَ": 7542,
      "الضحك": 7543,
      "منازل": 7544,
      "واخيرا": 7545,
      "يرحمه": 7546,
      "اسباب": 7547,
      "السعادة": 7548,
      "الحالة": 7549,
      "ستكون": 7550,
      "برك": 7551,
      "بتد": 7552,
      "الجاي": 7553,
      "الألوان": 7554,
      "الشن": 7555,
      "مسر": 7556,
      "الصالحين": 7557,
      "عبدالكريم": 7558,
      "جربتها": 7559,
      "الاسهم": 7560,
      "يبغى": 7561,
      "الاحمر": 7562,
      "ظهري": 7563,
      "الزوجة": 7564,
      "أدوات": 7565,
      "نشاط": 7566,
      "بليز": 7567,
      "صعبه": 7568,
      "ترجمة": 7569,
      "الترجمة": 7570,
      "الحقيقي": 7571,
      "يونيو": 7572,
      "HD": 7573,
      "ألي": 7574,
      "أكتب": 7575,
      "بحياتي": 7576,
      "روو": 7577,
      "ساس": 7578,
      "سهر": 7579,
      "ضور": 7580,
      "كوفي": 7581,
      "٢٠": 7582,
      "انم": 7583,
      "المل": 7584,
      "بياء": 7585,
      "وياك": 7586,
      "ابلة": 7587,
      "ومحمد": 7588,
      "بالها": 7589,
      "العاص": 7590,
      "العسكري": 7591,
      "ميك": 7592,
      "الحار": 7593,
      "الحرام": 7594,
      "وفتحت": 7595,
      "متعل": 7596,
      "وحل": 7597,
      "الأرد": 7598,
      "وبحمد": 7599,
      "الشف": 7600,
      "الشوق": 7601,
      "تعادل": 7602,
      "الصنا": 7603,
      "ماتدري": 7604,
      "بحجم": 7605,
      "وصحبه": 7606,
      "استث": 7607,
      "مجتمع": 7608,
      "تداول": 7609,
      "اليومي": 7610,
      "ووووووو": 7611,
      "وزع": 7612,
      "تصوير": 7613,
      "تشكي": 7614,
      "يشاهدون": 7615,
      "صفحه": 7616,
      "مطر": 7617,
      "المشاعر": 7618,
      "روحه": 7619,
      "الاخوان": 7620,
      "نهار": 7621,
      "ظهرها": 7622,
      "الراج": 7623,
      "سهلة": 7624,
      "بشرتي": 7625,
      "نحو": 7626,
      "التعليم": 7627,
      "الموجوده": 7628,
      "وباقي": 7629,
      "الفتاة": 7630,
      "مشغول": 7631,
      "تشغيل": 7632,
      "Re": 7633,
      "ثلا": 7634,
      "جبل": 7635,
      "خري": 7636,
      "خافت": 7637,
      "سوري": 7638,
      "عال": 7639,
      "فول": 7640,
      "فاني": 7641,
      "مــ": 7642,
      "يمسك": 7643,
      "ارفع": 7644,
      "يرضى": 7645,
      "اسفل": 7646,
      "السواق": 7647,
      "العاده": 7648,
      "الحقيقه": 7649,
      "احتم": 7650,
      "وعات": 7651,
      "مرتف": 7652,
      "أنتم": 7653,
      "يتنا": 7654,
      "رجو": 7655,
      "الصالة": 7656,
      "اهده": 7657,
      "يسمح": 7658,
      "اطف": 7659,
      "أسوي": 7660,
      "الزين": 7661,
      "سلط": 7662,
      "مكاف": 7663,
      "مضت": 7664,
      "المستقبل": 7665,
      "are": 7666,
      "256": 7667,
      "راجعة": 7668,
      "الشخصية": 7669,
      "ابداع": 7670,
      "قريبة": 7671,
      "يوفقكم": 7672,
      "وحطت": 7673,
      "ياسر": 7674,
      "لاعبين": 7675,
      "ign": 7676,
      "600": 7677,
      "Sport": 7678,
      "by": 7679,
      "ct": 7680,
      "آخذ": 7681,
      "أيه": 7682,
      "بوي": 7683,
      "بغير": 7684,
      "تتر": 7685,
      "خوله": 7686,
      "دبل": 7687,
      "دقي": 7688,
      "رُ": 7689,
      "ساف": 7690,
      "سرح": 7691,
      "سائل": 7692,
      "شرائ": 7693,
      "ضير": 7694,
      "فد": 7695,
      "قنوات": 7696,
      "لؤ": 7697,
      "هدية": 7698,
      "يولي": 7699,
      "ماع": 7700,
      "مااا": 7701,
      "ماشفت": 7702,
      "وامر": 7703,
      "ديا": 7704,
      "ورات": 7705,
      "معظم": 7706,
      "السوري": 7707,
      "وتحط": 7708,
      "وجها": 7709,
      "شروط": 7710,
      "الجلس": 7711,
      "الفتره": 7712,
      "الكام": 7713,
      "تعجبكم": 7714,
      "طيل": 7715,
      "حيب": 7716,
      "البح": 7717,
      "القطار": 7718,
      "وصرت": 7719,
      "الطاوله": 7720,
      "سند": 7721,
      "تصبح": 7722,
      "حقها": 7723,
      "2005": 7724,
      "المدير": 7725,
      "بريل": 7726,
      "صديقه": 7727,
      "الاحترا": 7728,
      "تشوفون": 7729,
      "معناه": 7730,
      "ابداً": 7731,
      "واضحة": 7732,
      "اونلاين": 7733,
      "رررررررررررررررر": 7734,
      "العيال": 7735,
      "الموظفين": 7736,
      "ديكورات": 7737,
      "خزانات": 7738,
      "الدفاع": 7739,
      "الأربعاء": 7740,
      "الحلقات": 7741,
      "اكر": 7742,
      "تشر": 7743,
      "ثة": 7744,
      "حجر": 7745,
      "دورة": 7746,
      "ساخ": 7747,
      "شامل": 7748,
      "قاطع": 7749,
      "مف": 7750,
      "مالت": 7751,
      "نْ": 7752,
      "ليات": 7753,
      "المشي": 7754,
      "همس": 7755,
      "السلامة": 7756,
      "برود": 7757,
      "ووك": 7758,
      "الدار": 7759,
      "ولاب": 7760,
      "مسم": 7761,
      "حدى": 7762,
      "بحاج": 7763,
      "استاد": 7764,
      "عباس": 7765,
      "ررت": 7766,
      "تصاميم": 7767,
      "الإقامة": 7768,
      "سلمت": 7769,
      "غرفته": 7770,
      "مصري": 7771,
      "أبوها": 7772,
      "؟؟؟؟؟": 7773,
      "دائم": 7774,
      "عزوز": 7775,
      "ارتاح": 7776,
      "أشكر": 7777,
      "التعديل": 7778,
      "لبست": 7779,
      "تعليم": 7780,
      "هههههههههههههههههههههههههههههههههههههههههههههههههههههههههههههههه": 7781,
      "الجماهير": 7782,
      "نوفمبر": 7783,
      "فاطمه": 7784,
      "العضو": 7785,
      "رهيب": 7786,
      "الثلاجه": 7787,
      "Live": 7788,
      "ma": 7789,
      "تلاحظ": 7790,
      "جذ": 7791,
      "خوي": 7792,
      "ردة": 7793,
      "زول": 7794,
      "سرا": 7795,
      "غراب": 7796,
      "مصدر": 7797,
      "هآ": 7798,
      "يكمل": 7799,
      "مائ": 7800,
      "ليها": 7801,
      "الممكن": 7802,
      "المملكه": 7803,
      "اردت": 7804,
      "بالعربي": 7805,
      "بالتفصيل": 7806,
      "ذاء": 7807,
      "وتل": 7808,
      "وتشوف": 7809,
      "اعاني": 7810,
      "قدمه": 7811,
      "بنظر": 7812,
      "تهتم": 7813,
      "طيزي": 7814,
      "حيف": 7815,
      "الخارج": 7816,
      "اوراق": 7817,
      "فرنسا": 7818,
      "يحه": 7819,
      "يسبب": 7820,
      "اطول": 7821,
      "تدفع": 7822,
      "يقرب": 7823,
      "احداث": 7824,
      "مايحتاج": 7825,
      "بكلمة": 7826,
      "المدارس": 7827,
      "والسبب": 7828,
      "سعودية": 7829,
      "اللحظة": 7830,
      "جالسين": 7831,
      "الخدمه": 7832,
      "العمليه": 7833,
      "الدخيل": 7834,
      "زهار": 7835,
      "توقعت": 7836,
      "الحكومة": 7837,
      "ابريل": 7838,
      "الراجحي": 7839,
      "89": 7840,
      "OR": 7841,
      "حذ": 7842,
      "خالص": 7843,
      "دعم": 7844,
      "رومان": 7845,
      "شدة": 7846,
      "طحين": 7847,
      "عاف": 7848,
      "فإذا": 7849,
      "لمده": 7850,
      "مطلق": 7851,
      "نفر": 7852,
      "يون": 7853,
      "الايفون": 7854,
      "المصدر": 7855,
      "ابط": 7856,
      "ومشك": 7857,
      "العود": 7858,
      "العكس": 7859,
      "للبنات": 7860,
      "مررر": 7861,
      "ودموع": 7862,
      "وفقه": 7863,
      "بتج": 7864,
      "الأعمال": 7865,
      "الفتي": 7866,
      "وبكل": 7867,
      "الشوك": 7868,
      "الخمس": 7869,
      "البصل": 7870,
      "القهر": 7871,
      "تقطيع": 7872,
      "مشه": 7873,
      "2018": 7874,
      "المنز": 7875,
      "اكسس": 7876,
      "يسام": 7877,
      "بكرا": 7878,
      "اقساط": 7879,
      "الغريب": 7880,
      "أوكي": 7881,
      "ـــــــــــ": 7882,
      "غلطة": 7883,
      "ابيك": 7884,
      "وجهت": 7885,
      "لأحد": 7886,
      "ind": 7887,
      "ine": 7888,
      "مواد": 7889,
      "ظهره": 7890,
      "جوالها": 7891,
      "ation": 7892,
      "الباص": 7893,
      "الفيس": 7894,
      "دخيل": 7895,
      "سريعة": 7896,
      "اكتشفت": 7897,
      "إي": 7898,
      "بكون": 7899,
      "بجميع": 7900,
      "بقلبي": 7901,
      "تبيه": 7902,
      "فنحن": 7903,
      "قوه": 7904,
      "لبيت": 7905,
      "هالشئ": 7906,
      "يتحمل": 7907,
      "يعنى": 7908,
      "يبتسم": 7909,
      "انز": 7910,
      "هاذا": 7911,
      "اتر": 7912,
      "بياض": 7913,
      "ولون": 7914,
      "ومج": 7915,
      "ومطبخ": 7916,
      "وتف": 7917,
      "بركات": 7918,
      "التغ": 7919,
      "ترات": 7920,
      "ودين": 7921,
      "متخصص": 7922,
      "الدهون": 7923,
      "الفكره": 7924,
      "جدتي": 7925,
      "وضعي": 7926,
      "الخبز": 7927,
      "تقرير": 7928,
      "2022": 7929,
      "يعتمد": 7930,
      "خصصة": 7931,
      "مجة": 7932,
      "تفتي": 7933,
      "ههههههههههههههه": 7934,
      "عباي": 7935,
      "الغالية": 7936,
      "أيضًا": 7937,
      "أمك": 7938,
      "جلوس": 7939,
      "show": 7940,
      "وصلوا": 7941,
      "نظيره": 7942,
      "الاخيرة": 7943,
      "عجوز": 7944,
      "ارسال": 7945,
      "0327": 7946,
      "الخلق": 7947,
      "ook": 7948,
      "نوران": 7949,
      "email": 7950,
      "فجأة": 7951,
      "البلاد": 7952,
      "تخيلوا": 7953,
      "وقامت": 7954,
      "أرجو": 7955,
      "موضي": 7956,
      "الموديلات": 7957,
      "so": 7958,
      "إذن": 7959,
      "تبيع": 7960,
      "جنيه": 7961,
      "حاسه": 7962,
      "ساب": 7963,
      "سيتم": 7964,
      "صله": 7965,
      "فذ": 7966,
      "قرام": 7967,
      "مبد": 7968,
      "يعل": 7969,
      "الراحة": 7970,
      "الملا": 7971,
      "المكيف": 7972,
      "اراد": 7973,
      "يرى": 7974,
      "ديسمبر": 7975,
      "وياليت": 7976,
      "استه": 7977,
      "اعز": 7978,
      "بركة": 7979,
      "وجزاكم": 7980,
      "التالية": 7981,
      "شيت": 7982,
      "ووش": 7983,
      "مدينه": 7984,
      "الأط": 7985,
      "بلة": 7986,
      "اضحك": 7987,
      "ذيب": 7988,
      "وشغ": 7989,
      "جيك": 7990,
      "وأي": 7991,
      "تكفين": 7992,
      "تفاج": 7993,
      "يحبك": 7994,
      "حلويات": 7995,
      "صحى": 7996,
      "جنى": 7997,
      "لينه": 7998,
      "ولكنها": 7999,
      "واعط": 8000,
      "أتوقع": 8001,
      "رأسي": 8002,
      "الهادي": 8003,
      "يييييييييييي": 8004,
      "one": 8005,
      "هنالك": 8006,
      "سطح": 8007,
      "البيانات": 8008,
      "أقوى": 8009,
      "الكيس": 8010,
      "العملية": 8011,
      "تلقى": 8012,
      "رأسه": 8013,
      "ضعيف": 8014,
      "عععع": 8015,
      "المريخ": 8016,
      "فاهمه": 8017,
      "120803": 8018,
      "Ar": 8019,
      "sp": 8020,
      "vi": 8021,
      "أبا": 8022,
      "أذكر": 8023,
      "أغلب": 8024,
      "أهداف": 8025,
      "ئين": 8026,
      "اقط": 8027,
      "اكره": 8028,
      "باستخدام": 8029,
      "دوب": 8030,
      "يغير": 8031,
      "الظروف": 8032,
      "مائة": 8033,
      "لايت": 8034,
      "وامي": 8035,
      "اتزوج": 8036,
      "ويجب": 8037,
      "الحجم": 8038,
      "وتحت": 8039,
      "احم": 8040,
      "برجر": 8041,
      "وجيه": 8042,
      "تراني": 8043,
      "تحسن": 8044,
      "متأك": 8045,
      "بنص": 8046,
      "خلني": 8047,
      "تهد": 8048,
      "لمباراة": 8049,
      "تقار": 8050,
      "---": 8051,
      "استغربت": 8052,
      "مجمع": 8053,
      "انتظ": 8054,
      "بطني": 8055,
      "بطارية": 8056,
      "رحنا": 8057,
      "حلقات": 8058,
      "المسلم": 8059,
      "images": 8060,
      "مصي": 8061,
      "ويرزق": 8062,
      "بنفسه": 8063,
      "نننن": 8064,
      "يضرب": 8065,
      "التحميل": 8066,
      "لديها": 8067,
      "لديهم": 8068,
      "الزوجه": 8069,
      "قريبه": 8070,
      "صاحبي": 8071,
      "تكلمت": 8072,
      "صعبة": 8073,
      "التجربة": 8074,
      "المعروف": 8075,
      "الداخلية": 8076,
      "Hotel": 8077,
      "82": 8078,
      "افيد": 8079,
      "شاني": 8080,
      "ظالم": 8081,
      "كيد": 8082,
      "مكاتب": 8083,
      "وبع": 8084,
      "يآ": 8085,
      "الرائعة": 8086,
      "الذهبي": 8087,
      "ماطم": 8088,
      "فيدي": 8089,
      "المعهد": 8090,
      "والبنات": 8091,
      "ــا": 8092,
      "اسال": 8093,
      "اسهم": 8094,
      "الساح": 8095,
      "أنصح": 8096,
      "شيش": 8097,
      "متميز": 8098,
      "يتصل": 8099,
      "الفصل": 8100,
      "وشفت": 8101,
      "فسر": 8102,
      "قولوا": 8103,
      "اشك": 8104,
      "بحب": 8105,
      "المناف": 8106,
      "يسوون": 8107,
      "رقص": 8108,
      "وطة": 8109,
      "نتمنى": 8110,
      "..........": 8111,
      "عامر": 8112,
      "الشرق": 8113,
      "شخصيا": 8114,
      "الرسمي": 8115,
      "الخلف": 8116,
      "انسانه": 8117,
      "سعيدة": 8118,
      "تبيني": 8119,
      "روايات": 8120,
      "خاطري": 8121,
      "غازي": 8122,
      "طاولات": 8123,
      "فلسطين": 8124,
      "رخيصة": 8125,
      "العائلة": 8126,
      "شهادة": 8127,
      "الشاشة": 8128,
      "معقولة": 8129,
      "العناية": 8130,
      "متنوعة": 8131,
      "تاق": 8132,
      "ثث": 8133,
      "جيده": 8134,
      "جمهور": 8135,
      "رْ": 8136,
      "سح": 8137,
      "شرا": 8138,
      "غص": 8139,
      "هري": 8140,
      "وكر": 8141,
      "مايت": 8142,
      "مابين": 8143,
      "مادة": 8144,
      "ينظر": 8145,
      "ينتهي": 8146,
      "واضع": 8147,
      "اتصال": 8148,
      "بيري": 8149,
      "راقية": 8150,
      "ابناء": 8151,
      "اسيه": 8152,
      "معاكم": 8153,
      "العز": 8154,
      "الحجز": 8155,
      "الحدائ": 8156,
      "وتكم": 8157,
      "برضو": 8158,
      "وجاء": 8159,
      "بداخ": 8160,
      "مرتب": 8161,
      "ترغب": 8162,
      "وداع": 8163,
      "ادوات": 8164,
      "مدارس": 8165,
      "يدين": 8166,
      "بنته": 8167,
      "سيدي": 8168,
      "الاعلى": 8169,
      "الشقق": 8170,
      "محف": 8171,
      "الخض": 8172,
      "الباس": 8173,
      "عمان": 8174,
      "وصدق": 8175,
      "وصفة": 8176,
      "صرنا": 8177,
      "تجيني": 8178,
      "عارض": 8179,
      "كسب": 8180,
      "اااااااااااااا": 8181,
      "الماك": 8182,
      "ديلبيرو": 8183,
      "مباشره": 8184,
      ">>>>": 8185,
      "وبالتالي": 8186,
      "تشوفه": 8187,
      "ماكو": 8188,
      "المراه": 8189,
      "سيارتك": 8190,
      "نصيحه": 8191,
      "أبداً": 8192,
      "بريدك": 8193,
      "ect": 8194,
      "سؤالي": 8195,
      "القناة": 8196,
      "color": 8197,
      "me": 8198,
      "إبراهيم": 8199,
      "بودي": 8200,
      "تام": 8201,
      "خبي": 8202,
      "دراس": 8203,
      "رديت": 8204,
      "شاليهات": 8205,
      "صري": 8206,
      "طرد": 8207,
      "عمار": 8208,
      "عجيب": 8209,
      "لبيع": 8210,
      "وخير": 8211,
      "يابو": 8212,
      "الوحده": 8213,
      "منح": 8214,
      "ماعليك": 8215,
      "فيل": 8216,
      "علمي": 8217,
      "كلف": 8218,
      "اياه": 8219,
      "الحلال": 8220,
      "اليات": 8221,
      "اختك": 8222,
      "ووف": 8223,
      "سيري": 8224,
      "الشباك": 8225,
      "جدار": 8226,
      "جدًا": 8227,
      "وضيح": 8228,
      "اهلك": 8229,
      "ائزة": 8230,
      "تقطع": 8231,
      "مشون": 8232,
      "يهتم": 8233,
      "تدرس": 8234,
      "أيش": 8235,
      "وقعت": 8236,
      "خلين": 8237,
      "حلال": 8238,
      "مستعد": 8239,
      "صحه": 8240,
      "ضحى": 8241,
      "حروف": 8242,
      "سرعه": 8243,
      "نصيب": 8244,
      "وراي": 8245,
      "اغلى": 8246,
      "المدرس": 8247,
      "سويته": 8248,
      "ont": 8249,
      "الاعمال": 8250,
      "ساكت": 8251,
      "صباحا": 8252,
      "ill": 8253,
      "توزي": 8254,
      "جمعت": 8255,
      "اشتريت": 8256,
      "انصحك": 8257,
      "بطريقه": 8258,
      "الفاضل": 8259,
      "نهائيا": 8260,
      "الخالدية": 8261,
      "الحدائق": 8262,
      "41": 8263,
      "7277": 8264,
      "93": 8265,
      "Max": 8266,
      "Xr": 8267,
      "dot": 8268,
      "ik": 8269,
      "أبيض": 8270,
      "بقية": 8271,
      "توص": 8272,
      "ثخذ": 8273,
      "حوله": 8274,
      "خال": 8275,
      "دب": 8276,
      "ذآ": 8277,
      "صالة": 8278,
      "طنين": 8279,
      "مواجهة": 8280,
      "نبدأ": 8281,
      "نتيجه": 8282,
      "يها": 8283,
      "ماا": 8284,
      "ماج": 8285,
      "ليان": 8286,
      "الموب": 8287,
      "المقطع": 8288,
      "المفاج": 8289,
      "ورب": 8290,
      "ــه": 8291,
      "ابتع": 8292,
      "يامن": 8293,
      "العظ": 8294,
      "العادة": 8295,
      "الحاله": 8296,
      "احجز": 8297,
      "وعشان": 8298,
      "اخذه": 8299,
      "ترسل": 8300,
      "مدت": 8301,
      "بهدف": 8302,
      "الشديد": 8303,
      "جدآ": 8304,
      "اجنبي": 8305,
      "مسويه": 8306,
      "ربى": 8307,
      "مشوار": 8308,
      "2000": 8309,
      "وشافت": 8310,
      "عبداللطيف": 8311,
      "يفعل": 8312,
      "الغاليه": 8313,
      "تصدر": 8314,
      "تملك": 8315,
      "يشهد": 8316,
      "وريه": 8317,
      "تتزوج": 8318,
      "الاستع": 8319,
      "قتنا": 8320,
      "الشرطة": 8321,
      "علامات": 8322,
      "فوقه": 8323,
      "فضلك": 8324,
      "المحتر": 8325,
      "مسكين": 8326,
      "اشوفها": 8327,
      "الباطن": 8328,
      "جلسات": 8329,
      "المواطن": 8330,
      "أستاذ": 8331,
      "مميزه": 8332,
      "23126": 8333,
      "الترتيب": 8334,
      "سامح": 8335,
      "الالالال": 8336,
      "نظيفة": 8337,
      "الأحمر": 8338,
      "سوداء": 8339,
      "واسعارها": 8340,
      "ears": 8341,
      "727723126": 8342,
      "تكره": 8343,
      "تكمل": 8344,
      "توفير": 8345,
      "حان": 8346,
      "حفر": 8347,
      "حميد": 8348,
      "زائر": 8349,
      "سله": 8350,
      "فمها": 8351,
      "قوقل": 8352,
      "لش": 8353,
      "موج": 8354,
      "نض": 8355,
      "يير": 8356,
      "يالي": 8357,
      "يوتيوب": 8358,
      "الذنوب": 8359,
      "انتر": 8360,
      "مايعرف": 8361,
      "ويج": 8362,
      "معليش": 8363,
      "السه": 8364,
      "السنين": 8365,
      "أنزل": 8366,
      "تحقق": 8367,
      "مدون": 8368,
      "يتهم": 8369,
      "الجواب": 8370,
      "سيء": 8371,
      "الاز": 8372,
      "طلة": 8373,
      "حيان": 8374,
      "مسحت": 8375,
      "اهره": 8376,
      "باريس": 8377,
      "الرزق": 8378,
      "الهكر": 8379,
      "قطاع": 8380,
      "تنظيم": 8381,
      "تنزيل": 8382,
      "رحلات": 8383,
      "وزن": 8384,
      "حلق": 8385,
      "حلوو": 8386,
      "تتكون": 8387,
      "عادية": 8388,
      "عيناي": 8389,
      "ملاعق": 8390,
      "نظره": 8391,
      "واعيد": 8392,
      "اغاني": 8393,
      "تركها": 8394,
      "بلاد": 8395,
      "بشره": 8396,
      "اختبار": 8397,
      "تقدرون": 8398,
      "صاحبه": 8399,
      "حاطه": 8400,
      "واكيد": 8401,
      "الرئيسي": 8402,
      "بنسبة": 8403,
      "cd": 8404,
      "no": 8405,
      "wi": 8406,
      "إل": 8407,
      "تور": 8408,
      "جوجل": 8409,
      "خضر": 8410,
      "سلس": 8411,
      "سوني": 8412,
      "صلك": 8413,
      "عثمان": 8414,
      "غدا": 8415,
      "فلي": 8416,
      "مذي": 8417,
      "وكن": 8418,
      "يكت": 8419,
      "يضر": 8420,
      "يحسب": 8421,
      "يثبت": 8422,
      "ّب": 8423,
      "المات": 8424,
      "انسى": 8425,
      "ماه": 8426,
      "مارة": 8427,
      "فيلم": 8428,
      "ليكون": 8429,
      "المتر": 8430,
      "المرح": 8431,
      "المكونات": 8432,
      "والط": 8433,
      "ابته": 8434,
      "اسهل": 8435,
      "الحديد": 8436,
      "الحميد": 8437,
      "وتغ": 8438,
      "وتطلع": 8439,
      "التسوق": 8440,
      "اخيرا": 8441,
      "شيك": 8442,
      "وحمام": 8443,
      "قدمت": 8444,
      "قدامي": 8445,
      "وسائل": 8446,
      "تعاني": 8447,
      "راحتك": 8448,
      "الصحون": 8449,
      "الصديق": 8450,
      "القانون": 8451,
      "اصغر": 8452,
      "تكسر": 8453,
      "تفعل": 8454,
      "الطائ": 8455,
      "الطلاق": 8456,
      "رسمي": 8457,
      "دينه": 8458,
      "هدايا": 8459,
      "خطب": 8460,
      "دخلوا": 8461,
      "صفح": 8462,
      "شفنا": 8463,
      "تستحق": 8464,
      "تراها": 8465,
      "طولت": 8466,
      "جابر": 8467,
      "صدقني": 8468,
      "أبوه": 8469,
      "فاظ": 8470,
      "يضاً": 8471,
      "طارق": 8472,
      "ass": 8473,
      "الجزاء": 8474,
      "ظهور": 8475,
      "الصفحه": 8476,
      "موبايل": 8477,
      "آآآآآآآآآآآآآآآآ": 8478,
      "بودرة": 8479,
      "مقدار": 8480,
      "ثانوي": 8481,
      "وسرعة": 8482,
      "58": 8483,
      "إلين": 8484,
      "بآ": 8485,
      "باا": 8486,
      "بوه": 8487,
      "بالسوق": 8488,
      "بتروح": 8489,
      "تأخ": 8490,
      "توفيق": 8491,
      "دَ": 8492,
      "دقيق": 8493,
      "دوام": 8494,
      "ساهم": 8495,
      "عائل": 8496,
      "غرا": 8497,
      "لجل": 8498,
      "مصل": 8499,
      "يبدو": 8500,
      "انش": 8501,
      "انصدمت": 8502,
      "المفضل": 8503,
      "اتفق": 8504,
      "والاست": 8505,
      "ابكي": 8506,
      "اسالك": 8507,
      "بعت": 8508,
      "السوي": 8509,
      "وقي": 8510,
      "عليم": 8511,
      "احمل": 8512,
      "للسيارات": 8513,
      "مرتفع": 8514,
      "ادع": 8515,
      "ادرس": 8516,
      "وحبيت": 8517,
      "بتنا": 8518,
      "خلى": 8519,
      "الازرق": 8520,
      "بابي": 8521,
      "مساج": 8522,
      "الصي": 8523,
      "فسار": 8524,
      "تنق": 8525,
      "يمان": 8526,
      "اقات": 8527,
      "تصليح": 8528,
      "يقعد": 8529,
      "صارخ": 8530,
      "سعفص": 8531,
      "الماضية": 8532,
      "حينما": 8533,
      "تركض": 8534,
      "داخله": 8535,
      "شافته": 8536,
      "حولها": 8537,
      "الاستغفار": 8538,
      "المواصفات": 8539,
      "اللحين": 8540,
      "رايحه": 8541,
      "الرابعة": 8542,
      "البيضاء": 8543,
      "قادره": 8544,
      "الاستقبال": 8545,
      "يوليو": 8546,
      "hg": 8547,
      "my": 8548,
      "od": 8549,
      "أُ": 8550,
      "تضيع": 8551,
      "جال": 8552,
      "زاز": 8553,
      "سـ": 8554,
      "سبي": 8555,
      "صق": 8556,
      "فضي": 8557,
      "كش": 8558,
      "لولا": 8559,
      "مفيد": 8560,
      "مياه": 8561,
      "ماصار": 8562,
      "واول": 8563,
      "واغفر": 8564,
      "معدل": 8565,
      "السائق": 8566,
      "تيل": 8567,
      "الحركة": 8568,
      "احتف": 8569,
      "الأق": 8570,
      "الفستان": 8571,
      "الكبار": 8572,
      "الشوارع": 8573,
      "مسفر": 8574,
      "ائط": 8575,
      "الراتب": 8576,
      "استا": 8577,
      "موز": 8578,
      "تكفي": 8579,
      "صره": 8580,
      "لفة": 8581,
      "صدمة": 8582,
      "ينيك": 8583,
      "بابتس": 8584,
      "وينا": 8585,
      "وينه": 8586,
      "واجعله": 8587,
      "الاخبار": 8588,
      "استخدمه": 8589,
      "المدن": 8590,
      "أهله": 8591,
      "جوالي": 8592,
      "180": 8593,
      "الاشخاص": 8594,
      "مشيت": 8595,
      "زعلان": 8596,
      "الحقوق": 8597,
      "ناروتو": 8598,
      "وخاصه": 8599,
      "القديمة": 8600,
      "أكتوبر": 8601,
      "بقهر": 8602,
      "بمناسبة": 8603,
      "حُ": 8604,
      "حاء": 8605,
      "خدي": 8606,
      "ذك": 8607,
      "روان": 8608,
      "ساح": 8609,
      "شوا": 8610,
      "فتن": 8611,
      "فواز": 8612,
      "قيادة": 8613,
      "لعل": 8614,
      "لطي": 8615,
      "البه": 8616,
      "ماته": 8617,
      "المخت": 8618,
      "بيط": 8619,
      "بيات": 8620,
      "بيقول": 8621,
      "ويلي": 8622,
      "ايفه": 8623,
      "وقعد": 8624,
      "الحمي": 8625,
      "وتا": 8626,
      "ترح": 8627,
      "ووضع": 8628,
      "وحنا": 8629,
      "وحطي": 8630,
      "وحلو": 8631,
      "راحو": 8632,
      "اجرب": 8633,
      "عيوب": 8634,
      "2023": 8635,
      "الرشي": 8636,
      "فران": 8637,
      "بينك": 8638,
      "مجنون": 8639,
      "رياضة": 8640,
      "الطويل": 8641,
      "سنتر": 8642,
      "الرياضي": 8643,
      "تتميز": 8644,
      "يجمع": 8645,
      "جنات": 8646,
      "عاديه": 8647,
      "أكولات": 8648,
      "شخصيه": 8649,
      "نهايه": 8650,
      "مصطفى": 8651,
      "قبلك": 8652,
      "المجاري": 8653,
      "ard": 8654,
      "المتوفي": 8655,
      "الناصر": 8656,
      "بنفسها": 8657,
      "الجميله": 8658,
      "جلسة": 8659,
      "الحرم": 8660,
      "مرتاح": 8661,
      "قليله": 8662,
      "يابنت": 8663,
      "خفيفة": 8664,
      "ity": 8665,
      "ظلوم": 8666,
      "عبارات": 8667,
      "المشاركات": 8668,
      "ight": 8669,
      "الاثاث": 8670,
      "73": 8671,
      "NT": 8672,
      "Sh": 8673,
      "أعت": 8674,
      "بوب": 8675,
      "تأكد": 8676,
      "ثار": 8677,
      "جف": 8678,
      "خسارة": 8679,
      "طاز": 8680,
      "عاز": 8681,
      "عذر": 8682,
      "فلو": 8683,
      "نبض": 8684,
      "هلك": 8685,
      "وعل": 8686,
      "وامل": 8687,
      "اتذكر": 8688,
      "والباقي": 8689,
      "ورقه": 8690,
      "ايضاً": 8691,
      "العيش": 8692,
      "وعشر": 8693,
      "الدراسه": 8694,
      "سيس": 8695,
      "لمست": 8696,
      "الشقة": 8697,
      "قيام": 8698,
      "راحوا": 8699,
      "البدي": 8700,
      "تقصد": 8701,
      "هذاك": 8702,
      "اصوات": 8703,
      "جيوش": 8704,
      "ماتبي": 8705,
      "اشخاص": 8706,
      "قهوه": 8707,
      "أخاف": 8708,
      "بطنها": 8709,
      "تمكن": 8710,
      "فعله": 8711,
      "الزمان": 8712,
      "واجهه": 8713,
      "راءات": 8714,
      "يجيني": 8715,
      "قصى": 8716,
      "زينب": 8717,
      "اخذها": 8718,
      "خيراً": 8719,
      "ـــه": 8720,
      "الراقي": 8721,
      "الرساله": 8722,
      "عالمية": 8723,
      "تضم": 8724,
      "صيدلية": 8725,
      "جسمه": 8726,
      "وقلبي": 8727,
      "النتائج": 8728,
      "مختلفه": 8729,
      "النجاح": 8730,
      "الحمامات": 8731,
      "ألة": 8732,
      "تلاق": 8733,
      "تصلح": 8734,
      "تمسح": 8735,
      "جرا": 8736,
      "جاد": 8737,
      "زوار": 8738,
      "صوتي": 8739,
      "ضيه": 8740,
      "ظني": 8741,
      "مزي": 8742,
      "مكه": 8743,
      "يبا": 8744,
      "ياتي": 8745,
      "😭😭": 8746,
      "الصل": 8747,
      "الذه": 8748,
      "الذكر": 8749,
      "الالعاب": 8750,
      "اللوز": 8751,
      "ماادري": 8752,
      "المختلفة": 8753,
      "واحب": 8754,
      "ريبه": 8755,
      "ويم": 8756,
      "امث": 8757,
      "العقد": 8758,
      "احلام": 8759,
      "اعجاب": 8760,
      "اخوكم": 8761,
      "كاني": 8762,
      "يدفع": 8763,
      "الجودة": 8764,
      "الجهني": 8765,
      "بعدم": 8766,
      "الاهل": 8767,
      "الشت": 8768,
      "القوة": 8769,
      "القاضي": 8770,
      "ائم": 8771,
      "ائيه": 8772,
      "اصر": 8773,
      "بحزن": 8774,
      "يومياً": 8775,
      "مجن": 8776,
      "تفاعل": 8777,
      "اكير": 8778,
      "ركض": 8779,
      "ركبت": 8780,
      "يلبس": 8781,
      "لحظات": 8782,
      "تتاح": 8783,
      "يجابي": 8784,
      "بببب": 8785,
      "حنين": 8786,
      "قرشت": 8787,
      "ندقية": 8788,
      "مكانك": 8789,
      "تراق": 8790,
      "دعوات": 8791,
      "موضوعك": 8792,
      "250": 8793,
      "عشاق": 8794,
      "الاستمتاع": 8795,
      "الشخصي": 8796,
      "اللاس": 8797,
      "حسابك": 8798,
      "اااااااااااااااااااااااااااااااا": 8799,
      "تأتي": 8800,
      "البنوك": 8801,
      "النهار": 8802,
      "يسلمك": 8803,
      "الزيتون": 8804,
      "الشعور": 8805,
      "أولاً": 8806,
      "احترام": 8807,
      "عمليات": 8808,
      "الفردوس": 8809,
      "أبناء": 8810,
      "ئت": 8811,
      "بُ": 8812,
      "تتج": 8813,
      "توها": 8814,
      "جهد": 8815,
      "حاولي": 8816,
      "داري": 8817,
      "شون": 8818,
      "شوار": 8819,
      "طفي": 8820,
      "طاولة": 8821,
      "عُ": 8822,
      "عشاء": 8823,
      "وطي": 8824,
      "وخالد": 8825,
      "يقبل": 8826,
      "ّم": 8827,
      "انظر": 8828,
      "انتهاء": 8829,
      "ماركة": 8830,
      "فيدون": 8831,
      "ليون": 8832,
      "اتش": 8833,
      "يراني": 8834,
      "ويب": 8835,
      "ــآ": 8836,
      "ومها": 8837,
      "بالرغم": 8838,
      "العصير": 8839,
      "وجن": 8840,
      "بداع": 8841,
      "الدقيقة": 8842,
      "قلته": 8843,
      "وشن": 8844,
      "هية": 8845,
      "!!..": 8846,
      "مثلها": 8847,
      "يحل": 8848,
      "اولى": 8849,
      "صدار": 8850,
      "صدرك": 8851,
      "بشهر": 8852,
      "غرفتين": 8853,
      "شوفو": 8854,
      "الاتفاق": 8855,
      "مريوم": 8856,
      "صدقيني": 8857,
      "نوعا": 8858,
      "الضعي": 8859,
      "دايا": 8860,
      "البطولات": 8861,
      "عقلي": 8862,
      "يجيك": 8863,
      "هالمره": 8864,
      "بالدنيا": 8865,
      "القصص": 8866,
      "يحفظك": 8867,
      "احتمال": 8868,
      "1_": 8869,
      "Pr": 8870,
      "ld": 8871,
      "we": 8872,
      "جواب": 8873,
      "حارس": 8874,
      "سنا": 8875,
      "سكان": 8876,
      "شفي": 8877,
      "صغ": 8878,
      "صقر": 8879,
      "ظمة": 8880,
      "غالية": 8881,
      "قُ": 8882,
      "قماش": 8883,
      "كده": 8884,
      "كذب": 8885,
      "مخد": 8886,
      "مخلص": 8887,
      "يالغالي": 8888,
      "منق": 8889,
      "منقول": 8890,
      "ماكانت": 8891,
      "لاحد": 8892,
      "يناس": 8893,
      "المرات": 8894,
      "المرش": 8895,
      "الملعب": 8896,
      "وايش": 8897,
      "ويدخل": 8898,
      "ابتد": 8899,
      "همي": 8900,
      "بالغرفه": 8901,
      "بالصوره": 8902,
      "ميسي": 8903,
      "الحادث": 8904,
      "وتروح": 8905,
      "وفها": 8906,
      "الدرس": 8907,
      "بتص": 8908,
      "بتهم": 8909,
      "بتقول": 8910,
      "يتج": 8911,
      "قدامه": 8912,
      "الجانب": 8913,
      "خلنا": 8914,
      "الكتب": 8915,
      "الكيتنز": 8916,
      "ملتقى": 8917,
      "حيوان": 8918,
      "مساح": 8919,
      "ائن": 8920,
      "فرك": 8921,
      "فروع": 8922,
      "المنيوم": 8923,
      "وكأنه": 8924,
      "يحقق": 8925,
      "يسهل": 8926,
      "رسال": 8927,
      "الإمام": 8928,
      "جنبية": 8929,
      "خطير": 8930,
      "قرأت": 8931,
      "ظهرت": 8932,
      "ant": 8933,
      "داخلية": 8934,
      "المحافظ": 8935,
      "احسست": 8936,
      "كافيه": 8937,
      "نانير": 8938,
      "وغلا": 8939,
      "تأثير": 8940,
      "واضحه": 8941,
      "يشوفها": 8942,
      "حقيقي": 8943,
      "سابقا": 8944,
      "اجهزة": 8945,
      "محفوظ": 8946,
      ":/": 8947,
      "AR": 8948,
      "ea": 8949,
      "ment": 8950,
      "إنا": 8951,
      "ئا": 8952,
      "بجدة": 8953,
      "حالات": 8954,
      "حواء": 8955,
      "صحت": 8956,
      "طيران": 8957,
      "لتس": 8958,
      "نخ": 8959,
      "هين": 8960,
      "..\"": 8961,
      "..(": 8962,
      "الميت": 8963,
      "الموسي": 8964,
      "واحيانا": 8965,
      "ونحط": 8966,
      "يرجى": 8967,
      "والاس": 8968,
      "والشباب": 8969,
      "والصلاة": 8970,
      "امان": 8971,
      "امية": 8972,
      "بعدي": 8973,
      "معينه": 8974,
      "الساخ": 8975,
      "بالط": 8976,
      "وقعه": 8977,
      "للحصول": 8978,
      "بنتك": 8979,
      "الأعلى": 8980,
      "الفطور": 8981,
      "الكف": 8982,
      "رجيم": 8983,
      "الصالون": 8984,
      "عرق": 8985,
      "اصدار": 8986,
      "تنظر": 8987,
      "الغداء": 8988,
      "ازرق": 8989,
      "الزلف": 8990,
      "مستمر": 8991,
      "ربيه": 8992,
      "تتغير": 8993,
      "ااااااااا": 8994,
      "جنوب": 8995,
      "رائط": 8996,
      "غرفتك": 8997,
      "ضرورة": 8998,
      "علاقه": 8999,
      "خيال": 9000,
      "لعاب": 9001,
      "أحمر": 9002,
      "ang": 9003,
      "سمعته": 9004,
      "شافها": 9005,
      "تعليقات": 9006,
      "حفظه": 9007,
      "اخلص": 9008,
      "ساعدوني": 9009,
      "الشاشه": 9010,
      "الدكتورة": 9011,
      "OL": 9012,
      "hj": 9013,
      "sm": 9014,
      "ure": 9015,
      "أمن": 9016,
      "أرد": 9017,
      "إِ": 9018,
      "افية": 9019,
      "ادية": 9020,
      "تصرخ": 9021,
      "حجاب": 9022,
      "سوو": 9023,
      "سمو": 9024,
      "فوائد": 9025,
      "لتر": 9026,
      "ميني": 9027,
      "وكثير": 9028,
      "وثلاث": 9029,
      "يذهب": 9030,
      "ماغ": 9031,
      "مافيني": 9032,
      "ليني": 9033,
      "لايوجد": 9034,
      "المحت": 9035,
      "المثل": 9036,
      "واخت": 9037,
      "ونع": 9038,
      "والاسعار": 9039,
      "والهلال": 9040,
      "ويتم": 9041,
      "ويحب": 9042,
      "السمك": 9043,
      "كمله": 9044,
      "كميه": 9045,
      "ياعمري": 9046,
      "ميلان": 9047,
      "وتعرف": 9048,
      "وحسن": 9049,
      "الده": 9050,
      "بتين": 9051,
      "بنتيجة": 9052,
      "الجرح": 9053,
      "خلها": 9054,
      "الاذن": 9055,
      "الاعلان": 9056,
      "ملفات": 9057,
      "كتابه": 9058,
      "مهند": 9059,
      "الصغيره": 9060,
      "القطري": 9061,
      "مشاهد": 9062,
      "الرؤ": 9063,
      "الرأس": 9064,
      "اصفر": 9065,
      "يعوض": 9066,
      "تسربات": 9067,
      "موظف": 9068,
      "إنتي": 9069,
      "تفعيل": 9070,
      "تجف": 9071,
      "الطاولة": 9072,
      "سنان": 9073,
      "نسخة": 9074,
      "المساء": 9075,
      "يصرف": 9076,
      "وبركاتة": 9077,
      "تطوير": 9078,
      "اشوفك": 9079,
      "حياتهم": 9080,
      "ريحته": 9081,
      "يزعل": 9082,
      "بضيق": 9083,
      "طعمه": 9084,
      "القيام": 9085,
      "خاطر": 9086,
      "خلطات": 9087,
      "الكويتية": 9088,
      "ترتاح": 9089,
      "وبدت": 9090,
      "يسعدك": 9091,
      "الفرحه": 9092,
      "عبادك": 9093,
      "الزلفى": 9094,
      "78": 9095,
      "اغير": 9096,
      "تة": 9097,
      "توفي": 9098,
      "تميز": 9099,
      "ثمن": 9100,
      "ثقة": 9101,
      "حوض": 9102,
      "خاء": 9103,
      "رول": 9104,
      "سلو": 9105,
      "غاليه": 9106,
      "لذي": 9107,
      "مِ": 9108,
      "مفاتيح": 9109,
      "نمو": 9110,
      "وزوجي": 9111,
      "يفت": 9112,
      "يعرض": 9113,
      "يتحدث": 9114,
      "الوالد": 9115,
      "مايصير": 9116,
      "ليوم": 9117,
      "المربع": 9118,
      "المعدة": 9119,
      "ارضي": 9120,
      "عنكم": 9121,
      "اسات": 9122,
      "اسمح": 9123,
      "ايس": 9124,
      "السين": 9125,
      "وقته": 9126,
      "وتنا": 9127,
      "شيف": 9128,
      "افك": 9129,
      "وحر": 9130,
      "قلتها": 9131,
      "طلون": 9132,
      "محمود": 9133,
      "القريب": 9134,
      "القهوه": 9135,
      "جيع": 9136,
      "اشا": 9137,
      "الثدي": 9138,
      "يحبني": 9139,
      "تدعي": 9140,
      "الغيب": 9141,
      "بطه": 9142,
      "نسائي": 9143,
      "خليفه": 9144,
      "الزجاج": 9145,
      "يشبه": 9146,
      "وخلاص": 9147,
      "لأول": 9148,
      "أتكلم": 9149,
      "1433": 9150,
      "عجبتني": 9151,
      "ark": 9152,
      "ويرجع": 9153,
      "مختص": 9154,
      "البرد": 9155,
      "أبيك": 9156,
      "الفرصة": 9157,
      "خمسه": 9158,
      "بيدك": 9159,
      "مراد": 9160,
      "ولكني": 9161,
      "بتسمت": 9162,
      "كككك": 9163,
      "المشروع": 9164,
      "مقالات": 9165,
      "الاهتمام": 9166,
      "مقارنة": 9167,
      "لمشاهدة": 9168,
      ")..": 9169,
      "-~": 9170,
      "بأنها": 9171,
      "تاني": 9172,
      "تشرب": 9173,
      "ثواني": 9174,
      "ثابت": 9175,
      "جمه": 9176,
      "حريم": 9177,
      "ذين": 9178,
      "زو": 9179,
      "سكرت": 9180,
      "فلفل": 9181,
      "قرة": 9182,
      "لتح": 9183,
      "لأخ": 9184,
      "مرام": 9185,
      "——": 9186,
      "مايكون": 9187,
      "ماعرفت": 9188,
      "ونست": 9189,
      "ولده": 9190,
      "اسعد": 9191,
      "ومية": 9192,
      "بعيده": 9193,
      "وقتي": 9194,
      "العصي": 9195,
      "برت": 9196,
      "للف": 9197,
      "وعاد": 9198,
      "اخلاق": 9199,
      "تحان": 9200,
      "افراح": 9201,
      "الدعم": 9202,
      "بتن": 9203,
      "بنتها": 9204,
      "تهى": 9205,
      "الشها": 9206,
      "القول": 9207,
      "مشاع": 9208,
      "فرض": 9209,
      "زيك": 9210,
      "زيين": 9211,
      "وانك": 9212,
      "جيبي": 9213,
      "يعاني": 9214,
      "تنفع": 9215,
      "تجار": 9216,
      "يحة": 9217,
      "أسباب": 9218,
      "طلعوا": 9219,
      "بكلام": 9220,
      "رحب": 9221,
      "سمها": 9222,
      "الإثنين": 9223,
      "هدى": 9224,
      "صاروا": 9225,
      "...........": 9226,
      "يصدق": 9227,
      "جهزه": 9228,
      "الشرقية": 9229,
      "الاختيار": 9230,
      "ولدت": 9231,
      "نقاش": 9232,
      "جابت": 9233,
      "وادث": 9234,
      "لنقل": 9235,
      "وظائف": 9236,
      "يحبون": 9237,
      "ساميه": 9238,
      "سلامتك": 9239,
      "يديك": 9240,
      "وعيونها": 9241,
      "سيارتي": 9242,
      "ناظرت": 9243,
      "\"\"\"\"": 9244,
      "ترونية": 9245,
      "اوريو": 9246,
      "ننتظر": 9247,
      "أبرار": 9248,
      "بحاجة": 9249,
      "اللاسلكي": 9250,
      "53": 9251,
      "63": 9252,
      "79": 9253,
      "nd": 9254,
      "uk": 9255,
      "أصبحت": 9256,
      "إيش": 9257,
      "إقامة": 9258,
      "بورد": 9259,
      "ثمار": 9260,
      "خَ": 9261,
      "ذذ": 9262,
      "ضاع": 9263,
      "غسيل": 9264,
      "قمه": 9265,
      "لنفسك": 9266,
      "مغل": 9267,
      "هاليوم": 9268,
      "يكره": 9269,
      "انتق": 9270,
      "مامي": 9271,
      "الميز": 9272,
      "ونخ": 9273,
      "ابشر": 9274,
      "اسل": 9275,
      "ومد": 9276,
      "السك": 9277,
      "السبيعي": 9278,
      "عليق": 9279,
      "ستة": 9280,
      "التوي": 9281,
      "التثبيت": 9282,
      "وعق": 9283,
      "وهى": 9284,
      "متعة": 9285,
      "شروق": 9286,
      "خلو": 9287,
      "الفخ": 9288,
      "الفقر": 9289,
      "بلت": 9290,
      "القطيف": 9291,
      "عيالها": 9292,
      "2021": 9293,
      "تسمح": 9294,
      "استغرب": 9295,
      "استمتع": 9296,
      "وأقول": 9297,
      "مجر": 9298,
      "وكأن": 9299,
      "تجهيز": 9300,
      "الطيران": 9301,
      "اقرا": 9302,
      "اقفال": 9303,
      "خليجي": 9304,
      "تشوفين": 9305,
      "كيفكم": 9306,
      "حقا": 9307,
      "راءه": 9308,
      "الإماراتي": 9309,
      "أمان": 9310,
      "مقر": 9311,
      "جزيرة": 9312,
      "صورته": 9313,
      "تراب": 9314,
      "دعوه": 9315,
      "مريت": 9316,
      "وظيفه": 9317,
      "بشرط": 9318,
      "موجودين": 9319,
      "عوده": 9320,
      "زاوج": 9321,
      "البيبي": 9322,
      "تضغط": 9323,
      "بيدها": 9324,
      "قاعدين": 9325,
      "العلبه": 9326,
      "الحديثة": 9327,
      "الآخرين": 9328,
      "المناسبة": 9329,
      "بساطة": 9330,
      "8e": 9331,
      "ER": 9332,
      "ug": 9333,
      "أزهار": 9334,
      "ئع": 9335,
      "تناس": 9336,
      "ثمر": 9337,
      "جنس": 9338,
      "حالتي": 9339,
      "زَ": 9340,
      "فاس": 9341,
      "فمي": 9342,
      "فود": 9343,
      "فقة": 9344,
      "كوك": 9345,
      "كأني": 9346,
      "لطف": 9347,
      "نوفر": 9348,
      "يمي": 9349,
      "اناس": 9350,
      "هام": 9351,
      "واصبح": 9352,
      "بيانات": 9353,
      "راوي": 9354,
      "امسك": 9355,
      "امرأة": 9356,
      "ابغ": 9357,
      "العوفي": 9358,
      "العفو": 9359,
      "الحواجب": 9360,
      "وتقبل": 9361,
      "ستور": 9362,
      "برس": 9363,
      "للمر": 9364,
      "للوصول": 9365,
      "التهاب": 9366,
      "وعمل": 9367,
      "ترضى": 9368,
      "كانها": 9369,
      "وهن": 9370,
      "ودائ": 9371,
      "مدونة": 9372,
      "اءة": 9373,
      "الكاب": 9374,
      "باقة": 9375,
      "جدران": 9376,
      "وضعه": 9377,
      "البارد": 9378,
      "كونه": 9379,
      "الرك": 9380,
      "وشكر": 9381,
      "هيئة": 9382,
      "بينكم": 9383,
      "الهج": 9384,
      "عبدالهادي": 9385,
      "يسار": 9386,
      "112": 9387,
      "يشارك": 9388,
      "ويندوز": 9389,
      "حباي": 9390,
      "الاستح": 9391,
      "ضيفه": 9392,
      "واسعه": 9393,
      "خلاط": 9394,
      "مصدق": 9395,
      "مريان": 9396,
      "اقولها": 9397,
      "حصة": 9398,
      "تماماً": 9399,
      "البطاقة": 9400,
      "مكتبة": 9401,
      "صاحبة": 9402,
      "فايده": 9403,
      "استعداد": 9404,
      "زادت": 9405,
      "بعيونها": 9406,
      "ome": 9407,
      "لوحة": 9408,
      "ياخوي": 9409,
      "مجهود": 9410,
      "جواهر": 9411,
      "بوابة": 9412,
      "مصدقه": 9413,
      "خيارات": 9414,
      "الدكتوره": 9415,
      "كهربائي": 9416,
      "الأستاذ": 9417,
      "800": 9418,
      "]:": 9419,
      "cc": 9420,
      "أطفال": 9421,
      "اقد": 9422,
      "بقد": 9423,
      "تظ": 9424,
      "توك": 9425,
      "تعلق": 9426,
      "دعي": 9427,
      "طقم": 9428,
      "عدي": 9429,
      "عاا": 9430,
      "عبه": 9431,
      "قـ": 9432,
      "كلية": 9433,
      "لغرفة": 9434,
      "لطيف": 9435,
      "مسي": 9436,
      "هِ": 9437,
      "ووقف": 9438,
      "يْ": 9439,
      "يخت": 9440,
      "ّن": 9441,
      "الوض": 9442,
      "الامل": 9443,
      "الفيصل": 9444,
      "منتد": 9445,
      "ماخ": 9446,
      "ينز": 9447,
      "المالية": 9448,
      "الممرض": 9449,
      "واعد": 9450,
      "وابو": 9451,
      "ناح": 9452,
      "وربما": 9453,
      "بعرف": 9454,
      "معان": 9455,
      "بالعمل": 9456,
      "بالكلام": 9457,
      "بالاضافة": 9458,
      "بسوي": 9459,
      "للان": 9460,
      "للجسم": 9461,
      "وجميل": 9462,
      "اخرة": 9463,
      "تحاد": 9464,
      "مدرسه": 9465,
      "يدرون": 9466,
      "الاوراق": 9467,
      "الصغار": 9468,
      "الصابون": 9469,
      "البض": 9470,
      "تسب": 9471,
      "تكبر": 9472,
      "الطف": 9473,
      "يسمى": 9474,
      "يسعى": 9475,
      "لحاله": 9476,
      "خليت": 9477,
      "ers": 9478,
      "بوفيه": 9479,
      "يقصد": 9480,
      "بشدة": 9481,
      "قصيره": 9482,
      "شفايف": 9483,
      "وصلني": 9484,
      "يستفيد": 9485,
      "ألعاب": 9486,
      "دعو": 9487,
      "عطيني": 9488,
      "تركيا": 9489,
      "أحدث": 9490,
      "وووووووووو": 9491,
      "ample": 9492,
      "this": 9493,
      "الظالمين": 9494,
      "الافلام": 9495,
      "الادارة": 9496,
      "وحطيت": 9497,
      "الطيبة": 9498,
      "بائية": 9499,
      "محتاجه": 9500,
      "يييير": 9501,
      "فائدة": 9502,
      "اصدقاء": 9503,
      "forum": 9504,
      "الخامسة": 9505,
      "تهنئة": 9506,
      "والاتحاد": 9507,
      "67": 9508,
      "ip": 9509,
      "اود": 9510,
      "ببط": 9511,
      "بويض": 9512,
      "تمل": 9513,
      "تمنى": 9514,
      "خابات": 9515,
      "دنانير": 9516,
      "رمز": 9517,
      "غش": 9518,
      "فكان": 9519,
      "فادة": 9520,
      "قاسم": 9521,
      "قانون": 9522,
      "كدا": 9523,
      "لنفس": 9524,
      "مفع": 9525,
      "نجم": 9526,
      "نصب": 9527,
      "انما": 9528,
      "ينبغي": 9529,
      "المظ": 9530,
      "المقص": 9531,
      "المذنب": 9532,
      "ولبس": 9533,
      "ويق": 9534,
      "امانه": 9535,
      "ابنه": 9536,
      "ايله": 9537,
      "وقة": 9538,
      "اعجبت": 9539,
      "للمت": 9540,
      "للمس": 9541,
      "للشراء": 9542,
      "ادفع": 9543,
      "افعل": 9544,
      "كيري": 9545,
      "حدا": 9546,
      "الرغم": 9547,
      "فرص": 9548,
      "يعق": 9549,
      "المنش": 9550,
      "وليا": 9551,
      "تصمي": 9552,
      "الاسواق": 9553,
      "قصتي": 9554,
      "خطوه": 9555,
      "مطحون": 9556,
      "اخذتها": 9557,
      "حلوين": 9558,
      "تركب": 9559,
      "org": 9560,
      "مريح": 9561,
      "ارجوكم": 9562,
      "وووووووووووو": 9563,
      "أهلك": 9564,
      "مليت": 9565,
      "صديقات": 9566,
      "ارباح": 9567,
      "الخطوات": 9568,
      "شيخه": 9569,
      "ood": 9570,
      "أغلى": 9571,
      "ملابسها": 9572,
      "التقديم": 9573,
      "التصوير": 9574,
      "ago": 9575,
      "ودعتك": 9576,
      "رأيك": 9577,
      "ياناس": 9578,
      "يلعبون": 9579,
      "example": 9580,
      "ورسوله": 9581,
      "الصينية": 9582,
      "السماوات": 9583,
      "حامد": 9584,
      "استفدت": 9585,
      "hhhh": 9586,
      "السادس": 9587,
      "showthread": 9588,
      "-~-~": 9589,
      "ai": 9590,
      "mo": 9591,
      "آس": 9592,
      "أدخل": 9593,
      "أوقات": 9594,
      "إذ": 9595,
      "اوو": 9596,
      "بموضوع": 9597,
      "بوسه": 9598,
      "بوحمد": 9599,
      "ثوم": 9600,
      "جزي": 9601,
      "جتني": 9602,
      "خميس": 9603,
      "ركن": 9604,
      "شتري": 9605,
      "عته": 9606,
      "فليس": 9607,
      "كليب": 9608,
      "لوحده": 9609,
      "وبنت": 9610,
      "وورد": 9611,
      "يفرق": 9612,
      "يشرب": 9613,
      "يتحرك": 9614,
      "الاستخدام": 9615,
      "مادام": 9616,
      "لاته": 9617,
      "واعرف": 9618,
      "رافض": 9619,
      "علوان": 9620,
      "والمن": 9621,
      "ويصير": 9622,
      "ابعه": 9623,
      "اسيا": 9624,
      "السعاده": 9625,
      "بالاضافه": 9626,
      "وقعدت": 9627,
      "يافة": 9628,
      "العط": 9629,
      "العالي": 9630,
      "العزل": 9631,
      "بدات": 9632,
      "بدور": 9633,
      "بداء": 9634,
      "أنفس": 9635,
      "تحية": 9636,
      "ودر": 9637,
      "متعد": 9638,
      "متأخر": 9639,
      "انيك": 9640,
      "مدام": 9641,
      "الجبس": 9642,
      "الجيد": 9643,
      "الجايه": 9644,
      "سيئة": 9645,
      "الليله": 9646,
      "وسل": 9647,
      "طلبي": 9648,
      "لمح": 9649,
      "الكسي": 9650,
      "الخاد": 9651,
      "البطل": 9652,
      "عياله": 9653,
      "ذيه": 9654,
      "زيف": 9655,
      "ماتست": 9656,
      "وصفات": 9657,
      "تنصح": 9658,
      "خصومات": 9659,
      "وكما": 9660,
      "يسم": 9661,
      "يسكن": 9662,
      "بطاطس": 9663,
      "نسمع": 9664,
      "نسأل": 9665,
      "تصال": 9666,
      "تشمل": 9667,
      "فعال": 9668,
      "وارد": 9669,
      "حرص": 9670,
      "ضربه": 9671,
      "تستفيد": 9672,
      "نظيفه": 9673,
      "شهري": 9674,
      "يكبر": 9675,
      "arab": 9676,
      "غربه": 9677,
      "love": 9678,
      "خصوصي": 9679,
      "فاقد": 9680,
      "سلمين": 9681,
      "يضم": 9682,
      "فرحان": 9683,
      "فقدت": 9684,
      "سلامي": 9685,
      "القطع": 9686,
      "ملابسي": 9687,
      "العلوي": 9688,
      "القصيم": 9689,
      "الترجمه": 9690,
      "الاربعاء": 9691,
      "النقطة": 9692,
      "الفتيات": 9693,
      "52": 9694,
      "b8": 9695,
      "ff": 9696,
      "آء": 9697,
      "أور": 9698,
      "اات": 9699,
      "اشرح": 9700,
      "بوقت": 9701,
      "ثناء": 9702,
      "ذكار": 9703,
      "شـ": 9704,
      "صيني": 9705,
      "عبة": 9706,
      "غادة": 9707,
      "فئة": 9708,
      "لجنة": 9709,
      "مبين": 9710,
      "نمت": 9711,
      "ووا": 9712,
      "وخط": 9713,
      "يطلق": 9714,
      "ّد": 9715,
      "ينو": 9716,
      "المرس": 9717,
      "المالكي": 9718,
      "المرحلة": 9719,
      "يرتفع": 9720,
      "وردة": 9721,
      "اسابيع": 9722,
      "وقالي": 9723,
      "ياشباب": 9724,
      "بسهوله": 9725,
      "وترجع": 9726,
      "لكة": 9727,
      "اليدين": 9728,
      "احكي": 9729,
      "التراب": 9730,
      "الفوا": 9731,
      "الكث": 9732,
      "ييين": 9733,
      "مهتم": 9734,
      "اجات": 9735,
      "الخضار": 9736,
      "البوا": 9737,
      "اهلين": 9738,
      "حدة": 9739,
      "جيبة": 9740,
      "تنع": 9741,
      "اكين": 9742,
      "قالة": 9743,
      "عبود": 9744,
      "أسمع": 9745,
      "أسود": 9746,
      "أسعد": 9747,
      "ـــــــــ": 9748,
      "لاتست": 9749,
      "دينة": 9750,
      "لحالي": 9751,
      "الزوار": 9752,
      "وينة": 9753,
      "ااااااااااا": 9754,
      "ضحكه": 9755,
      "يمكنكم": 9756,
      "جمان": 9757,
      "............": 9758,
      "تبديل": 9759,
      "بأفضل": 9760,
      "دعوا": 9761,
      "استخدمي": 9762,
      "رأيي": 9763,
      "وضعها": 9764,
      "يخرب": 9765,
      "لدرجه": 9766,
      "الوحيده": 9767,
      "المواطنين": 9768,
      "كريمات": 9769,
      "كاميرات": 9770,
      "أعضاء": 9771,
      "وافقت": 9772,
      "الثالثه": 9773,
      "النهايه": 9774,
      "الوزراء": 9775,
      "تنسين": 9776,
      "ack": 9777,
      "لبيك": 9778,
      "حياك": 9779,
      "جناح": 9780,
      "الداخليه": 9781,
      "مالقيت": 9782,
      "باختصار": 9783,
      "الامريكي": 9784,
      "وطريقة": 9785,
      "الرشيدي": 9786,
      "94": 9787,
      "@@": 9788,
      "med": 9789,
      "wor": 9790,
      "بالمس": 9791,
      "تشيل": 9792,
      "جوان": 9793,
      "حاف": 9794,
      "حذف": 9795,
      "دراسة": 9796,
      "رده": 9797,
      "سول": 9798,
      "صراف": 9799,
      "ضرر": 9800,
      "فنا": 9801,
      "فعه": 9802,
      "فكيف": 9803,
      "كآ": 9804,
      "لوجود": 9805,
      "موف": 9806,
      "مراق": 9807,
      "نبينا": 9808,
      "هوت": 9809,
      "يمد": 9810,
      "يديه": 9811,
      "يضيع": 9812,
      "الوال": 9813,
      "الهوى": 9814,
      "منج": 9815,
      "ماره": 9816,
      "المتن": 9817,
      "الموعد": 9818,
      "المرأه": 9819,
      "ونظر": 9820,
      "ريات": 9821,
      "رايس": 9822,
      "ولنا": 9823,
      "ولبست": 9824,
      "ويف": 9825,
      "معط": 9826,
      "العاط": 9827,
      "الحبي": 9828,
      "بروك": 9829,
      "للعمل": 9830,
      "التعادل": 9831,
      "وووم": 9832,
      "سيح": 9833,
      "الفوم": 9834,
      "كتبه": 9835,
      "الصوص": 9836,
      "الصندوق": 9837,
      "البور": 9838,
      "البويض": 9839,
      "ربح": 9840,
      "فرغ": 9841,
      "وأخذ": 9842,
      "يومها": 9843,
      "الطرف": 9844,
      "الثوم": 9845,
      "ودية": 9846,
      "بكاء": 9847,
      "غلطان": 9848,
      "يقف": 9849,
      "الاساس": 9850,
      "الاسماء": 9851,
      "هدوء": 9852,
      "غيث": 9853,
      "عجاب": 9854,
      "خلالها": 9855,
      "خخخخخ": 9856,
      "052": 9857,
      "الاحيان": 9858,
      "تواجد": 9859,
      "عصبت": 9860,
      "ملعقتين": 9861,
      "الجوالات": 9862,
      "فراد": 9863,
      "مناسبات": 9864,
      "مفتوحه": 9865,
      "يسعدكم": 9866,
      "الرزاق": 9867,
      "الولاده": 9868,
      "سكتت": 9869,
      "البخاري": 9870,
      "تخفيضات": 9871,
      "يمتلك": 9872,
      "المعلمين": 9873,
      "الغسالات": 9874,
      "68": 9875,
      "ile": 9876,
      "new": 9877,
      "wh": 9878,
      "yp": 9879,
      "أبغى": 9880,
      "أرسل": 9881,
      "ئك": 9882,
      "ئها": 9883,
      "تمي": 9884,
      "تصر": 9885,
      "ثوب": 9886,
      "حـ": 9887,
      "حرج": 9888,
      "خره": 9889,
      "رأت": 9890,
      "زار": 9891,
      "سلة": 9892,
      "طَ": 9893,
      "طاي": 9894,
      "غضب": 9895,
      "فانت": 9896,
      "فإنه": 9897,
      "كيت": 9898,
      "موفق": 9899,
      "يضع": 9900,
      "انط": 9901,
      "ونق": 9902,
      "بيطلع": 9903,
      "رافي": 9904,
      "علب": 9905,
      "ويسر": 9906,
      "امال": 9907,
      "اميل": 9908,
      "ومرت": 9909,
      "بالان": 9910,
      "بالعالم": 9911,
      "الحركه": 9912,
      "وتوش": 9913,
      "اعيد": 9914,
      "التقلي": 9915,
      "اخترت": 9916,
      "وحس": 9917,
      "وحاط": 9918,
      "بهذي": 9919,
      "بنه": 9920,
      "ولاجين": 9921,
      "محسن": 9922,
      "طيكم": 9923,
      "حيوانات": 9924,
      "وضاع": 9925,
      "اوصل": 9926,
      "البها": 9927,
      "القبي": 9928,
      "القليل": 9929,
      "القادر": 9930,
      "الرسم": 9931,
      "دقت": 9932,
      "مجت": 9933,
      "تفك": 9934,
      "يهديك": 9935,
      "الغاز": 9936,
      "الغلط": 9937,
      "رحمتك": 9938,
      "جروح": 9939,
      "والمح": 9940,
      "حلقه": 9941,
      "نتكلم": 9942,
      "وارجع": 9943,
      "جميعاً": 9944,
      "شفتك": 9945,
      "ندا": 9946,
      "روحك": 9947,
      "روحها": 9948,
      "فتحه": 9949,
      "صحيفة": 9950,
      "بجودة": 9951,
      "مليان": 9952,
      "تطور": 9953,
      "وابوي": 9954,
      "اهداف": 9955,
      "التحليل": 9956,
      "ريحات": 9957,
      "بايت": 9958,
      "الكمية": 9959,
      "الشهراني": 9960,
      "دموعي": 9961,
      "والأرض": 9962,
      "للتواصل": 9963,
      "الأشخاص": 9964,
      "التداول": 9965,
      "الكنب": 9966,
      "الحدود": 9967,
      "واواواوا": 9968,
      "الالكتروني": 9969,
      "أعم": 9970,
      "بمكان": 9971,
      "توق": 9972,
      "تفرق": 9973,
      "ثور": 9974,
      "جول": 9975,
      "جرام": 9976,
      "جمعة": 9977,
      "حزين": 9978,
      "دمي": 9979,
      "رور": 9980,
      "سديم": 9981,
      "ساحة": 9982,
      "شوب": 9983,
      "صفر": 9984,
      "صاري": 9985,
      "ضخ": 9986,
      "ضني": 9987,
      "طهر": 9988,
      "طاير": 9989,
      "ظرة": 9990,
      "غال": 9991,
      "ـاعد": 9992,
      "فلت": 9993,
      "فورا": 9994,
      "قته": 9995,
      "لعمل": 9996,
      "يكثر": 9997,
      "يغفر": 9998,
      "ّت": 9999,
      "الْ": 10000,
      "البعث": 10001,
      "مارح": 10002,
      "المذ": 10003,
      "المحي": 10004,
      "المزر": 10005,
      "واثق": 10006,
      "راها": 10007,
      "يرسل": 10008,
      "وياها": 10009,
      "اسكت": 10010,
      "اسطح": 10011,
      "ومتى": 10012,
      "بالكم": 10013,
      "بالرد": 10014,
      "بالشكل": 10015,
      "ياك": 10016,
      "للغرفه": 10017,
      "وعقب": 10018,
      "الدوله": 10019,
      "بتطلع": 10020,
      "خلقه": 10021,
      "وبصوت": 10022,
      "تعتمد": 10023,
      "ييه": 10024,
      "الصيني": 10025,
      "عندى": 10026,
      "عيالي": 10027,
      "جيش": 10028,
      "الهدايا": 10029,
      "وصلك": 10030,
      "موزة": 10031,
      "وأبو": 10032,
      "الثق": 10033,
      "الثلج": 10034,
      "لساني": 10035,
      "كثرت": 10036,
      "بكيت": 10037,
      "اقسم": 10038,
      "الغلا": 10039,
      "بطريق": 10040,
      "ــــــــــــــ": 10041,
      "وزني": 10042,
      "لفترة": 10043,
      "تتوفر": 10044,
      "خطاء": 10045,
      "..............": 10046,
      "طرت": 10047,
      "الماي": 10048,
      "رررررر": 10049,
      "صدقوني": 10050,
      "شغالات": 10051,
      "العادية": 10052,
      "أجمعين": 10053,
      "سعوديه": 10054,
      "الشخصيات": 10055,
      "نظرات": 10056,
      "اسويها": 10057,
      "أروع": 10058,
      "اولاد": 10059,
      "قاعة": 10060,
      "التفاح": 10061,
      "هذآ": 10062,
      "الوزير": 10063,
      "صابون": 10064,
      "الوصفة": 10065,
      "حفلات": 10066,
      "السياحة": 10067,
      "your": 10068,
      "irst": 10069,
      "الحاجة": 10070,
      "اشكرك": 10071,
      "كُل": 10072,
      "قديمه": 10073,
      "متعلقة": 10074,
      "دراستي": 10075,
      "ly": 10076,
      "ئيه": 10077,
      "تعني": 10078,
      "حش": 10079,
      "حفل": 10080,
      "خول": 10081,
      "دود": 10082,
      "ذها": 10083,
[...]
